{
  "version": "1.0",
  "truncation": null,
  "padding": null,
  "added_tokens": [
    {
      "id": 0,
      "content": "<unk>",
      "single_word": false,
      "lstrip": false,
      "rstrip": false,
      "normalized": false,
      "special": true
    }
  ],
  "normalizer": null,
  "pre_tokenizer": {
    "type": "ByteLevel",
    "add_prefix_space": false,
    "trim_offsets": true,
    "use_regex": true
  },
  "post_processor": null,
  "decoder": null,
  "model": {
    "type": "BPE",
    "dropout": null,
    "unk_token": "<unk>",
    "continuing_subword_prefix": null,
    "end_of_word_suffix": null,
    "fuse_unk": false,
    "byte_fallback": false,
    "ignore_merges": false,
    "vocab": {
      "<unk>": 0,
      "!": 1,
      "\"": 2,
      "#": 3,
      "$": 4,
      "%": 5,
      "&": 6,
      "'": 7,
      "(": 8,
      ")": 9,
      "*": 10,
      "+": 11,
      ",": 12,
      "-": 13,
      ".": 14,
      "/": 15,
      "0": 16,
      "1": 17,
      "2": 18,
      "3": 19,
      "4": 20,
      "5": 21,
      "6": 22,
      "7": 23,
      "8": 24,
      "9": 25,
      ":": 26,
      ";": 27,
      "<": 28,
      "=": 29,
      ">": 30,
      "?": 31,
      "@": 32,
      "A": 33,
      "B": 34,
      "C": 35,
      "D": 36,
      "E": 37,
      "F": 38,
      "G": 39,
      "H": 40,
      "I": 41,
      "J": 42,
      "K": 43,
      "L": 44,
      "M": 45,
      "N": 46,
      "O": 47,
      "P": 48,
      "Q": 49,
      "R": 50,
      "S": 51,
      "T": 52,
      "U": 53,
      "V": 54,
      "W": 55,
      "X": 56,
      "Y": 57,
      "Z": 58,
      "[": 59,
      "\\": 60,
      "]": 61,
      "^": 62,
      "_": 63,
      "`": 64,
      "a": 65,
      "b": 66,
      "c": 67,
      "d": 68,
      "e": 69,
      "f": 70,
      "g": 71,
      "h": 72,
      "i": 73,
      "j": 74,
      "k": 75,
      "l": 76,
      "m": 77,
      "n": 78,
      "o": 79,
      "p": 80,
      "q": 81,
      "r": 82,
      "s": 83,
      "t": 84,
      "u": 85,
      "v": 86,
      "w": 87,
      "x": 88,
      "y": 89,
      "z": 90,
      "{": 91,
      "|": 92,
      "}": 93,
      "~": 94,
      "¡": 95,
      "¢": 96,
      "£": 97,
      "¤": 98,
      "¥": 99,
      "¦": 100,
      "§": 101,
      "¨": 102,
      "©": 103,
      "ª": 104,
      "«": 105,
      "¬": 106,
      "®": 107,
      "¯": 108,
      "°": 109,
      "±": 110,
      "²": 111,
      "³": 112,
      "´": 113,
      "µ": 114,
      "¶": 115,
      "·": 116,
      "¸": 117,
      "¹": 118,
      "º": 119,
      "»": 120,
      "¼": 121,
      "½": 122,
      "¾": 123,
      "¿": 124,
      "À": 125,
      "Á": 126,
      "Â": 127,
      "Ã": 128,
      "Ä": 129,
      "Å": 130,
      "Æ": 131,
      "Ç": 132,
      "È": 133,
      "É": 134,
      "Ê": 135,
      "Ë": 136,
      "Ì": 137,
      "Í": 138,
      "Î": 139,
      "Ï": 140,
      "Ð": 141,
      "Ñ": 142,
      "Ò": 143,
      "Ó": 144,
      "Ô": 145,
      "Õ": 146,
      "Ö": 147,
      "×": 148,
      "Ø": 149,
      "Ù": 150,
      "Ú": 151,
      "Û": 152,
      "Ü": 153,
      "Ý": 154,
      "Þ": 155,
      "ß": 156,
      "à": 157,
      "á": 158,
      "â": 159,
      "ã": 160,
      "ä": 161,
      "å": 162,
      "æ": 163,
      "ç": 164,
      "è": 165,
      "é": 166,
      "ê": 167,
      "ë": 168,
      "ì": 169,
      "í": 170,
      "î": 171,
      "ï": 172,
      "ð": 173,
      "ñ": 174,
      "ò": 175,
      "ó": 176,
      "ô": 177,
      "õ": 178,
      "ö": 179,
      "÷": 180,
      "ø": 181,
      "ù": 182,
      "ú": 183,
      "û": 184,
      "ü": 185,
      "ý": 186,
      "þ": 187,
      "ÿ": 188,
      "Ā": 189,
      "ā": 190,
      "Ă": 191,
      "ă": 192,
      "Ą": 193,
      "ą": 194,
      "Ć": 195,
      "ć": 196,
      "Ĉ": 197,
      "ĉ": 198,
      "Ċ": 199,
      "ċ": 200,
      "Č": 201,
      "č": 202,
      "Ď": 203,
      "ď": 204,
      "Đ": 205,
      "đ": 206,
      "Ē": 207,
      "ē": 208,
      "Ĕ": 209,
      "ĕ": 210,
      "Ė": 211,
      "ė": 212,
      "Ę": 213,
      "ę": 214,
      "Ě": 215,
      "ě": 216,
      "Ĝ": 217,
      "ĝ": 218,
      "Ğ": 219,
      "ğ": 220,
      "Ġ": 221,
      "ġ": 222,
      "Ģ": 223,
      "ģ": 224,
      "Ĥ": 225,
      "ĥ": 226,
      "Ħ": 227,
      "ħ": 228,
      "Ĩ": 229,
      "ĩ": 230,
      "Ī": 231,
      "ī": 232,
      "Ĭ": 233,
      "ĭ": 234,
      "Į": 235,
      "į": 236,
      "İ": 237,
      "ı": 238,
      "Ĳ": 239,
      "ĳ": 240,
      "Ĵ": 241,
      "ĵ": 242,
      "Ķ": 243,
      "ķ": 244,
      "ĸ": 245,
      "Ĺ": 246,
      "ĺ": 247,
      "Ļ": 248,
      "ļ": 249,
      "Ľ": 250,
      "ľ": 251,
      "Ŀ": 252,
      "ŀ": 253,
      "Ł": 254,
      "ł": 255,
      "Ń": 256,
      "ĠĠ": 257,
      "ĠĠĠĠ": 258,
      "in": 259,
      "ĠĠĠ": 260,
      "int": 261,
      "de": 262,
      "ĊĠĠĠĠ": 263,
      "Ġ=": 264,
      "st": 265,
      "ĊĠĠĠ": 266,
      "Ġi": 267,
      "Ġ<": 268,
      ");": 269,
      "re": 270,
      "def": 271,
      "or": 272,
      "Ġ(": 273,
      "Ċĉ": 274,
      "on": 275,
      "ine": 276,
      "Ġc": 277,
      "define": 278,
      "Ġl": 279,
      "ĠĠĠĠĠĠĠĠ": 280,
      "ĊĠĠĠĠĠĠĠ": 281,
      "Ġa": 282,
      "Ġ{": 283,
      "Ġm": 284,
      "se": 285,
      "Ġf": 286,
      "Ġn": 287,
      "Ġp": 288,
      "++": 289,
      "Ġ1": 290,
      "00": 291,
      "cl": 292,
      "Ġ0": 293,
      "Ġ}": 294,
      "ou": 295,
      "ur": 296,
      "en": 297,
      "Ġs": 298,
      "Ġint": 299,
      "clu": 300,
      "inclu": 301,
      "include": 302,
      "()": 303,
      "ret": 304,
      "ll": 305,
      "**": 306,
      "Ġv": 307,
      "Ġ<<": 308,
      "std": 309,
      "urn": 310,
      "return": 311,
      "--": 312,
      "ĠĠĠĠĠĠĠ": 313,
      "Ġ+": 314,
      "Ġ>": 315,
      "..": 316,
      "//": 317,
      "ong": 318,
      "Ċĉĉ": 319,
      "out": 320,
      "it": 321,
      "Ġt": 322,
      "Ġb": 323,
      "Ġfor": 324,
      "Ġif": 325,
      "ĊĠĠĠĠĠĠĠĠĠĠĠ": 326,
      "Ġ-": 327,
      "Ġ\"": 328,
      "ac": 329,
      "am": 330,
      "Ġlong": 331,
      "<<": 332,
      "];": 333,
      "at": 334,
      "][": 335,
      "er": 336,
      "ing": 337,
      "Ġd": 338,
      "con": 339,
      "yp": 340,
      "ns": 341,
      "ir": 342,
      "Ġx": 343,
      "us": 344,
      "Ġreturn": 345,
      "if": 346,
      "le": 347,
      "++)": 348,
      "ct": 349,
      "Ġ&": 350,
      "end": 351,
      "\",": 352,
      "typ": 353,
      "Ġma": 354,
      "(\"": 355,
      "ĊĠĠĠĠĠĠĠĠĠĠĠĠ": 356,
      "Ġ*": 357,
      "ĊĠ": 358,
      "KK": 359,
      "al": 360,
      "id": 361,
      "ame": 362,
      "ect": 363,
      "ar": 364,
      "){": 365,
      "ector": 366,
      "mp": 367,
      "****": 368,
      "iz": 369,
      "ize": 370,
      "type": 371,
      "Ġll": 372,
      "::": 373,
      "Ġ>>": 374,
      "Ġstd": 375,
      "__": 376,
      "Ġj": 377,
      "0000": 378,
      "Ġr": 379,
      "ĠT": 380,
      "op": 381,
      "str": 382,
      "].": 383,
      "==": 384,
      "ue": 385,
      "const": 386,
      "os": 387,
      "ma": 388,
      "Ġcout": 389,
      "Ġe": 390,
      "Ġ==": 391,
      "typedef": 392,
      "air": 393,
      "WW": 394,
      "for": 395,
      "an": 396,
      "EE": 397,
      "();": 398,
      "nt": 399,
      "ol": 400,
      "Ġcin": 401,
      "Ġans": 402,
      "Ġre": 403,
      "ĊĊ": 404,
      "size": 405,
      "using": 406,
      "hi": 407,
      "ace": 408,
      "ack": 409,
      "ti": 410,
      "Ġ'": 411,
      "sp": 412,
      "lse": 413,
      ">>": 414,
      "Ġy": 415,
      "Ġname": 416,
      "io": 417,
      "od": 418,
      "##": 419,
      "ut": 420,
      "----": 421,
      "Ġ2": 422,
      "emp": 423,
      "Ċĉĉĉ": 424,
      "space": 425,
      "ĊĠĠĠĠĠĠĠĠĠĠĠĠĠĠĠ": 426,
      "ate": 427,
      "string": 428,
      "Ġu": 429,
      "eg": 430,
      "Ġnamespace": 431,
      "],": 432,
      "))": 433,
      "(\"%": 434,
      "oid": 435,
      "back": 436,
      "Ġk": 437,
      "endl": 438,
      "ush": 439,
      "....": 440,
      "Ġw": 441,
      "Ġ;": 442,
      "um": 443,
      "ĠĠĠĠĠĠĠĠĠĠĠĠĠĠĠĠ": 444,
      "Ġg": 445,
      "set": 446,
      "ĊĊĠĠĠ": 447,
      "Ġmain": 448,
      "ĠM": 449,
      "âĸ": 450,
      "as": 451,
      "egin": 452,
      "])": 453,
      "irst": 454,
      "Ġvector": 455,
      "Ġ%": 456,
      "hile": 457,
      "begin": 458,
      "bit": 459,
      "Ġ<=": 460,
      "ble": 461,
      "ans": 462,
      "LL": 463,
      "Ġin": 464,
      "cout": 465,
      "ow": 466,
      "vector": 467,
      "stre": 468,
      "Ġ,": 469,
      "can": 470,
      "empl": 471,
      "stream": 472,
      "Ġ++": 473,
      "cond": 474,
      "!=": 475,
      "********": 476,
      "ith": 477,
      "Ġpr": 478,
      "second": 479,
      "DD": 480,
      "emplate": 481,
      "ch": 482,
      "ii": 483,
      "ouble": 484,
      "Ġpair": 485,
      "cin": 486,
      "Ġ)": 487,
      "xt": 488,
      "bits": 489,
      "<<\"": 490,
      "stdio": 491,
      "pr": 492,
      "++.": 493,
      "stdc": 494,
      "Ġ+=": 495,
      "canf": 496,
      "Ġ//": 497,
      "]=": 498,
      "Ġelse": 499,
      "Ġ&&": 500,
      "Ġcon": 501,
      "KKKK": 502,
      "]);": 503,
      "ase": 504,
      "tie": 505,
      "ĊĠĠĠĠĠ": 506,
      "void": 507,
      "<=": 508,
      "template": 509,
      "ed": 510,
      "(),": 511,
      "),": 512,
      "ve": 513,
      "\";": 514,
      "++;": 515,
      "ig": 516,
      "pair": 517,
      "ool": 518,
      "intf": 519,
      "Ġ:": 520,
      "ass": 521,
      "ĠN": 522,
      "ename": 523,
      "ĠF": 524,
      "Ġendl": 525,
      "et": 526,
      "Ġres": 527,
      "nc": 528,
      "Ġ|": 529,
      "Ġ/": 530,
      "));": 531,
      "is": 532,
      "¿½": 533,
      "ï¿½": 534,
      "push": 535,
      "Ġwhile": 536,
      "IN": 537,
      "Ġmod": 538,
      "alse": 539,
      "Ġq": 540,
      "â£": 541,
      "erat": 542,
      "ĠA": 543,
      "Ġdouble": 544,
      "ync": 545,
      "im": 546,
      "with": 547,
      "ad": 548,
      "erator": 549,
      "line": 550,
      "Ġ!=": 551,
      "Ġmax": 552,
      "sync": 553,
      "open": 554,
      "Ġscanf": 555,
      "--------": 556,
      ").": 557,
      "ĠS": 558,
      "10": 559,
      "Ġo": 560,
      "reopen": 561,
      "88": 562,
      "ode": 563,
      "max": 564,
      "rt": 565,
      "ke": 566,
      "ĠP": 567,
      "first": 568,
      "EEEE": 569,
      "Ġconst": 570,
      "nd": 571,
      "else": 572,
      "put": 573,
      "...": 574,
      "WWWW": 575,
      "ï¿½ï¿½": 576,
      "////": 577,
      "pb": 578,
      "ree": 579,
      "Ġar": 580,
      "MM": 581,
      "++){": 582,
      "####": 583,
      "Ġop": 584,
      "Ġfirst": 585,
      "Ġch": 586,
      "Ġtr": 587,
      "uto": 588,
      ";}": 589,
      "Ġit": 590,
      "Ġdp": 591,
      "ag": 592,
      "base": 593,
      "())": 594,
      "Ġ__": 595,
      "Ġpush": 596,
      "OD": 597,
      "Ġ_": 598,
      "long": 599,
      "Ġ>=": 600,
      "=(": 601,
      "Ġmin": 602,
      "Ġh": 603,
      "AX": 604,
      "Ġcnt": 605,
      "ĠR": 606,
      "Ġ3": 607,
      "typename": 608,
      "ot": 609,
      "........": 610,
      "que": 611,
      "ic": 612,
      "Ġprintf": 613,
      "ul": 614,
      "Ġst": 615,
      "ĠĠĠĠĠ": 616,
      "char": 617,
      "bool": 618,
      "Ġ#": 619,
      "class": 620,
      "em": 621,
      "cnt": 622,
      "â£¿": 623,
      ";;": 624,
      "ist": 625,
      "};": 626,
      "dp": 627,
      "Ġsecond": 628,
      "of": 629,
      "un": 630,
      "((": 631,
      "Ġios": 632,
      "Ġval": 633,
      "00000000": 634,
      "map": 635,
      "ĊĠĠ": 636,
      "ĉĉ": 637,
      "Ġpb": 638,
      "while": 639,
      "';": 640,
      "es": 641,
      "sert": 642,
      "Ġmake": 643,
      "tin": 644,
      "txt": 645,
      "ast": 646,
      "ort": 647,
      "mod": 648,
      "ĠL": 649,
      ",,": 650,
      "64": 651,
      "om": 652,
      "Ġmp": 653,
      "auto": 654,
      "****************": 655,
      "err": 656,
      "____": 657,
      "Ġvoid": 658,
      "ion": 659,
      "âĸĳ": 660,
      "false": 661,
      "')": 662,
      "+=": 663,
      "fs": 664,
      "ign": 665,
      "ĊĠĠĠĠĠĠĠĠĠĠĠĠĠĠĠĠĠĠĠ": 666,
      "--)": 667,
      "GG": 668,
      "olve": 669,
      "ck": 670,
      "(){": 671,
      "Ġ\"<<": 672,
      "cur": 673,
      "inline": 674,
      "min": 675,
      "ak": 676,
      "bu": 677,
      "Ġsz": 678,
      "res": 679,
      "ĠMOD": 680,
      "val": 681,
      "Ġ((": 682,
      "DDDD": 683,
      "tr": 684,
      "ĠD": 685,
      "Ġget": 686,
      "ĠG": 687,
      "Ġ||": 688,
      "000": 689,
      "Ġde": 690,
      "\",&": 691,
      "Ġtyp": 692,
      "pp": 693,
      "====": 694,
      "ĠC": 695,
      "il": 696,
      "Ġsum": 697,
      ">=": 698,
      "Ġall": 699,
      "());": 700,
      "11": 701,
      "Ġcur": 702,
      "Ġoperator": 703,
      "orde": 704,
      "\");": 705,
      "ap": 706,
      "â£¿â£¿": 707,
      "INF": 708,
      "]==": 709,
      "ind": 710,
      "pos": 711,
      "cd": 712,
      "node": 713,
      "OR": 714,
      "ge": 715,
      "ount": 716,
      ",-": 717,
      "--;": 718,
      "ĠI": 719,
      "igned": 720,
      "Ġstring": 721,
      "Ġld": 722,
      "\")": 723,
      "endif": 724,
      "ext": 725,
      "tinue": 726,
      "Ġsize": 727,
      "ath": 728,
      "lo": 729,
      "lld": 730,
      "iostream": 731,
      "Ġtrue": 732,
      "queue": 733,
      "reak": 734,
      "arr": 735,
      "âĸĳâĸĳ": 736,
      "Ġfreopen": 737,
      "ime": 738,
      "Ġpii": 739,
      "ĠB": 740,
      "sum": 741,
      "MAX": 742,
      "]]": 743,
      "he": 744,
      "Ġmid": 745,
      "Ċĉĉĉĉ": 746,
      "Ġmem": 747,
      "Ġad": 748,
      "Ġto": 749,
      "freopen": 750,
      "ithm": 751,
      "tim": 752,
      "gor": 753,
      "EP": 754,
      "->": 755,
      "Ġz": 756,
      "pd": 757,
      "gorithm": 758,
      "âĸĪ": 759,
      "Ġ?": 760,
      "Ġ\";": 761,
      "99": 762,
      "Ġbool": 763,
      "algorithm": 764,
      "Ġsolve": 765,
      "ds": 766,
      "Ġarr": 767,
      "Ġfalse": 768,
      "scanf": 769,
      "ver": 770,
      "len": 771,
      "Ġ'\\": 772,
      "tree": 773,
      "all": 774,
      "printf": 775,
      "Ġse": 776,
      "gs": 777,
      "double": 778,
      "nsigned": 779,
      "bs": 780,
      "cm": 781,
      "ĠĠĠĠĠĠ": 782,
      "ĊĊĠĠĠĠĠĠĠ": 783,
      "]-": 784,
      "ĠINF": 785,
      "ent": 786,
      "Ġrep": 787,
      "ix": 788,
      "KKKKKKKK": 789,
      "num": 790,
      "Ġ100000000": 791,
      "Ġtypename": 792,
      "agma": 793,
      "pragma": 794,
      "Ġout": 795,
      "ower": 796,
      "pop": 797,
      "ES": 798,
      "////////": 799,
      "th": 800,
      "NO": 801,
      "ĠĠĠĠĠĠĠĠĠĠĠ": 802,
      "Ġstdin": 803,
      "&&": 804,
      "Ġret": 805,
      "get": 806,
      "pre": 807,
      "est": 808,
      "Ġcl": 809,
      "8888": 810,
      "Ġ10": 811,
      "AR": 812,
      "Ġchar": 813,
      "Ġis": 814,
      "*(": 815,
      "Ġsort": 816,
      "ostream": 817,
      "ĠLL": 818,
      "to": 819,
      "red": 820,
      "Ġunsigned": 821,
      "Ġ5": 822,
      "ĠĠĠĠĠĠĠĠĠĠĠĠĠĠĠĠĠĠĠĠĠĠĠĠĠĠĠĠĠĠĠĠ": 823,
      "Ġdfs": 824,
      "sz": 825,
      "----------------": 826,
      "Ġ);": 827,
      "Ġinf": 828,
      "++--": 829,
      "Ġpos": 830,
      "ff": 831,
      "omp": 832,
      "Ġ7": 833,
      "ĠFOR": 834,
      "Ġvi": 835,
      "ay": 836,
      "(!": 837,
      "fr": 838,
      "MMMM": 839,
      "ub": 840,
      "Ġ-=": 841,
      "++--++--": 842,
      ")%": 843,
      "Ġ(!": 844,
      "ĠV": 845,
      "Ġcontinue": 846,
      "/*": 847,
      "ld": 848,
      "Ġinline": 849,
      "Ġset": 850,
      "ULL": 851,
      "ound": 852,
      "ios": 853,
      "ĊĉĊ": 854,
      "Ġcerr": 855,
      "mx": 856,
      "]+": 857,
      "ĠGC": 858,
      "ft": 859,
      "oint": 860,
      "32": 861,
      "count": 862,
      "Ġmemset": 863,
      "input": 864,
      "Ġ\\": 865,
      "Ġos": 866,
      "ull": 867,
      "\",\"": 868,
      "Ġtree": 869,
      "Ġid": 870,
      ")(": 871,
      "########": 872,
      "Ġbreak": 873,
      "pdate": 874,
      "ht": 875,
      "ĠĠĠĠĠĠĠĠĠ": 876,
      "ex": 877,
      "ifdef": 878,
      "sk": 879,
      ");}": 880,
      "ĠGCC": 881,
      "insert": 882,
      "Ġgcd": 883,
      "ss": 884,
      "ĠO": 885,
      "ps": 886,
      "ordered": 887,
      "âĸĪâĸĪ": 888,
      "Ġ--": 889,
      "Ġ\"\\": 890,
      "ï¿½ï¿½ï¿½ï¿½": 891,
      "53": 892,
      "cmath": 893,
      "Ġmx": 894,
      "âĸĴ": 895,
      "Ġstr": 896,
      "ĠMAX": 897,
      "vi": 898,
      "Ġ4": 899,
      "Ġpre": 900,
      "li": 901,
      "idx": 902,
      "18": 903,
      "ta": 904,
      "*/": 905,
      "Ġfi": 906,
      "15": 907,
      "\"<<": 908,
      "100": 909,
      "ight": 910,
      ")/": 911,
      "GS": 912,
      "cstdio": 913,
      "Ġclass": 914,
      "and": 915,
      "Ġfr": 916,
      "mid": 917,
      "Ġ1000000007": 918,
      "Ġ\",": 919,
      "stack": 920,
      ",&": 921,
      "Ġnum": 922,
      "Ġstdout": 923,
      "ro": 924,
      "Ġlen": 925,
      "bug": 926,
      "art": 927,
      "26": 928,
      "pii": 929,
      "ĊĠĠĠĠĠĠĠĠ": 930,
      "YES": 931,
      "NULL": 932,
      "................": 933,
      "ip": 934,
      "Ġadd": 935,
      "ax": 936,
      "10000": 937,
      "EEEEEEEE": 938,
      "ĠPI": 939,
      "uct": 940,
      "sizeof": 941,
      "Ġread": 942,
      "now": 943,
      "fi": 944,
      "ce": 945,
      "Ġ]": 946,
      "bound": 947,
      "ĠU": 948,
      "ost": 949,
      "[]": 950,
      "ty": 951,
      "sed": 952,
      "(-": 953,
      "========": 954,
      "//#": 955,
      "Ġpll": 956,
      "ĊĊĊĊ": 957,
      "fl": 958,
      "ĠAr": 959,
      ">&": 960,
      "output": 961,
      "14": 962,
      "hpp": 963,
      "ity": 964,
      "12": 965,
      "vis": 966,
      "ĊĠĠĠĠĊĠĠĠ": 967,
      "...)": 968,
      ";;;;": 969,
      "]++;": 970,
      "ARGS": 971,
      "oc": 972,
      "Ġpi": 973,
      "________": 974,
      "ment": 975,
      "Ġoptim": 976,
      "sse": 977,
      "are": 978,
      "uer": 979,
      "ĠĠĠĠĠĠĠĠĠĠ": 980,
      "MAXN": 981,
      "Ġ.": 982,
      "SE": 983,
      "ite": 984,
      "eck": 985,
      "ĠX": 986,
      "({": 987,
      "Ġ!": 988,
      "iterator": 989,
      "ĊĠĠĠĠĠĠĠĠĠĠĠĠĠĠĠĠĠĠĠĠĠĠĠ": 990,
      "cstring": 991,
      "order": 992,
      "VA": 993,
      "Ġull": 994,
      "Ġ*/": 995,
      ",,,,": 996,
      "ĠREP": 997,
      "Ġtmp": 998,
      "âĸĴâĸĴ": 999,
      "Ġoptimize": 1000,
      "Ġtemplate": 1001,
      "ĠE": 1002,
      "Ġac": 1003,
      "act": 1004,
      ";++": 1005,
      "Ġvalue": 1006,
      "Ġsq": 1007,
      "uery": 1008,
      "ĊĊĠ": 1009,
      "OC": 1010,
      "********************************": 1011,
      "erase": 1012,
      "Ġmap": 1013,
      "20": 1014,
      "ec": 1015,
      "wap": 1016,
      "::::": 1017,
      "ĊĠĠĠĠĠĠ": 1018,
      "ction": 1019,
      "his": 1020,
      "Ġss": 1021,
      "abs": 1022,
      "]=='": 1023,
      "Ġ10000": 1024,
      "Ġ[": 1025,
      "Ġle": 1026,
      "().": 1027,
      "stdin": 1028,
      "Ġne": 1029,
      "verse": 1030,
      "Ġmul": 1031,
      "Ġii": 1032,
      "');": 1033,
      "up": 1034,
      "WWWWWWWW": 1035,
      "});": 1036,
      "Ġsizeof": 1037,
      "Ġdebug": 1038,
      ">(": 1039,
      "]){": 1040,
      "INE": 1041,
      "assert": 1042,
      "97": 1043,
      "33": 1044,
      "Ġput": 1045,
      "lib": 1046,
      "âł": 1047,
      "ont": 1048,
      "struct": 1049,
      "sort": 1050,
      ">,": 1051,
      "cerr": 1052,
      "buil": 1053,
      "rep": 1054,
      "tmp": 1055,
      "MOD": 1056,
      "empty": 1057,
      "Ġnode": 1058,
      "GGGG": 1059,
      "LINE": 1060,
      "man": 1061,
      "ĊĠĠĠĠĠĠĠĠĠ": 1062,
      "gn": 1063,
      "â£¿â£¿â£¿â£¿": 1064,
      "ep": 1065,
      "Ġthe": 1066,
      "unordered": 1067,
      "Ġvis": 1068,
      "stdlib": 1069,
      "ĠĠĠĠĠĠĠĠĠĠĠĠĠ": 1070,
      "Ġeps": 1071,
      "///": 1072,
      "update": 1073,
      "cle": 1074,
      "stat": 1075,
      "Ċĉĉĉĉĉ": 1076,
      "Ġof": 1077,
      "Ġauto": 1078,
      "Ġbu": 1079,
      "maxn": 1080,
      "DG": 1081,
      "DDDDDDDD": 1082,
      "prec": 1083,
      "time": 1084,
      "ision": 1085,
      "ĊĠĠĠĠĠĠĠĠĠĠĠĠĠĠĠĠĠĠĠĠĠĠĠĠĠĠĠĠ": 1086,
      "ok": 1087,
      "Ġsc": 1088,
      "Ġand": 1089,
      "front": 1090,
      "Ġtemp": 1091,
      "Ġlo": 1092,
      "ata": 1093,
      "<<'": 1094,
      "ĊĊĉ": 1095,
      "Ġ*=": 1096,
      "bitset": 1097,
      "atr": 1098,
      "ĊĠĠĠĠĠĠĠĠĠĠĠĠĠĠĠĠĠĠĠĠĠĠĠĠĠĠĠĠĠĠĠĠĠĠĠĠĠĠĠĠĠĠĠĠ": 1099,
      "ult": 1100,
      "WWW": 1101,
      ")-": 1102,
      "precision": 1103,
      "az": 1104,
      "Ġarg": 1105,
      "Ġ%=": 1106,
      "Ġdist": 1107,
      "Ġex": 1108,
      "â¢": 1109,
      "clo": 1110,
      "ĠĠĠĠĠĠĠĠĠĠĠĠ": 1111,
      "find": 1112,
      "<<(": 1113,
      "Ġmn": 1114,
      "]={": 1115,
      "Ġend": 1116,
      "ioman": 1117,
      "iomanip": 1118,
      "ĠĠĠĠĠĠĠĠĠĠĠĠĠĠĠ": 1119,
      "24": 1120,
      "1000": 1121,
      "Int": 1122,
      "Ġadj": 1123,
      "////////////////": 1124,
      "gcd": 1125,
      ")+": 1126,
      "ore": 1127,
      "Ġ(\"": 1128,
      "mn": 1129,
      "(...)": 1130,
      "Ġabs": 1131,
      "mem": 1132,
      ">;": 1133,
      "(__": 1134,
      "58": 1135,
      "++--++--++--++--": 1136,
      "Ġacos": 1137,
      "âĸĢ": 1138,
      "Ġ^": 1139,
      "Ġ1000": 1140,
      "stdout": 1141,
      ")*": 1142,
      "EEE": 1143,
      "âķ": 1144,
      "Ġok": 1145,
      "gth": 1146,
      "unction": 1147,
      "(_": 1148,
      "Ġinclude": 1149,
      "Ġ\"<<#": 1150,
      "top": 1151,
      "JU": 1152,
      "one": 1153,
      "resize": 1154,
      "Ġdb": 1155,
      "ER": 1156,
      "break": 1157,
      "Ġlast": 1158,
      "dist": 1159,
      "<<\"\\": 1160,
      "atrix": 1161,
      "DGE": 1162,
      "mask": 1163,
      "JUDGE": 1164,
      "EB": 1165,
      "list": 1166,
      "arent": 1167,
      "its": 1168,
      "NLINE": 1169,
      "<(": 1170,
      "Ġfast": 1171,
      "Ġ';": 1172,
      "159": 1173,
      "cstdlib": 1174,
      "dex": 1175,
      "lock": 1176,
      "@@": 1177,
      "comp": 1178,
      "âĸĳâĸĳâĸĳâĸĳ": 1179,
      "rand": 1180,
      "dfs": 1181,
      ")*(": 1182,
      "AL": 1183,
      "builtin": 1184,
      "Ġostream": 1185,
      "Ġdefine": 1186,
      "ange": 1187,
      "continue": 1188,
      "pper": 1189,
      "14159": 1190,
      "ptr": 1191,
      ")<<": 1192,
      "Ġtype": 1193,
      "1415926": 1194,
      "ĠH": 1195,
      "KKK": 1196,
      "vec": 1197,
      "Ġvec": 1198,
      "par": 1199,
      "rite": 1200,
      "Ġ/=": 1201,
      "--){": 1202,
      "clock": 1203,
      "Ġcom": 1204,
      "Ġbase": 1205,
      "xx": 1206,
      "ndef": 1207,
      "||": 1208,
      "rr": 1209,
      "si": 1210,
      "Max": 1211,
      "ead": 1212,
      "name": 1213,
      "temp": 1214,
      "In": 1215,
      "ess": 1216,
      "43": 1217,
      "Ġidx": 1218,
      "Ġas": 1219,
      "gnu": 1220,
      "args": 1221,
      "22": 1222,
      "rbegin": 1223,
      "ĠONLINE": 1224,
      "Ġfl": 1225,
      "ifndef": 1226,
      "('": 1227,
      "add": 1228,
      "tag": 1229,
      "Ġcheck": 1230,
      "Ġpar": 1231,
      "this": 1232,
      "deque": 1233,
      "âĸĦ": 1234,
      "iner": 1235,
      "Ġth": 1236,
      "ab": 1237,
      "ĊĊĊ": 1238,
      "Ġhi": 1239,
      "EPS": 1240,
      "ST": 1241,
      "Ġgo": 1242,
      "Ġcomp": 1243,
      "]!=": 1244,
      "MMMMMMMM": 1245,
      "ash": 1246,
      "141592653": 1247,
      "tainer": 1248,
      "clear": 1249,
      "Ġdx": 1250,
      ">::": 1251,
      "true": 1252,
      "â¡": 1253,
      "ixed": 1254,
      "Ġvv": 1255,
      "37": 1256,
      "ĠMAXN": 1257,
      "Ġswap": 1258,
      "Ġ6": 1259,
      "Ġdy": 1260,
      "solve": 1261,
      "Ġtot": 1262,
      "88888888": 1263,
      "sstream": 1264,
      "ior": 1265,
      "Ġsh": 1266,
      "Ġff": 1267,
      "Ġfind": 1268,
      "dge": 1269,
      "ie": 1270,
      "ctime": 1271,
      "lex": 1272,
      "50": 1273,
      "ne": 1274,
      "]*": 1275,
      "UG": 1276,
      "iority": 1277,
      "SEC": 1278,
      "Ġquery": 1279,
      "Ġdi": 1280,
      "function": 1281,
      "<<\":": 1282,
      "ĠY": 1283,
      "30": 1284,
      "pl": 1285,
      "adj": 1286,
      "length": 1287,
      "Ġnow": 1288,
      "55": 1289,
      "Ġbit": 1290,
      "azy": 1291,
      "Ġ){": 1292,
      "col": 1293,
      "pbds": 1294,
      "à¦": 1295,
      "OCAL": 1296,
      "di": 1297,
      "################": 1298,
      "Ġputs": 1299,
      "istream": 1300,
      "-=": 1301,
      "Ġun": 1302,
      "AC": 1303,
      "container": 1304,
      "ink": 1305,
      "(),(": 1306,
      "tt": 1307,
      "/=": 1308,
      "fast": 1309,
      "Ġ};": 1310,
      "null": 1311,
      "00005": 1312,
      "Ġprint": 1313,
      "Ġ100": 1314,
      "ics": 1315,
      "ĠK": 1316,
      "EBUG": 1317,
      "ĊĊĠĠĠĠĠĠĠĠĠĠĠ": 1318,
      "ĠIn": 1319,
      "pow": 1320,
      "pll": 1321,
      "chr": 1322,
      "istics": 1323,
      "last": 1324,
      "cassert": 1325,
      "ber": 1326,
      "Ġ++)": 1327,
      "uti": 1328,
      "alc": 1329,
      "statistics": 1330,
      "make": 1331,
      ":.": 1332,
      "ĠEPS": 1333,
      "assoc": 1334,
      "LE": 1335,
      "av": 1336,
      "Ġcount": 1337,
      "ng": 1338,
      "IO": 1339,
      "ĠLOCAL": 1340,
      "pol": 1341,
      "]-'": 1342,
      "Ġen": 1343,
      "Ġupdate": 1344,
      "ĠĊ": 1345,
      "KKKKK": 1346,
      "Ġ{}": 1347,
      "ĠArgs": 1348,
      "Ġnext": 1349,
      "el": 1350,
      "gh": 1351,
      "=='": 1352,
      "...);": 1353,
      "16": 1354,
      "It": 1355,
      "aa": 1356,
      "operator": 1357,
      "Ġcol": 1358,
      "<<\"=": 1359,
      "Ġ9": 1360,
      "Ġï¿½ï¿½ï¿½ï¿½": 1361,
      "__)": 1362,
      "value": 1363,
      "dd": 1364,
      "left": 1365,
      "Ġargs": 1366,
      "38": 1367,
      "Ġtar": 1368,
      "row": 1369,
      "cc": 1370,
      "Ġmaxn": 1371,
      "Ġstart": 1372,
      "oot": 1373,
      "root": 1374,
      "ĠArg": 1375,
      "998": 1376,
      "14159265358": 1377,
      "=-": 1378,
      "popcount": 1379,
      "hs": 1380,
      "pt": 1381,
      "<<#": 1382,
      "ono": 1383,
      "Ġ\":": 1384,
      "rend": 1385,
      "inf": 1386,
      "polic": 1387,
      "Ġnxt": 1388,
      "sub": 1389,
      "Ġvll": 1390,
      "Ġbe": 1391,
      "ive": 1392,
      "Ġleft": 1393,
      "ĊĠĠĠĠĠĠĠĠĠĠ": 1394,
      "Ġlower": 1395,
      "]));": 1396,
      "<<\"=\"<<": 1397,
      "46": 1398,
      "lim": 1399,
      "Ġ()": 1400,
      "lli": 1401,
      "Ġparent": 1402,
      "Ġpoint": 1403,
      "Ġright": 1404,
      "eric": 1405,
      "Ġpower": 1406,
      "ĊĉĠĠĠ": 1407,
      "Ġgetchar": 1408,
      "mt": 1409,
      "Ġgr": 1410,
      "Size": 1411,
      "Ġseg": 1412,
      "Ġtarget": 1413,
      "979": 1414,
      "used": 1415,
      "Ġsqr": 1416,
      "lic": 1417,
      "functional": 1418,
      "Ġinit": 1419,
      "ĠĊĠĠĠ": 1420,
      "read": 1421,
      "]+=": 1422,
      "ĠW": 1423,
      "56": 1424,
      "99824": 1425,
      "wer": 1426,
      "ha": 1427,
      "14159265358979": 1428,
      "ype": 1429,
      "()-": 1430,
      "1111": 1431,
      "Ġind": 1432,
      "9982443": 1433,
      "Ġnew": 1434,
      "ĠQ": 1435,
      "Ġscan": 1436,
      "ME": 1437,
      "================": 1438,
      "998244353": 1439,
      "policy": 1440,
      "Ġ...": 1441,
      "FOR": 1442,
      "Ġpow": 1443,
      "iff": 1444,
      "Ġless": 1445,
      ")))": 1446,
      "},": 1447,
      "Ġforn": 1448,
      "Ġhe": 1449,
      "typeof": 1450,
      "Ġvii": 1451,
      "Ġnull": 1452,
      "Ġrb": 1453,
      "Ġ/*": 1454,
      "Ġreverse": 1455,
      "<<\"=\"<<(": 1456,
      "34": 1457,
      "tot": 1458,
      "seg": 1459,
      "31": 1460,
      "]];": 1461,
      "hild": 1462,
      "ild": 1463,
      "-'": 1464,
      "ĠĠĠĠĠĠĠĠĠĠĠĠĠĠ": 1465,
      "Ġusing": 1466,
      "--------------------------------": 1467,
      "lf": 1468,
      "Ġresult": 1469,
      "Ġsp": 1470,
      "expr": 1471,
      "Ġfrom": 1472,
      "ary": 1473,
      "ĠSZ": 1474,
      "ublic": 1475,
      "Ġfact": 1476,
      "UT": 1477,
      "mul": 1478,
      "Ġ->": 1479,
      "ĊĠĠĠĠĉ": 1480,
      "ero": 1481,
      "]].": 1482,
      "ation": 1483,
      "Ġused": 1484,
      "[]={": 1485,
      "inv": 1486,
      "Ġroot": 1487,
      "77": 1488,
      "Ġyou": 1489,
      "Ġpf": 1490,
      "RE": 1491,
      "numeric": 1492,
      "INT": 1493,
      "ges": 1494,
      "ique": 1495,
      "KKKKKKKKKKKKKKKK": 1496,
      "chrono": 1497,
      "next": 1498,
      "ĠIO": 1499,
      "sc": 1500,
      "Ġor": 1501,
      "com": 1502,
      "Ġpop": 1503,
      "low": 1504,
      "Ġmy": 1505,
      "(\"-": 1506,
      "ĊĉĉĊĉ": 1507,
      "fstream": 1508,
      "go": 1509,
      "Ġ>>=": 1510,
      "qu": 1511,
      "RT": 1512,
      "âĸĪâĸĪâĸĪâĸĪ": 1513,
      "Ġpriority": 1514,
      "Matrix": 1515,
      "199": 1516,
      "]--;": 1517,
      "flag": 1518,
      "Ġtest": 1519,
      "ater": 1520,
      "1415926535897932": 1521,
      "]<<\"": 1522,
      ",;": 1523,
      "Ġassert": 1524,
      "FF": 1525,
      "Ġbuild": 1526,
      "point": 1527,
      "link": 1528,
      "]))": 1529,
      "nxt": 1530,
      "Ġfixed": 1531,
      "Ġinv": 1532,
      "+(": 1533,
      "ĉĉĉ": 1534,
      "ove": 1535,
      "start": 1536,
      "]>": 1537,
      "Ġsol": 1538,
      "imes": 1539,
      "II": 1540,
      "Ġ::": 1541,
      "Ġmask": 1542,
      "01": 1543,
      "sq": 1544,
      "right": 1545,
      "orm": 1546,
      "lement": 1547,
      "Ġon": 1548,
      "Ġsub": 1549,
      "no": 1550,
      "',": 1551,
      "check": 1552,
      "nullptr": 1553,
      "lace": 1554,
      "ĊĉĠ": 1555,
      "uple": 1556,
      "fact": 1557,
      "Ġtrace": 1558,
      "Ġsqrt": 1559,
      "dis": 1560,
      "math": 1561,
      "ob": 1562,
      "reater": 1563,
      "pi": 1564,
      "%=": 1565,
      "200": 1566,
      "Ġupper": 1567,
      "ular": 1568,
      "main": 1569,
      "ĠMod": 1570,
      "ah": 1571,
      "ail": 1572,
      "aph": 1573,
      "ros": 1574,
      "141592653589793238": 1575,
      ",(": 1576,
      "data": 1577,
      "edge": 1578,
      "PER": 1579,
      ")){": 1580,
      "Ġemp": 1581,
      "Ġdep": 1582,
      "MP": 1583,
      "test": 1584,
      "Ġlcm": 1585,
      "signed": 1586,
      "Ġpq": 1587,
      "Ġrem": 1588,
      "su": 1589,
      "Ġtypedef": 1590,
      "(*": 1591,
      "Ġdis": 1592,
      "Ġdo": 1593,
      "Mod": 1594,
      "Ġ),": 1595,
      "Ġat": 1596,
      "RO": 1597,
      ",+": 1598,
      "Ġcost": 1599,
      "Ġwrite": 1600,
      "Ġvvi": 1601,
      "Ġ31": 1602,
      "+=(": 1603,
      "(\"\\": 1604,
      "Ġcan": 1605,
      "Ġ998244353": 1606,
      "Ġlow": 1607,
      "Ġflag": 1608,
      "*=": 1609,
      "14159265358979323846": 1610,
      "()){": 1611,
      "-(": 1612,
      "OCK": 1613,
      "19937": 1614,
      "LOCK": 1615,
      "Ġms": 1616,
      "gr": 1617,
      "prime": 1618,
      "]][": 1619,
      "ĠDEBUG": 1620,
      "memset": 1621,
      "Ġsetprecision": 1622,
      "IT": 1623,
      "REP": 1624,
      "puts": 1625,
      "'){": 1626,
      "Ġclock": 1627,
      "No": 1628,
      "Ġpref": 1629,
      "Ġmd": 1630,
      "79": 1631,
      "âĸĴâĸĴâĸĴâĸĴ": 1632,
      "Ġprime": 1633,
      "dig": 1634,
      "Ġpa": 1635,
      "++--++--++--++--++--++--++--++--": 1636,
      "LOCKS": 1637,
      "unique": 1638,
      "00000": 1639,
      "Ġordered": 1640,
      "iii": 1641,
      "ĊĠĠĠĠĠĠĠĠĠĠĠĠĠĠĠĠ": 1642,
      "ILE": 1643,
      "MX": 1644,
      "swap": 1645,
      "atch": 1646,
      "exp": 1647,
      "ON": 1648,
      "Ġ8": 1649,
      "[(": 1650,
      "getchar": 1651,
      "Ġsu": 1652,
      "able": 1653,
      "100005": 1654,
      "Ġuint": 1655,
      "âĸĢâĸĢ": 1656,
      "vv": 1657,
      "yy": 1658,
      "Ġed": 1659,
      "48": 1660,
      "Node": 1661,
      "ark": 1662,
      "ĊĊĊĠĠĠ": 1663,
      "ill": 1664,
      "Ġ20": 1665,
      "ited": 1666,
      "jj": 1667,
      "public": 1668,
      "tion": 1669,
      "ĠALL": 1670,
      "query": 1671,
      "index": 1672,
      "pa": 1673,
      "odd": 1674,
      "sin": 1675,
      "Point": 1676,
      "loop": 1677,
      "19": 1678,
      "Ġxx": 1679,
      "uint": 1680,
      "Ġbegin": 1681,
      "rem": 1682,
      "Ġvs": 1683,
      "heap": 1684,
      "]]++;": 1685,
      "&(": 1686,
      "******": 1687,
      "Ġup": 1688,
      "________________": 1689,
      "eger": 1690,
      "Ġque": 1691,
      "17": 1692,
      "Ġpt": 1693,
      "100000000": 1694,
      "be": 1695,
      "WK": 1696,
      "Ġiter": 1697,
      "bb": 1698,
      "Ġmulti": 1699,
      "500": 1700,
      "oo": 1701,
      "from": 1702,
      "Ġcomment": 1703,
      "Val": 1704,
      "ly": 1705,
      ",_": 1706,
      "MatrixSize": 1707,
      "har": 1708,
      "ory": 1709,
      "DE": 1710,
      "avx": 1711,
      "lity": 1712,
      "cost": 1713,
      "Ġ'<<": 1714,
      "ven": 1715,
      "Ġerr": 1716,
      "Ġpp": 1717,
      "~~": 1718,
      "Ofast": 1719,
      ")<<\",": 1720,
      "ative": 1721,
      ");++": 1722,
      "MaxMatrixSize": 1723,
      "23": 1724,
      "sh": 1725,
      "GGGGGGGG": 1726,
      "Ġbest": 1727,
      "ĊĠĠĠĠĠĠĠĠĠĠĠĠĠ": 1728,
      "Ġ100000": 1729,
      "Ġanswer": 1730,
      ")));": 1731,
      "linker": 1732,
      "complex": 1733,
      "ang": 1734,
      "Ġexit": 1735,
      "random": 1736,
      "arg": 1737,
      "own": 1738,
      "ach": 1739,
      "-')": 1740,
      "/**": 1741,
      "):": 1742,
      "vl": 1743,
      "Ġ(((": 1744,
      "Ġbin": 1745,
      "och": 1746,
      "per": 1747,
      "Ġpw": 1748,
      "Ġ\"/": 1749,
      "Ġke": 1750,
      "Iterator": 1751,
      "]),": 1752,
      "wo": 1753,
      "),(": 1754,
      "59": 1755,
      "////////////////////////////////": 1756,
      "write": 1757,
      "Ġdbg": 1758,
      "epoch": 1759,
      "since": 1760,
      "Ġver": 1761,
      "vel": 1762,
      "Ġrall": 1763,
      "Ġsf": 1764,
      "mark": 1765,
      "req": 1766,
      "Ġstat": 1767,
      "array": 1768,
      "curr": 1769,
      "100000": 1770,
      "@@@@": 1771,
      "utility": 1772,
      "ĠIOS": 1773,
      "acro": 1774,
      "27": 1775,
      "Ġtm": 1776,
      "Ġthis": 1777,
      "hash": 1778,
      "Ġ^=": 1779,
      "Ġcalc": 1780,
      "substr": 1781,
      "Ġ///": 1782,
      "âĸĮ": 1783,
      "Ġ\")": 1784,
      "stringstream": 1785,
      "dep": 1786,
      "]<": 1787,
      "init": 1788,
      ".....": 1789,
      "Ġ++;": 1790,
      "lower": 1791,
      "stead": 1792,
      "Ġinput": 1793,
      "Ġoo": 1794,
      "++]": 1795,
      "28": 1796,
      ">>(": 1797,
      "Ġlb": 1798,
      "Ġneed": 1799,
      "Pos": 1800,
      "Ġ30": 1801,
      "ĊĊĊĊĊĊĊĊ": 1802,
      "ĠInt": 1803,
      "ross": 1804,
      "]])": 1805,
      "lazy": 1806,
      "Ġyy": 1807,
      "Ġvl": 1808,
      "AS": 1809,
      "Ġcmp": 1810,
      "ave": 1811,
      "Ġlli": 1812,
      "Ġprev": 1813,
      "Ġdata": 1814,
      "++,": 1815,
      "iv": 1816,
      "our": 1817,
      "constexpr": 1818,
      "###": 1819,
      "Ġaa": 1820,
      "Ġno": 1821,
      "AT": 1822,
      "................................": 1823,
      "ĠPoint": 1824,
      "names": 1825,
      "Ġtl": 1826,
      "rk": 1827,
      "TES": 1828,
      "Ġrng": 1829,
      "Ġstatic": 1830,
      "co": 1831,
      "Time": 1832,
      "ĠMax": 1833,
      "Ġdel": 1834,
      "Ġ'.": 1835,
      "Ġ26": 1836,
      "Char": 1837,
      "------": 1838,
      ")==": 1839,
      "ĠPII": 1840,
      "Ġputchar": 1841,
      "memory": 1842,
      "13": 1843,
      "29": 1844,
      "Ġrhs": 1845,
      "less": 1846,
      "Case": 1847,
      "ays": 1848,
      "KKKKKKK": 1849,
      "9999": 1850,
      "steady": 1851,
      "60": 1852,
      "CRT": 1853,
      "Ġ\"]": 1854,
      "ĊĊĠĠ": 1855,
      "URE": 1856,
      "sim": 1857,
      "Ġnot": 1858,
      "mat": 1859,
      "emplace": 1860,
      "db": 1861,
      "sol": 1862,
      "Ġemplace": 1863,
      "ĠĠĠĠĠĠĠĠĠĠĠĠĠĠĠĠĠ": 1864,
      "static": 1865,
      ";.": 1866,
      "Ġ(*": 1867,
      "new": 1868,
      "Yes": 1869,
      "ms": 1870,
      "te": 1871,
      "ord": 1872,
      "Ġcurr": 1873,
      "key": 1874,
      "SECURE": 1875,
      "ĠDB": 1876,
      "__,": 1877,
      "Ġindex": 1878,
      "\".": 1879,
      "Tree": 1880,
      "âĶ": 1881,
      "Ġbig": 1882,
      "ĠPB": 1883,
      "Ġupd": 1884,
      "Ġgc": 1885,
      "ĠMP": 1886,
      "ca": 1887,
      "ance": 1888,
      "element": 1889,
      "200005": 1890,
      "erge": 1891,
      "]=(": 1892,
      "hor": 1893,
      "tf": 1894,
      "vs": 1895,
      "loat": 1896,
      "ĊĠĠĠĠĠĠĠĠĠĠĠĠĠĠ": 1897,
      "file": 1898,
      "___": 1899,
      "mi": 1900,
      "Ġlazy": 1901,
      "Ġmt": 1902,
      "Ġtime": 1903,
      "iiii": 1904,
      "Ġfill": 1905,
      "ĠĊĠĠĠĠĠĠĠ": 1906,
      "power": 1907,
      "Ġistream": 1908,
      "Ġedge": 1909,
      "Ġrange": 1910,
      "â£¿â£¿â£¿â£¿â£¿â£¿â£¿â£¿": 1911,
      "Ġli": 1912,
      "âĶĢ": 1913,
      "Type": 1914,
      "Ġsi": 1915,
      "â£¿â£": 1916,
      "buf": 1917,
      "ard": 1918,
      "âķĲ": 1919,
      "pref": 1920,
      "ust": 1921,
      "Count": 1922,
      "ter": 1923,
      "sqrt": 1924,
      "tuple": 1925,
      "<=(": 1926,
      ">>=": 1927,
      "Ġnorm": 1928,
      "Ġan": 1929,
      "Edge": 1930,
      "Ġarray": 1931,
      "1010": 1932,
      "ĊĠĠĠĠĠĠĠĠĠĠĠĠĠĠĠĠĠĠĠĠĠĠĠĠĠĠĠĠĠĠĠ": 1933,
      "loops": 1934,
      "(;": 1935,
      "Ġinsert": 1936,
      "ALL": 1937,
      "Ġtt": 1938,
      "AN": 1939,
      "popcnt": 1940,
      "rime": 1941,
      "Ġby": 1942,
      "Ġbuf": 1943,
      "))%": 1944,
      "pq": 1945,
      "nx": 1946,
      "tex": 1947,
      ";;;;;;;;": 1948,
      "cr": 1949,
      "Ġ\"[": 1950,
      "################################": 1951,
      "Ġrev": 1952,
      ")),": 1953,
      "reverse": 1954,
      "Ġcc": 1955,
      "multi": 1956,
      "tl": 1957,
      "ĉĊ": 1958,
      "Ġmk": 1959,
      "DDD": 1960,
      "ĊĠĠĠĠĠĠĠĠĊĠĠĠĠĠĠĠ": 1961,
      "();}": 1962,
      "ĊĊĉĉ": 1963,
      "Ġfin": 1964,
      "Ġexp": 1965,
      "]]=": 1966,
      ",,,,,,,,": 1967,
      "Ġline": 1968,
      "ank": 1969,
      "md": 1970,
      "Ġps": 1971,
      "mall": 1972,
      "GGG": 1973,
      "Ġ',": 1974,
      "Ġmark": 1975,
      "âĸĦâĸĦ": 1976,
      "OF": 1977,
      "Ġco": 1978,
      "ĠMX": 1979,
      "â¢Ģ": 1980,
      "/********************************": 1981,
      "mmx": 1982,
      "roll": 1983,
      "KE": 1984,
      "ial": 1985,
      "Out": 1986,
      "SZ": 1987,
      "abm": 1988,
      "40": 1989,
      "ln": 1990,
      "digit": 1991,
      "Ġfile": 1992,
      "DDDDDDDDDDDD": 1993,
      "57": 1994,
      "Ġ(;": 1995,
      "ssse": 1996,
      "arch": 1997,
      "calc": 1998,
      "ift": 1999,
      "ET": 2000,
      "Ġ|=": 2001,
      "flush": 2002,
      "ls": 2003,
      "Ġwh": 2004,
      "Min": 2005,
      "best": 2006,
      "IZ": 2007,
      "Ġmi": 2008,
      "Ġrand": 2009,
      "Arr": 2010,
      "unroll": 2011,
      "unsigned": 2012,
      "NIN": 2013,
      "br": 2014,
      "]%": 2015,
      "Ġfore": 2016,
      "ĠFI": 2017,
      "Ġiterator": 2018,
      "ARNIN": 2019,
      "Ġnumber": 2020,
      "WARNIN": 2021,
      "Ġrr": 2022,
      "])%": 2023,
      "ĠĠĠĠĠĠĠĠĠĠĠĠĠĠĠĠĠĠĠĠĠĠĠĠĠĠĠĠĠĠĠĠĠĠĠĠĠĠĠĠĠĠĠĠĠĠĠĠĠĠĠĠĠĠĠĠĠĠĠĠĠĠĠĠ": 2024,
      "clim": 2025,
      "FS": 2026,
      "Ġdiff": 2027,
      "WWWWWWW": 2028,
      "WARNINGS": 2029,
      "une": 2030,
      "MMMMMMMMMMMMMMMM": 2031,
      "Ġdepth": 2032,
      "\\\\": 2033,
      "iend": 2034,
      "%%": 2035,
      "high": 2036,
      "Integer": 2037,
      "]<<": 2038,
      "fixed": 2039,
      "Ġub": 2040,
      "climits": 2041,
      "Ġpc": 2042,
      "Ġrow": 2043,
      "ĠFor": 2044,
      "ra": 2045,
      "ice": 2046,
      "limits": 2047,
      "TT": 2048,
      ">=(": 2049,
      "FILE": 2050,
      "setprecision": 2051,
      "Ġprimes": 2052,
      "Ġthrow": 2053,
      "]>=": 2054,
      "cp": 2055,
      "3456": 2056,
      ")?": 2057,
      "WWWWWW": 2058,
      "EEEEEEEEEEEE": 2059,
      "Ġ.,;": 2060,
      "EC": 2061,
      "ution": 2062,
      "://": 2063,
      "native": 2064,
      "mm": 2065,
      "OUT": 2066,
      "maxN": 2067,
      "onent": 2068,
      "!!": 2069,
      "Ġbs": 2070,
      "Ġnames": 2071,
      "AST": 2072,
      "uthor": 2073,
      "IZE": 2074,
      "ik": 2075,
      "21": 2076,
      "Ġstruct": 2077,
      "DEBUG": 2078,
      "dx": 2079,
      "**************": 2080,
      "Ġone": 2081,
      "print": 2082,
      "St": 2083,
      "Ġ');": 2084,
      "KKKKKK": 2085,
      "diff": 2086,
      "tune": 2087,
      "Ġ\"\";": 2088,
      "ĠInput": 2089,
      "âłĢ": 2090,
      "sible": 2091,
      "00010": 2092,
      "Line": 2093,
      "Ġneg": 2094,
      "<<'\\": 2095,
      "Ġrt": 2096,
      "ĊĠĠĠĠĠĠĠĠĠĠĠĠĠĠĠĠĠĠĠĠĠĠĠĠĠĠĠ": 2097,
      "ĠĠĠĠĠĠĠĠĠĠĠĠĠĠĠĠĠĠĠĠ": 2098,
      "Ġhigh": 2099,
      "Ġgraph": 2100,
      "=\"": 2101,
      "Ġ32": 2102,
      "Ġedges": 2103,
      "]<=": 2104,
      "Ġ{-": 2105,
      "Ġper": 2106,
      "âĸĲ": 2107,
      "111": 2108,
      "head": 2109,
      "uff": 2110,
      "forn": 2111,
      "child": 2112,
      "Ġ(__": 2113,
      "Ġzero": 2114,
      "flow": 2115,
      "101": 2116,
      "by": 2117,
      "Ġare": 2118,
      "ctype": 2119,
      "use": 2120,
      "NU": 2121,
      "Ġbb": 2122,
      "ĠCLOCKS": 2123,
      "264": 2124,
      ":::": 2125,
      "result": 2126,
      "ĠĊĉ": 2127,
      "Ġal": 2128,
      "Ġ100005": 2129,
      "47": 2130,
      "89": 2131,
      "fj": 2132,
      "der": 2133,
      ",\"": 2134,
      "prev": 2135,
      "kk": 2136,
      "parent": 2137,
      "ĠVI": 2138,
      "Ġ(\"%": 2139,
      "Ġcomma": 2140,
      "NN": 2141,
      "ĠINT": 2142,
      "itr": 2143,
      "Ġsync": 2144,
      "ĊĠĠĠĠĠĠĠĠĠĠĠĠĠĠĠĠĠ": 2145,
      "ONG": 2146,
      "Ġta": 2147,
      "()))": 2148,
      "rc": 2149,
      "ION": 2150,
      "Ġ~": 2151,
      "Ġï¿½ï¿½ï¿½ï¿½ï¿½ï¿½": 2152,
      "Ġwith": 2153,
      "ACK": 2154,
      ",.": 2155,
      "debug": 2156,
      "Ġrd": 2157,
      "Ġtotal": 2158,
      "Ġ.:": 2159,
      "build": 2160,
      "Ġdeb": 2161,
      "iter": 2162,
      ";--": 2163,
      "deg": 2164,
      "cy": 2165,
      "ĠZ": 2166,
      "Ġgen": 2167,
      "Ġ\"(\"": 2168,
      "à§": 2169,
      "Ġgreater": 2170,
      "']": 2171,
      "25": 2172,
      "'||": 2173,
      "Ġ\"%": 2174,
      "Ġqueue": 2175,
      "OG": 2176,
      "WKK": 2177,
      "action": 2178,
      "PB": 2179,
      "ĊĠĊĠ": 2180,
      "Ġhash": 2181,
      "Ġ1000000000": 2182,
      "14159265358979323846264": 2183,
      "]='": 2184,
      "âķ¬": 2185,
      "log": 2186,
      "af": 2187,
      "big": 2188,
      "Ġsm": 2189,
      "Ġ'-')": 2190,
      "STACK": 2191,
      "obj": 2192,
      "rb": 2193,
      "000000": 2194,
      "Ġmodular": 2195,
      "Ġloop": 2196,
      "fac": 2197,
      "Ġoutput": 2198,
      "67": 2199,
      "ask": 2200,
      "!=(": 2201,
      "));}": 2202,
      "--,": 2203,
      "rint": 2204,
      "(\"\");": 2205,
      "ĠPR": 2206,
      "'s": 2207,
      "<<-": 2208,
      "(\"%.": 2209,
      "#####": 2210,
      "AME": 2211,
      "po": 2212,
      "ope": 2213,
      "49": 2214,
      "DEEEE": 2215,
      "ces": 2216,
      "Ġlim": 2217,
      "Value": 2218,
      "*-": 2219,
      "Ġscani": 2220,
      "ry": 2221,
      "ux": 2222,
      "Ġel": 2223,
      "ĊĠĠĠĠĊĠĠĠĠ": 2224,
      "Ġnormal": 2225,
      "Ċĉĉĉĉĉĉ": 2226,
      "â¢¿": 2227,
      "âĶĢâĶĢ": 2228,
      ")]": 2229,
      "rs": 2230,
      "Ġwe": 2231,
      "105": 2232,
      ",:": 2233,
      "['": 2234,
      "ĊĊĠĠĠĠĠĠĠĠĠĠĠĠĠĠĠ": 2235,
      "acos": 2236,
      "Ġclr": 2237,
      "Ġcomplex": 2238,
      "Ġbfs": 2239,
      "8888888888888888": 2240,
      "(#": 2241,
      "Ġhell": 2242,
      "ĊĠĠĠĠĉĉ": 2243,
      "Ġbo": 2244,
      "maxi": 2245,
      "Ġdeg": 2246,
      "popcountll": 2247,
      "ain": 2248,
      "Ġoth": 2249,
      "Ġpath": 2250,
      "WWWWWWWWW": 2251,
      "Range": 2252,
      "priority": 2253,
      "1415926535897932384626433": 2254,
      "\"\"": 2255,
      "ud": 2256,
      "ĠNode": 2257,
      "ded": 2258,
      "enter": 2259,
      "Ġ-*-": 2260,
      "Ġext": 2261,
      "visited": 2262,
      "ny": 2263,
      "ĠJ": 2264,
      "ĊĠĊĠĠĠ": 2265,
      "blem": 2266,
      "80": 2267,
      "ri": 2268,
      "Ġvpii": 2269,
      "Ġ>::": 2270,
      "âĸĵ": 2271,
      "ire": 2272,
      "ĠĠĠĠĠĠĠĠĠĠĠĠĠĠĠĠĠĠ": 2273,
      "Ġodd": 2274,
      "ors": 2275,
      "fa": 2276,
      ")<<\"": 2277,
      "Str": 2278,
      "Ġ(_": 2279,
      "Ġct": 2280,
      "Ġmat": 2281,
      "upper": 2282,
      "Ġ\"-": 2283,
      "]],": 2284,
      "greater": 2285,
      "Ġeb": 2286,
      "Long": 2287,
      "neg": 2288,
      "Ġcase": 2289,
      "......": 2290,
      "123": 2291,
      "tc": 2292,
      "PII": 2293,
      "âķ¬âķ¬": 2294,
      "[](": 2295,
      "ED": 2296,
      "Ġmacro": 2297,
      "ĠĠĠĠĠĠĠĠĠĠĠĠĠĠĠĠĠĠĠ": 2298,
      "OW": 2299,
      "rev": 2300,
      ")((": 2301,
      "derr": 2302,
      "Ġmaxi": 2303,
      "Ġï¿½ï¿½ï¿½ï¿½ï¿½ï¿½ï¿½ï¿½": 2304,
      "ND": 2305,
      "ðŁ": 2306,
      "âĸĳâĸĳâĸĳ": 2307,
      "Iter": 2308,
      "ump": 2309,
      "bo": 2310,
      "Ġchk": 2311,
      "NAME": 2312,
      "âĸĳâĸĳâĸĳâĸĳâĸĳâĸĳâĸĳâĸĳ": 2313,
      "ek": 2314,
      "mon": 2315,
      "**/": 2316,
      "cept": 2317,
      "****************************************************************": 2318,
      "do": 2319,
      "Ġtop": 2320,
      ")&": 2321,
      "rg": 2322,
      "_(": 2323,
      "}}": 2324,
      "();++": 2325,
      "âłĢâłĢ": 2326,
      "pro": 2327,
      "ant": 2328,
      "ai": 2329,
      "aken": 2330,
      "::::::::": 2331,
      "54": 2332,
      "path": 2333,
      "000000000": 2334,
      "bl": 2335,
      "__;": 2336,
      "qual": 2337,
      "66": 2338,
      "LI": 2339,
      "sm": 2340,
      "upd": 2341,
      "Ġà¦": 2342,
      "Ġhtt": 2343,
      "Ġbr": 2344,
      "Ġme": 2345,
      "()),": 2346,
      "edges": 2347,
      "ĠPT": 2348,
      "Ġpl": 2349,
      "ition": 2350,
      "ĠĠĠĠĠĠĠĠĠĠĠĠĠĠĠĠĠĠĠĠĠĠĠĠĠĠĠĠĠĠĠ": 2351,
      "&...": 2352,
      "NOTES": 2353,
      "Input": 2354,
      "ĊĠĠĠĠĠĠĠĠĠĠĠĠĠĠĠĠĠĠĠĠĠĠĠĠĠĠĠĠĠĠĠĠĠĠĠĠĠĠĠĠĠĠĠĠĉ": 2355,
      "fin": 2356,
      "sy": 2357,
      "rent": 2358,
      "Ġ11": 2359,
      "Ġvc": 2360,
      "umber": 2361,
      "1005": 2362,
      ")<<\"\\": 2363,
      "Ġorder": 2364,
      "Ġ][": 2365,
      "old": 2366,
      ",,,": 2367,
      "namespace": 2368,
      "ACRO": 2369,
      "EM": 2370,
      "unc": 2371,
      "ĠSQ": 2372,
      "Ġunordered": 2373,
      "tm": 2374,
      "Ġdig": 2375,
      "ivate": 2376,
      "Ġ')": 2377,
      "Ġhead": 2378,
      "Ġshift": 2379,
      "CT": 2380,
      "XX": 2381,
      "pw": 2382,
      "}\";": 2383,
      "Ġnl": 2384,
      "]]);": 2385,
      "Ġ\"]\";": 2386,
      "14159265358979323846264338": 2387,
      "cctype": 2388,
      "nod": 2389,
      "Ġcross": 2390,
      "Ġacc": 2391,
      "34567": 2392,
      "Ġother": 2393,
      ";;;": 2394,
      "Ġkey": 2395,
      "()==": 2396,
      "arry": 2397,
      "onoid": 2398,
      "ĠComp": 2399,
      "cmp": 2400,
      "Ġ`": 2401,
      "Ġmerge": 2402,
      "PI": 2403,
      "we": 2404,
      "tail": 2405,
      "isdigit": 2406,
      "ara": 2407,
      "ute": 2408,
      "here": 2409,
      "Ġfac": 2410,
      "Ġfabs": 2411,
      "ho": 2412,
      "ĠFAST": 2413,
      "multiset": 2414,
      "/(": 2415,
      "Ġfo": 2416,
      "Ġsec": 2417,
      "float": 2418,
      "ĠPrint": 2419,
      "my": 2420,
      "Ġ];": 2421,
      "--------------": 2422,
      "1000000007": 2423,
      "Ġ\"[\";": 2424,
      "raction": 2425,
      "Ġtc": 2426,
      "........................": 2427,
      "Ġvisited": 2428,
      "ies": 2429,
      "Ġbinary": 2430,
      "Ġ--------------------------------": 2431,
      "Ġpdd": 2432,
      "Ġmultiset": 2433,
      "Ġ12": 2434,
      "39": 2435,
      "search": 2436,
      "61": 2437,
      "Ġfriend": 2438,
      ")<": 2439,
      "imer": 2440,
      "oth": 2441,
      "EK": 2442,
      "cs": 2443,
      "ear": 2444,
      "WWWWW": 2445,
      "ĠLINF": 2446,
      "Ġmodul": 2447,
      ")>>": 2448,
      "Ġgood": 2449,
      "==-": 2450,
      "TS": 2451,
      "Ġrnd": 2452,
      "ĠMin": 2453,
      "[++": 2454,
      "Ġbound": 2455,
      "UN": 2456,
      "Ġ\")\";": 2457,
      "Ġ<<\"": 2458,
      "exit": 2459,
      "jk": 2460,
      "Ġcy": 2461,
      "Ġ&_": 2462,
      "hite": 2463,
      "wt": 2464,
      "Ġcont": 2465,
      "clz": 2466,
      "100010": 2467,
      "rest": 2468,
      "0000000000": 2469,
      "'\\": 2470,
      "Ġvar": 2471,
      "ĠLD": 2472,
      "df": 2473,
      "Ġfn": 2474,
      "disp": 2475,
      "âķĲâķ": 2476,
      "1415926535897932384626433832": 2477,
      "ww": 2478,
      "ĠÐ": 2479,
      "del": 2480,
      "Ġlst": 2481,
      "â¡¿": 2482,
      "Ġdd": 2483,
      "ĊĠĠĊĠ": 2484,
      "cpp": 2485,
      "nn": 2486,
      "1000000": 2487,
      "Ġlevel": 2488,
      "bad": 2489,
      "ĠĠĠĠĠĠĠĠĠĠĠĠĠĠĠĠĠĠĠĠĠ": 2490,
      "ĠVector": 2491,
      "EEEEEEEEEEEEEEEE": 2492,
      "bj": 2493,
      "20000": 2494,
      "_|": 2495,
      "Ġnd": 2496,
      "mag": 2497,
      "atcher": 2498,
      "Ans": 2499,
      "Ġloc": 2500,
      "Ġnx": 2501,
      "ĊĠĠĠĠĠĠĠĠĠĠĠĠĠĠĠĠĠĠĠĠĠĠĠĠĠĠĠĠĠĠĠĠĠĠĠĠĠĠĠĠĠĠĠĠĠĠĠĠ": 2502,
      "pha": 2503,
      "color": 2504,
      "================================": 2505,
      "case": 2506,
      "Ġ].": 2507,
      "68": 2508,
      "ĠĊĠ": 2509,
      "Ġwas": 2510,
      "need": 2511,
      "iple": 2512,
      "dispatcher": 2513,
      "&]": 2514,
      "ĠMEM": 2515,
      "IL": 2516,
      "(#__": 2517,
      "Ġsy": 2518,
      "Ġri": 2519,
      "1001": 2520,
      "CLOCKS": 2521,
      "Ġtuple": 2522,
      "ulate": 2523,
      "Ġtp": 2524,
      "Ġvertex": 2525,
      ")+(": 2526,
      "Ġsd": 2527,
      "Ġvb": 2528,
      "Ġwor": 2529,
      "Ġlength": 2530,
      "For": 2531,
      "Ġ200": 2532,
      "ĠĠĠĠĠĠĠĠĠĠĠĠĠĠĠĠĠĠĠĠĠĠĠĠĠĠĠĠĠĠ": 2533,
      "VI": 2534,
      "Ġ\"{": 2535,
      "ĠDBN": 2536,
      "â£¯": 2537,
      "Ġitr": 2538,
      "fore": 2539,
      "ĊĠĉ": 2540,
      "Ġeven": 2541,
      "Ġĉ": 2542,
      "Ġsign": 2543,
      "Ġlog": 2544,
      "IME": 2545,
      "Ġoff": 2546,
      "Ġhave": 2547,
      "ĠOO": 2548,
      "tu": 2549,
      "Ġtwo": 2550,
      "$$": 2551,
      "Ġ});": 2552,
      "Ġ1000000": 2553,
      "Prime": 2554,
      "son": 2555,
      "Ġuse": 2556,
      "Ġmodint": 2557,
      ";}}": 2558,
      "ĊĊĠĠĠĠĠ": 2559,
      "erse": 2560,
      "GGGDDDDDDDDDDDD": 2561,
      ";:": 2562,
      "Ġsin": 2563,
      "141592653589793238462643383279": 2564,
      "++--++--++--++--++--++--++--++--++--++--++--++--++--++--++--++--": 2565,
      "ASK": 2566,
      "CH": 2567,
      "dy": 2568,
      "assign": 2569,
      "Ġthat": 2570,
      "comma": 2571,
      "ĠLong": 2572,
      "ĠGet": 2573,
      "*****": 2574,
      "â£·": 2575,
      "â£Ł": 2576,
      "ome": 2577,
      "09": 2578,
      "ASE": 2579,
      "egment": 2580,
      "),&(": 2581,
      "depth": 2582,
      "69": 2583,
      "Ġdelta": 2584,
      ");(": 2585,
      "\",(": 2586,
      "ĠDFS": 2587,
      "300": 2588,
      "LG": 2589,
      "'&&": 2590,
      "Sum": 2591,
      "stderr": 2592,
      "ĠLOG": 2593,
      "tp": 2594,
      "Ġfa": 2595,
      "ish": 2596,
      "ĠDI": 2597,
      "ĠNULL": 2598,
      "Ġerror": 2599,
      "ĊĠĠĠĉ": 2600,
      "()+": 2601,
      "ĊĉĉĉĊĉĉ": 2602,
      "stdinPos": 2603,
      "was": 2604,
      "ĠPLL": 2605,
      "ĠRE": 2606,
      "Ġchild": 2607,
      "Ġvpll": 2608,
      "Ġstrlen": 2609,
      "Ġnodes": 2610,
      "'t": 2611,
      "Ġcode": 2612,
      "Ġptr": 2613,
      "ĊĠĠĠĠĠĠĠĠĠĠĠĠĠĠĠĠĠĠĠĠ": 2614,
      "************************": 2615,
      "Array": 2616,
      ")++)": 2617,
      "dbg": 2618,
      "44": 2619,
      "ource": 2620,
      "opy": 2621,
      "ĠTR": 2622,
      "KKKKKKKKKK": 2623,
      "EEEEEEEEEEE": 2624,
      "07": 2625,
      "[],": 2626,
      "Ðµ": 2627,
      "Con": 2628,
      "cast": 2629,
      "stem": 2630,
      "Ġmini": 2631,
      "Ġlg": 2632,
      "ĠĠĠĠĠĠĠĠĠĠĠĠĠĠĠĠĠĠĠĠĠĠĠĠĠĠ": 2633,
      "irection": 2634,
      "cap": 2635,
      "freq": 2636,
      "Ġpro": 2637,
      "fill": 2638,
      "Ġargc": 2639,
      "sec": 2640,
      "Ġ[&]": 2641,
      "Ġ15": 2642,
      "Ġforr": 2643,
      "888": 2644,
      "Ġ50": 2645,
      "AD": 2646,
      "Imp": 2647,
      "cltype": 2648,
      "Le": 2649,
      "Ġstringstream": 2650,
      "Ġrec": 2651,
      "Ġab": 2652,
      "Ġost": 2653,
      "ew": 2654,
      "Ġcolor": 2655,
      "Ġ----------------": 2656,
      "ser": 2657,
      "anc": 2658,
      "Ġhere": 2659,
      "51": 2660,
      "NUM": 2661,
      "Ġobj": 2662,
      "3333": 2663,
      "Child": 2664,
      "Ġrank": 2665,
      "]=-": 2666,
      "mini": 2667,
      "zero": 2668,
      "Ġfst": 2669,
      "41": 2670,
      "Ġsk": 2671,
      "Ex": 2672,
      "Ġbad": 2673,
      "87": 2674,
      "KW": 2675,
      "macro": 2676,
      "Ġtriple": 2677,
      "&&(": 2678,
      "Ġï¿½ï¿½ï¿½ï¿½ï¿½": 2679,
      "LGG": 2680,
      "63": 2681,
      "level": 2682,
      "ĉĉĉĉ": 2683,
      "eps": 2684,
      "rd": 2685,
      "ä¸": 2686,
      "Ġqu": 2687,
      "Ġmult": 2688,
      "Ġxy": 2689,
      "total": 2690,
      "AA": 2691,
      "MIN": 2692,
      "]>>": 2693,
      "EED": 2694,
      "Ġdec": 2695,
      "side": 2696,
      "'+": 2697,
      "++++": 2698,
      "ĠAns": 2699,
      "putchar": 2700,
      "down": 2701,
      ")[": 2702,
      "Ġ\".": 2703,
      "cross": 2704,
      "Ð¾": 2705,
      "ĠĠĠĠĠĠĠĠĠĠĠĠĠĠĠĠĠĠĠĠĠĠĠĠĠ": 2706,
      "[{": 2707,
      "ĠTail": 2708,
      "ĠEOF": 2709,
      ".......": 2710,
      "11111111": 2711,
      "ij": 2712,
      "vll": 2713,
      "me": 2714,
      "Ġ200005": 2715,
      "ĠmaxN": 2716,
      "Ġiii": 2717,
      "ĠMIN": 2718,
      "primes": 2719,
      "Ġ!(": 2720,
      "]=='.": 2721,
      "Ġpublic": 2722,
      "ĠMonoid": 2723,
      "â£¿â¡": 2724,
      "ieve": 2725,
      "ef": 2726,
      "<='": 2727,
      "128": 2728,
      "good": 2729,
      "block": 2730,
      "ĠAll": 2731,
      "ui": 2732,
      "ere": 2733,
      "Ġfprintf": 2734,
      "ĠSolve": 2735,
      "ick": 2736,
      "Ġtake": 2737,
      "[\"": 2738,
      "qr": 2739,
      "number": 2740,
      "[])": 2741,
      "Ġ++){": 2742,
      "real": 2743,
      "Ġ\"<<(": 2744,
      "ĠUn": 2745,
      "Ġpd": 2746,
      "ization": 2747,
      "ĠFORE": 2748,
      "Ġvalues": 2749,
      "ðŁĴ": 2750,
      "ĠĠĠĠĠĠĠĠĠĠĠĠĠĠĠĠĠĠĠĠĠĠĠ": 2751,
      "ðŁĴ©": 2752,
      "EEK": 2753,
      "Ġinc": 2754,
      "ister": 2755,
      "fjt": 2756,
      "Ġmm": 2757,
      "CTION": 2758,
      "Power": 2759,
      "))/": 2760,
      "ĠĠĠĠĠĠĠĠĠĠĠĠĠĠĠĠĠĠĠĠĠĠĠĠ": 2761,
      "ï¿½ï¿½ï¿½": 2762,
      "Ġ'.')": 2763,
      "gister": 2764,
      "small": 2765,
      "ĠRA": 2766,
      "Ġstep": 2767,
      "}};": 2768,
      "Ġwill": 2769,
      "...);}": 2770,
      "Ġhttps": 2771,
      "Ġyour": 2772,
      "lst": 2773,
      "\",&(": 2774,
      "ĠIN": 2775,
      "ator": 2776,
      "SIZE": 2777,
      "[*": 2778,
      "Ġsgn": 2779,
      "Ġ19": 2780,
      "Ġrest": 2781,
      "Ġbounds": 2782,
      "ĠULL": 2783,
      "Ġ___": 2784,
      "Ġ500": 2785,
      "@@@@@@@@": 2786,
      "Comp": 2787,
      "dir": 2788,
      "Ġmatrix": 2789,
      "ĠFraction": 2790,
      "Ġara": 2791,
      "ĠMatrix": 2792,
      "ĠFILE": 2793,
      "&&...": 2794,
      "ĠVA": 2795,
      "answer": 2796,
      "ated": 2797,
      "},{": 2798,
      "110": 2799,
      "Ġny": 2800,
      "Ġ>(": 2801,
      "ide": 2802,
      "Ġfunction": 2803,
      "Ġkol": 2804,
      "Ġboost": 2805,
      "fst": 2806,
      "ĠAuthor": 2807,
      "Ġhas": 2808,
      "inp": 2809,
      "hitespace": 2810,
      "eed": 2811,
      "ify": 2812,
      "200000000": 2813,
      "ï¼": 2814,
      "ðŁĴ©ðŁĴ©": 2815,
      "lint": 2816,
      "]-=": 2817,
      "-=(": 2818,
      "ile": 2819,
      "Ġelement": 2820,
      "âĸĪâĸĪâķ": 2821,
      "Ġalloc": 2822,
      "ply": 2823,
      "MN": 2824,
      "uck": 2825,
      "Ġce": 2826,
      "Ġfreq": 2827,
      "Ġspl": 2828,
      "ĠMACRO": 2829,
      "sl": 2830,
      "()>": 2831,
      "ĠDirection": 2832,
      ")>": 2833,
      "]/": 2834,
      "Mul": 2835,
      "Ġck": 2836,
      "Ġppb": 2837,
      "()(": 2838,
      "()<<": 2839,
      "Ġdown": 2840,
      "two": 2841,
      "ĊĉĠĠĠĠĠĠĠ": 2842,
      "Ġva": 2843,
      "+'": 2844,
      "WKKKKK": 2845,
      "Ġlist": 2846,
      "Ġins": 2847,
      "elper": 2848,
      "jji": 2849,
      "Ġ',');": 2850,
      "sign": 2851,
      "ãĢ": 2852,
      ">());": 2853,
      "^=": 2854,
      "vers": 2855,
      ")=(": 2856,
      "msk": 2857,
      "form": 2858,
      "Ġreset": 2859,
      "vert": 2860,
      "DEF": 2861,
      ")=": 2862,
      "\";}": 2863,
      "Ġqr": 2864,
      "state": 2865,
      "Ġlca": 2866,
      "Ġ123": 2867,
      "Ġshort": 2868,
      "''": 2869,
      "Ġjj": 2870,
      "valc": 2871,
      "ĠCL": 2872,
      ")];": 2873,
      "Ġ{{": 2874,
      "Ġpo": 2875,
      "FFFF": 2876,
      "Ġsuf": 2877,
      "VEC": 2878,
      "Ġmemo": 2879,
      "Scan": 2880,
      "Ġln": 2881,
      "Ġsep": 2882,
      "range": 2883,
      "ward": 2884,
      "ãģ": 2885,
      "Ġargv": 2886,
      "]!='": 2887,
      "scan": 2888,
      "Ġdif": 2889,
      "Ġ*(": 2890,
      "lb": 2891,
      "Ġvd": 2892,
      "Ġ\");": 2893,
      "2000": 2894,
      "bin": 2895,
      "Ġ(-": 2896,
      "////////////////////////////////////////////////////////////////": 2897,
      "nb": 2898,
      "Ġfx": 2899,
      "Ġnargs": 2900,
      "ossible": 2901,
      "ions": 2902,
      "OL": 2903,
      "var": 2904,
      "Ġblock": 2905,
      "sent": 2906,
      "Ġ--)": 2907,
      "ref": 2908,
      "mo": 2909,
      "Ġscl": 2910,
      "---": 2911,
      "â£»": 2912,
      "â£½": 2913,
      "âĸĪâĸĪâĸĪ": 2914,
      "even": 2915,
      "]&&": 2916,
      "Ġ16": 2917,
      "##_": 2918,
      "ĊĠĠĉ": 2919,
      "ĊĠĠĠĠĠĠĠĠĠĠĠĠĠĠĠĠĠĠĠĠĠĠĠĠĠĠĠĠĠĠĠĠĠĠĠĠĠĠĠĠĠĠĠ": 2920,
      "Ġstream": 2921,
      "<<*": 2922,
      "Ġdir": 2923,
      "!=-": 2924,
      "()->": 2925,
      "Ġ60": 2926,
      "ure": 2927,
      "Ġfto": 2928,
      "ĠTT": 2929,
      "nce": 2930,
      "Ġ[&](": 2931,
      "Ġsa": 2932,
      "String": 2933,
      "UNCTION": 2934,
      "Ġ--;": 2935,
      "5555": 2936,
      "dq": 2937,
      "Ġcap": 2938,
      "Ġmove": 2939,
      "Ġvp": 2940,
      "100100": 2941,
      "Ġkek": 2942,
      "Ġsl": 2943,
      "Pow": 2944,
      "_,": 2945,
      "qq": 2946,
      "Ġfori": 2947,
      "imum": 2948,
      "ĠModular": 2949,
      ":\"": 2950,
      "Set": 2951,
      "altu": 2952,
      "ĠST": 2953,
      "ĠRe": 2954,
      "=((": 2955,
      "perm": 2956,
      ">();": 2957,
      "ĠĊĠĠĠĠĠĠĠĠĠĠĠ": 2958,
      "ĊĠĠĠĠĠĠĠĠĠĠĠĠĠĠĠĠĠĠĠĠĠ": 2959,
      "Ġlp": 2960,
      "locked": 2961,
      "suf": 2962,
      "Ġus": 2963,
      "inc": 2964,
      "Ġdone": 2965,
      "Start": 2966,
      "à§ĩ": 2967,
      "USE": 2968,
      "ĉĊĉ": 2969,
      "Ġio": 2970,
      "entr": 2971,
      "]==-": 2972,
      "ĠInf": 2973,
      "``": 2974,
      "IM": 2975,
      "Ġ17": 2976,
      "lg": 2977,
      "100001": 2978,
      "Ġflow": 2979,
      "Ġsuff": 2980,
      "dif": 2981,
      "Ġ{};": 2982,
      "0000000": 2983,
      "Ġkk": 2984,
      "ĠSP": 2985,
      "']++;": 2986,
      "_;": 2987,
      "step": 2988,
      "itt": 2989,
      "Ġris": 2990,
      "IMP": 2991,
      "ucl": 2992,
      "buff": 2993,
      "ĠgetChar": 2994,
      "ĠreadInt": 2995,
      "Ġbigmod": 2996,
      "Ġtrans": 2997,
      ")/(": 2998,
      "Ġgrid": 2999,
      "Ġpowmod": 3000,
      "PP": 3001,
      "]<<'": 3002,
      "Ġcand": 3003,
      "vals": 3004,
      "1234567": 3005,
      "ĊĊĠĠĠĠ": 3006,
      "Ġstrchr": 3007,
      ";;;;;;": 3008,
      "Ġfd": 3009,
      "Ġsout": 3010,
      "Ġsieve": 3011,
      "olution": 3012,
      "tint": 3013,
      "tic": 3014,
      "SERT": 3015,
      "Ġ10000000": 3016,
      "âĸĢâĸĦ": 3017,
      "stri": 3018,
      "Ġopt": 3019,
      "Ġmodulus": 3020,
      "Ġbits": 3021,
      "Ġ&=": 3022,
      "]!=-": 3023,
      "Ġ>;": 3024,
      "Ġ\"}\";": 3025,
      "Test": 3026,
      "ia": 3027,
      "ru": 3028,
      "Ġfy": 3029,
      "Ġfflush": 3030,
      "Ġbl": 3031,
      "Ġford": 3032,
      "Ġdot": 3033,
      "hich": 3034,
      "Ġwork": 3035,
      "Ġ(~": 3036,
      "Ġsrand": 3037,
      "Ġref": 3038,
      "Re": 3039,
      "gt": 3040,
      "tri": 3041,
      "Ġforeach": 3042,
      "jti": 3043,
      "sa": 3044,
      "WWK": 3045,
      "WWKK": 3046,
      "KKKKW": 3047,
      "âĸĳâĸĳâĸĳâĸĳâĸĳ": 3048,
      "lvl": 3049,
      "Ġcr": 3050,
      "Ġve": 3051,
      "Ġback": 3052,
      "Ġui": 3053,
      "ya": 3054,
      "]]--;": 3055,
      "End": 3056,
      "SU": 3057,
      "ĠĊĉĉ": 3058,
      "Ġxxx": 3059,
      "Ġwin": 3060,
      "____________": 3061,
      "tests": 3062,
      "nk": 3063,
      "Ġerase": 3064,
      "ACE": 3065,
      "Ġ'#": 3066,
      "Bit": 3067,
      "cxx": 3068,
      "Ġev": 3069,
      "ĠFF": 3070,
      "Helper": 3071,
      "To": 3072,
      "Ġna": 3073,
      "Ġ;}": 3074,
      "ĠModInt": 3075,
      "Ġ'*": 3076,
      "Ġdiv": 3077,
      "DB": 3078,
      "srand": 3079,
      "Ġcarry": 3080,
      "Ġdr": 3081,
      "Ġrs": 3082,
      "Inverse": 3083,
      "Ġprefix": 3084,
      "ĊĉĉĊ": 3085,
      "Ġtin": 3086,
      "verflow": 3087,
      "âĢ": 3088,
      "store": 3089,
      "Ġsmall": 3090,
      "228": 3091,
      ",...)": 3092,
      "Ð°": 3093,
      "ĠĊĠĠ": 3094,
      "trie": 3095,
      "Th": 3096,
      "lc": 3097,
      "Ġte": 3098,
      "ctz": 3099,
      ";(": 3100,
      "raph": 3101,
      "ingle": 3102,
      "ĠMA": 3103,
      "vertex": 3104,
      "Vector": 3105,
      "Whitespace": 3106,
      "register": 3107,
      "Ġdq": 3108,
      "ĠTime": 3109,
      "ĠSIZE": 3110,
      "tain": 3111,
      "FUNCTION": 3112,
      "uf": 3113,
      "Ġimp": 3114,
      "close": 3115,
      "BC": 3116,
      "move": 3117,
      "Ġrc": 3118,
      "(++": 3119,
      "ebug": 3120,
      "Ġtail": 3121,
      "Ġeprintf": 3122,
      "unlocked": 3123,
      "rng": 3124,
      "Ġls": 3125,
      "ircle": 3126,
      "Ġthan": 3127,
      "Ġsplit": 3128,
      "erence": 3129,
      "Ġfaltu": 3130,
      "ers": 3131,
      "-----": 3132,
      "ĊĠĠĠĠĠĠĠĠĠĠĠĠĠĠĠĠĠĠĠĠĠĠĠĠĠĠĠĠĠĠĠĠĠĠĠĠĠĠĠ": 3133,
      "exponent": 3134,
      "Ùİ": 3135,
      "Ġmon": 3136,
      "ARY": 3137,
      "='": 3138,
      "ĠĠĠĊĠĠĠ": 3139,
      "rec": 3140,
      "Ġlol": 3141,
      "SS": 3142,
      "done": 3143,
      "++]=": 3144,
      "<<\"[": 3145,
      "â£¿â£¿â£¿â£¿â£¿â£¿": 3146,
      ")<(": 3147,
      "]*(": 3148,
      "defor": 3149,
      "Ġrun": 3150,
      "deforces": 3151,
      "Ġmii": 3152,
      "Ġ>,": 3153,
      "ĠLLONG": 3154,
      "200000": 3155,
      "Ġstate": 3156,
      "EMP": 3157,
      "Ġcs": 3158,
      "Ġfloat": 3159,
      "Ġdsu": 3160,
      "GGGGGGGGGGGGGGGG": 3161,
      "];}": 3162,
      ">='": 3163,
      "KKKKKKKKKKKKKKK": 3164,
      "WWWWWWWWWWW": 3165,
      "DDDDDDDDDDD": 3166,
      "EEEK": 3167,
      "<_": 3168,
      "Ġ'?": 3169,
      ")-(": 3170,
      "<<\"-": 3171,
      "Ġstack": 3172,
      "ID": 3173,
      "UL": 3174,
      "otate": 3175,
      "apsed": 3176,
      "lp": 3177,
      "()));": 3178,
      "owel": 3179,
      "ĠFast": 3180,
      "%%%%": 3181,
      "mk": 3182,
      "}//": 3183,
      "Ġaux": 3184,
      "arge": 3185,
      "Ġchr": 3186,
      "DL": 3187,
      ":..": 3188,
      "++];": 3189,
      "))*": 3190,
      "Ġwr": 3191,
      "________________________________": 3192,
      "angle": 3193,
      "nom": 3194,
      "ĊĠĠĠĠĠĠĠĠĠĠĠĠĠĠĠĠĠĠ": 3195,
      "ÑĤ": 3196,
      "uk": 3197,
      "Ġlhs": 3198,
      "ĠThe": 3199,
      "EN": 3200,
      "Se": 3201,
      "Ġfoo": 3202,
      "ASSERT": 3203,
      "âĸĵâĸĵ": 3204,
      "Ġlvl": 3205,
      "Ġ'\"": 3206,
      "=\"\";": 3207,
      "Ġcopy": 3208,
      "ĊĠĊ": 3209,
      "have": 3210,
      "Ġnn": 3211,
      "Ġwhich": 3212,
      "table": 3213,
      "ĠUN": 3214,
      "ĠEX": 3215,
      "PT": 3216,
      "Ġ\"!": 3217,
      "dot": 3218,
      "Ġsiz": 3219,
      "ĠNumber": 3220,
      "ĠIter": 3221,
      "distance": 3222,
      "/************************************************": 3223,
      "]]==": 3224,
      "][(": 3225,
      "Ġchange": 3226,
      "Ġinfo": 3227,
      "div": 3228,
      "Ġtests": 3229,
      "Ġfiles": 3230,
      "problem": 3231,
      "%(": 3232,
      "oup": 3233,
      "::.": 3234,
      "##~~": 3235,
      "graph": 3236,
      "Impossible": 3237,
      ",__": 3238,
      "Ġ----------------------------------------------": 3239,
      "ĠTRACE": 3240,
      "MAT": 3241,
      "PUT": 3242,
      ":::::": 3243,
      "Ġwhat": 3244,
      "nl": 3245,
      "ĊĉĉĠĠĠ": 3246,
      "<<\",": 3247,
      "Ġprv": 3248,
      "]]]]": 3249,
      "kol": 3250,
      "ov": 3251,
      ">>;": 3252,
      "umulate": 3253,
      "ĠĠĠĠĠĠĠĠĠĠĠĠĠĠĠĠĠĠĠĠĠĠĠĠĠĠĠĠ": 3254,
      "Ġprivate": 3255,
      "âłĽ": 3256,
      "imag": 3257,
      "Ġbeg": 3258,
      "la": 3259,
      "ts": 3260,
      "Ġprecalc": 3261,
      "Ġdistance": 3262,
      "FL": 3263,
      "tti": 3264,
      "vii": 3265,
      "â£¾": 3266,
      "Ġmultiply": 3267,
      "Pro": 3268,
      "[_": 3269,
      "Ġ(!(": 3270,
      "Ġdivi": 3271,
      "Ġfactor": 3272,
      "Ġrandom": 3273,
      "merge": 3274,
      "ifstream": 3275,
      "])+": 3276,
      "MMM": 3277,
      "Ġpiii": 3278,
      "ĠGCD": 3279,
      "****************************************": 3280,
      "ROW": 3281,
      "matrix": 3282,
      "Ġpli": 3283,
      "505": 3284,
      "eb": 3285,
      "wr": 3286,
      "Ġ();": 3287,
      "alpha": 3288,
      "sprime": 3289,
      "EEEEEE": 3290,
      "undef": 3291,
      "Ġsolution": 3292,
      "argv": 3293,
      "cpy": 3294,
      "\"[": 3295,
      "Add": 3296,
      "^(": 3297,
      "ways": 3298,
      "ĊĠĠĠĠĉĉĉ": 3299,
      "==(": 3300,
      "ĠNIL": 3301,
      "EEEEE": 3302,
      "nodes": 3303,
      "nect": 3304,
      "orary": 3305,
      "ĠFORD": 3306,
      "pc": 3307,
      "***": 3308,
      "valid": 3309,
      "Ġones": 3310,
      "=*": 3311,
      "uu": 3312,
      "ĠDP": 3313,
      "99999999": 3314,
      "IntegerRange": 3315,
      "Ġï¿½ï¿½ï¿½ï¿½ï¿½ï¿½ï¿½": 3316,
      "(')": 3317,
      "Ġ2000000000": 3318,
      "ĠisPrime": 3319,
      "**************/": 3320,
      "98": 3321,
      "ersect": 3322,
      "\"),": 3323,
      "Ġyes": 3324,
      "ĊĠĠĠĠĠĠĠĠĠĠĠĠĠĠĠĠĠĠĠĠĠĠĠĠĠĠĠĠĠ": 3325,
      "256": 3326,
      "400": 3327,
      "=_": 3328,
      "cx": 3329,
      "Ġiiii": 3330,
      "Ġ<<(": 3331,
      "ĠIt": 3332,
      "âĸĢâĸĢâĸĢâĸĢ": 3333,
      "):(": 3334,
      "<'": 3335,
      "lca": 3336,
      "Ġask": 3337,
      "Ġpat": 3338,
      "stra": 3339,
      ");++(": 3340,
      "\"]": 3341,
      "tar": 3342,
      "âłĺ": 3343,
      ">'": 3344,
      "ĊĠĠĠĠĠĠĠĠĠĠĠĠĊĠĠĠĠĠĠĠĠĠĠĠ": 3345,
      "Ġcounter": 3346,
      "Ġpoints": 3347,
      "OME": 3348,
      "sx": 3349,
      "Ġ@": 3350,
      "Ġcurrent": 3351,
      "ffff": 3352,
      "TASK": 3353,
      "mint": 3354,
      "nr": 3355,
      "1000005": 3356,
      "lft": 3357,
      "Ġ\"#": 3358,
      "######": 3359,
      "ĠRep": 3360,
      "plus": 3361,
      ">(),": 3362,
      "Cnt": 3363,
      "day": 3364,
      "ĊĉĠĠ": 3365,
      "Ġdor": 3366,
      "olower": 3367,
      "error": 3368,
      ",,,,,,": 3369,
      "ĠSQR": 3370,
      "Id": 3371,
      "Ġfir": 3372,
      "acti": 3373,
      "Ġarea": 3374,
      "Op": 3375,
      "Ġist": 3376,
      "utation": 3377,
      "(&": 3378,
      "bt": 3379,
      "ger": 3380,
      "}*/": 3381,
      "Ġso": 3382,
      "invd": 3383,
      "VER": 3384,
      "ren": 3385,
      "rect": 3386,
      "Ġfunc": 3387,
      "fter": 3388,
      "â¢¸": 3389,
      "Ġshow": 3390,
      "eks": 3391,
      "ĠCLR": 3392,
      "Data": 3393,
      ");--": 3394,
      "Dist": 3395,
      "LD": 3396,
      "ba": 3397,
      "nax": 3398,
      "ql": 3399,
      "Ġopen": 3400,
      "Ġlc": 3401,
      "00001": 3402,
      "ecial": 3403,
      "CA": 3404,
      "fabs": 3405,
      "dec": 3406,
      "Ġcp": 3407,
      "Ġvertexs": 3408,
      "Read": 3409,
      "ev": 3410,
      "ey": 3411,
      "src": 3412,
      "ĠName": 3413,
      "Ġvalid": 3414,
      "loc": 3415,
      "('\\": 3416,
      "5005": 3417,
      "inter": 3418,
      "Ġcn": 3419,
      "Ġcenter": 3420,
      "Ġlink": 3421,
      "Ġcomb": 3422,
      "oose": 3423,
      "/**************": 3424,
      "prot": 3425,
      "bution": 3426,
      "pause": 3427,
      "[__": 3428,
      "fir": 3429,
      "Ġ**************/": 3430,
      "ĠGET": 3431,
      ">()": 3432,
      "ended": 3433,
      "INES": 3434,
      "Ġql": 3435,
      "Ġmaxx": 3436,
      "Number": 3437,
      "siz": 3438,
      "org": 3439,
      "Ġfs": 3440,
      ">>>": 3441,
      "Ġscn": 3442,
      "DEFINES": 3443,
      "Ġchrono": 3444,
      "MATH": 3445,
      "DK": 3446,
      "WWWWWK": 3447,
      ",,,,,,,": 3448,
      "WWWKK": 3449,
      "WWWKKK": 3450,
      "Ġ...:.": 3451,
      "uffer": 3452,
      "Ġ~(": 3453,
      "Ar": 3454,
      "ould": 3455,
      "private": 3456,
      "Ñģ": 3457,
      "çļ": 3458,
      "Ġmas": 3459,
      "eration": 3460,
      "=='-')": 3461,
      "çļĦ": 3462,
      "||(": 3463,
      "Ġdiag": 3464,
      "|(": 3465,
      "ĠĠĠĠĠĠĠĠĠĠĠĠĠĠĠĠĠĠĠĠĠĠĠĠĠĠĠĠĠ": 3466,
      "à¦¾": 3467,
      "One": 3468,
      "Ġpri": 3469,
      "prod": 3470,
      "ĠHead": 3471,
      "nm": 3472,
      "Ġ[](": 3473,
      "imize": 3474,
      "(){}": 3475,
      "(!(": 3476,
      "ĠĠĠĠĠĠĠĠĠĠĠĠĠĠĠĠĠĠĠĠĠĠĠĠĠĠĠĠĠĠĠĠĠĠĠĠĠĠĠĠĠĠĠĠĠĠĠĠĠĠĠĠĠĠĠĠĠĠĠĠĠĠĠĠĠĠĠĠĠĠĠĠĠĠĠĠĠĠĠĠĠĠĠĠĠĠĠĠĠĠĠĠĠĠĠĠĠĠĠĠĠĠĠĠĠĠĠĠĠĠĠĠĠĠĠĠĠĠĠĠĠĠĠĠĠĠĠĠ": 3477,
      "center": 3478,
      "gg": 3479,
      "ĊĊĉĉĉ": 3480,
      "//*": 3481,
      "lete": 3482,
      "Ġmodnum": 3483,
      "age": 3484,
      "off": 3485,
      "ĠOUT": 3486,
      "~~~~": 3487,
      "Ġ\"{\";": 3488,
      "entroid": 3489,
      "EG": 3490,
      "})": 3491,
      "Ġni": 3492,
      "2005": 3493,
      "70": 3494,
      "lt": 3495,
      "og": 3496,
      "war": 3497,
      "lear": 3498,
      "__);": 3499,
      "ument": 3500,
      "ceil": 3501,
      "ĠEnd": 3502,
      "Ġwhere": 3503,
      "++;}": 3504,
      "Ġqq": 3505,
      "647": 3506,
      "haust": 3507,
      "Ġaccumulate": 3508,
      "BS": 3509,
      "Ġfound": 3510,
      "),_": 3511,
      "::::::": 3512,
      ":::::::": 3513,
      "âĸĴâĸĴâĸĴâĸĴâĸĴâĸĴ": 3514,
      "nw": 3515,
      "oin": 3516,
      "wa": 3517,
      "Ġlf": 3518,
      "setf": 3519,
      "prv": 3520,
      "ffl": 3521,
      "Ġremove": 3522,
      "]=='.')": 3523,
      "stribution": 3524,
      "IG": 3525,
      "(\"/": 3526,
      "Ġinp": 3527,
      "ueries": 3528,
      "hausted": 3529,
      "Ġvals": 3530,
      "Ġbug": 3531,
      "Ġord": 3532,
      "system": 3533,
      "protector": 3534,
      "hing": 3535,
      "seq": 3536,
      "ORT": 3537,
      "ĠEND": 3538,
      "Ġ--------------------": 3539,
      "Ġmonth": 3540,
      "lol": 3541,
      "the": 3542,
      "Ġnw": 3543,
      "ĊĠĉĉ": 3544,
      "Ġra": 3545,
      "ĠmodMul": 3546,
      "ĠRFOR": 3547,
      "DEB": 3548,
      "Ġam": 3549,
      "Ġncr": 3550,
      "Ġlld": 3551,
      "Ġ1000000000000000000": 3552,
      "\",\"<<": 3553,
      "âĸĪâĸĪâĸĪâĸĪâĸĪâĸĪâĸĪâĸĪ": 3554,
      "CHAR": 3555,
      "ĠAllah": 3556,
      "*=(": 3557,
      "bal": 3558,
      "decltype": 3559,
      "lev": 3560,
      "==\"": 3561,
      "prefix": 3562,
      "â¢Ģâ¢Ģ": 3563,
      "90": 3564,
      "93": 3565,
      "mult": 3566,
      "Ġbp": 3567,
      "Ġreal": 3568,
      "ĠSH": 3569,
      "hell": 3570,
      ",,,,,,,,,,,,,,,,": 3571,
      "bigmod": 3572,
      "Ġng": 3573,
      "Len": 3574,
      "has": 3575,
      "Ġsnd": 3576,
      "alf": 3577,
      "ĠSet": 3578,
      "Ġtrie": 3579,
      "(((": 3580,
      "geeks": 3581,
      "ĠBig": 3582,
      "1234": 3583,
      "ĊĊĊĊĊĊĊĊĊĊĊĊĊĊĊĊ": 3584,
      "Ġceil": 3585,
      "IMPL": 3586,
      "FN": 3587,
      "vc": 3588,
      "Ġï¿½": 3589,
      "Ġtaken": 3590,
      "ĠSt": 3591,
      "maxx": 3592,
      "Ġ1000000009": 3593,
      "Ġ\"[\"": 3594,
      ")?(": 3595,
      "Buffer": 3596,
      "Ġ{+": 3597,
      "Ġpld": 3598,
      "Ġts": 3599,
      "akh": 3600,
      "&-": 3601,
      "Double": 3602,
      "Ġuni": 3603,
      "Ġexponent": 3604,
      "IntegerIterator": 3605,
      "':": 3606,
      "(*(": 3607,
      "Hash": 3608,
      "ader": 3609,
      "bas": 3610,
      "fn": 3611,
      "Ġgot": 3612,
      "Ġ++__": 3613,
      "ĠNO": 3614,
      "ĠFirst": 3615,
      "ĠSegment": 3616,
      "plic": 3617,
      "âķ¬âķ¬âķ¬âķ¬": 3618,
      "EL": 3619,
      "eing": 3620,
      "Ġsim": 3621,
      "iform": 3622,
      "Ġ29": 3623,
      "Ġtri": 3624,
      "ress": 3625,
      "Ġ-->": 3626,
      "ĊĊĊĊĊ": 3627,
      "Ġbinpow": 3628,
      "Left": 3629,
      "72": 3630,
      "distribution": 3631,
      "ĊĉĠĠĠĠ": 3632,
      "ĠCode": 3633,
      "very": 3634,
      "codeforces": 3635,
      "Ġgener": 3636,
      ")&&": 3637,
      "snd": 3638,
      "Ġty": 3639,
      "<<\"]": 3640,
      "2222": 3641,
      "oi": 3642,
      "Ġcall": 3643,
      "Ġtransform": 3644,
      "DEE": 3645,
      "DEEE": 3646,
      "WKKKK": 3647,
      "na": 3648,
      "Ġdef": 3649,
      "Ġconstexpr": 3650,
      "WWWWWWWWWWWW": 3651,
      "âł¹": 3652,
      "suff": 3653,
      "ukaz": 3654,
      "Args": 3655,
      "KEE": 3656,
      "[--": 3657,
      "]});": 3658,
      "Ġday": 3659,
      "ĊĠĠĠĠĠĠĠĠĠĠĠĠĠĠĠĠĠĠĠĠĠĠĠĠĠĠĠĠĠĠĠĠĠĠĠ": 3660,
      "mode": 3661,
      "}});": 3662,
      "yes": 3663,
      "AB": 3664,
      "ner": 3665,
      "Ð½": 3666,
      "Ġmsk": 3667,
      "enti": 3668,
      "Ġ'-'": 3669,
      "1024": 3670,
      "OO": 3671,
      "Ġostringstream": 3672,
      "Ġdeque": 3673,
      "997": 3674,
      "Ġbuff": 3675,
      "grid": 3676,
      "bbbb": 3677,
      "Ġlimit": 3678,
      "ĠREV": 3679,
      "ukazu": 3680,
      "ĠPQ": 3681,
      "ĠIT": 3682,
      "Ġvvll": 3683,
      ")!=": 3684,
      "PC": 3685,
      "Ġsame": 3686,
      "ofstream": 3687,
      "readType": 3688,
      "45": 3689,
      "65": 3690,
      "iw": 3691,
      "__(": 3692,
      "Ġro": 3693,
      "ĠTargs": 3694,
      "dsu": 3695,
      "1415926535897932384626433832795": 3696,
      "ĠxyPoint": 3697,
      "va": 3698,
      "Ġmodify": 3699,
      "ORARY": 3700,
      "Ġsolver": 3701,
      "EMPORARY": 3702,
      "And": 3703,
      "Idx": 3704,
      "Ġ('": 3705,
      "Ġ18": 3706,
      "Ġ2000": 3707,
      "loor": 3708,
      "ĊĠĠĠĠĠĠĠĠĠĠĠĠĠĠĠĠĠĠĠĠĠĠĠĠĠĠĠĠĠĠĠĠ": 3709,
      "TESTS": 3710,
      "MMMMMMMMMMMMMMMMMMMMMMMMMMMMMMMM": 3711,
      "oraryNode": 3712,
      "510": 3713,
      "Pr": 3714,
      "Ġ....": 3715,
      "Ġact": 3716,
      "ĠAdd": 3717,
      "modular": 3718,
      "Ċĉĉĉĉĉĉĉ": 3719,
      "âĸĦâĸĢ": 3720,
      "MS": 3721,
      "ĊĉĊĉ": 3722,
      "Ġnod": 3723,
      "Ġinverse": 3724,
      "ĠreadChar": 3725,
      "';}": 3726,
      "not": 3727,
      "ĠØ": 3728,
      "ĠCon": 3729,
      "Ġatan": 3730,
      ")][": 3731,
      ";//": 3732,
      "Ġrg": 3733,
      "Ġdbl": 3734,
      "Ġempty": 3735,
      "argc": 3736,
      ",'": 3737,
      "Segment": 3738,
      "eap": 3739,
      "hod": 3740,
      "Ġtout": 3741,
      "other": 3742,
      "mq": 3743,
      "tj": 3744,
      "tx": 3745,
      "Ġer": 3746,
      "Ġmint": 3747,
      "Ġnr": 3748,
      "ĠTIME": 3749,
      "ĠmodInverse": 3750,
      ".........": 3751,
      "Ġ#__": 3752,
      "ĠGod": 3753,
      "Ġsegment": 3754,
      "'];": 3755,
      ",;;": 3756,
      "By": 3757,
      "Des": 3758,
      "same": 3759,
      "(\".": 3760,
      "Ġwt": 3761,
      "â¢»": 3762,
      "sqr": 3763,
      "Ġelapsed": 3764,
      "permutation": 3765,
      "Ġ):": 3766,
      ";};": 3767,
      "147": 3768,
      "âĸĦâĸĦâĸĦâĸĦ": 3769,
      "AND": 3770,
      "boost": 3771,
      "\":\"": 3772,
      "ostringstream": 3773,
      "vvi": 3774,
      "Ġdim": 3775,
      "Ġllong": 3776,
      "337": 3777,
      "Ġdivis": 3778,
      "ĠDBG": 3779,
      "Ġskip": 3780,
      "Solve": 3781,
      "Ġvpi": 3782,
      "strlen": 3783,
      "â£Ĩ": 3784,
      "ĠLine": 3785,
      "ĠDEB": 3786,
      "Ġ48": 3787,
      "â£¿â£¿â£¿â£¿â£¿â£¿â£¿â£¿â£¿â£¿â£¿â£¿â£¿â£¿â£¿â£¿": 3788,
      "FILENAME": 3789,
      "300005": 3790,
      "++);": 3791,
      "Ġsx": 3792,
      "memo": 3793,
      ";\\": 3794,
      "eld": 3795,
      "Ġpil": 3796,
      "//}": 3797,
      ")<=": 3798,
      ">{": 3799,
      "Ġflush": 3800,
      "ipper": 3801,
      "xy": 3802,
      "Ġlet": 3803,
      "Ġ|_|": 3804,
      "Use": 3805,
      "app": 3806,
      "Ġaaa": 3807,
      "ple": 3808,
      "()]": 3809,
      "ĠROF": 3810,
      "ĠreadType": 3811,
      "illah": 3812,
      "UE": 3813,
      "beg": 3814,
      "ml": 3815,
      "np": 3816,
      "Ġxs": 3817,
      "#######": 3818,
      "Ġgetline": 3819,
      "ĠCom": 3820,
      "Ġ100100": 3821,
      "Ġnullptr": 3822,
      "MXN": 3823,
      "288": 3824,
      "AM": 3825,
      "call": 3826,
      "ise": 3827,
      "Ġnp": 3828,
      "+=\"": 3829,
      "403": 3830,
      "Di": 3831,
      "ĠÃ": 3832,
      "Ġ\"\"": 3833,
      "lect": 3834,
      "ĠTES": 3835,
      ">>>>": 3836,
      "Ġini": 3837,
      "EEEEEEE": 3838,
      "Of": 3839,
      "WKKKKKKKK": 3840,
      "fun": 3841,
      "gc": 3842,
      "night": 3843,
      "ÐĲ": 3844,
      "Ġcum": 3845,
      "Ġlft": 3846,
      "Ġdc": 3847,
      "WWKKK": 3848,
      "Ġpresent": 3849,
      "EEEEEEEEEE": 3850,
      "Ġ.:.": 3851,
      "WWWWWWWWWW": 3852,
      "DDDDDDDDDD": 3853,
      "Ġ...,.": 3854,
      "KKKKKKKKKKKKKKKKKKKKKKKK": 3855,
      "tfLGG": 3856,
      "uffle": 3857,
      ")//": 3858,
      "DP": 3859,
      "IE": 3860,
      "ee": 3861,
      "win": 3862,
      "onenti": 3863,
      "Ġtable": 3864,
      "Ġ25": 3865,
      "Ġ200000": 3866,
      "ĠSET": 3867,
      "Ġchkmax": 3868,
      "62": 3869,
      "ning": 3870,
      "Ġ300": 3871,
      "versed": 3872,
      "Ġargument": 3873,
      "ERO": 3874,
      "Ġvvl": 3875,
      "serve": 3876,
      "'))": 3877,
      "eve": 3878,
      "ĠnValue": 3879,
      "heck": 3880,
      "ĠEdge": 3881,
      "################################################################": 3882,
      "Ej": 3883,
      "sd": 3884,
      "ĠdPower": 3885,
      "Ġ++_": 3886,
      "ĠUpdate": 3887,
      "Ġonly": 3888,
      "âķĲâķĲ": 3889,
      "Contain": 3890,
      "fflush": 3891,
      "author": 3892,
      "Ġfft": 3893,
      "ĠTree": 3894,
      "ĠfastIO": 3895,
      "ĊĠĠĠĠĊĠĠĠĠĊĠĠĠĠĊĠĠĠĠ": 3896,
      "cepted": 3897,
      "DI": 3898,
      "Right": 3899,
      "Tr": 3900,
      "px": 3901,
      "change": 3902,
      "ĠSS": 3903,
      "nost": 3904,
      "ys": 3905,
      "Ġero": 3906,
      "Ġim": 3907,
      "Ġsw": 3908,
      "idul": 3909,
      "ĠMS": 3910,
      "kek": 3911,
      "ĠRAIter": 3912,
      "Ġ**": 3913,
      "Ġĉĉ": 3914,
      "Ġcx": 3915,
      "Ġlint": 3916,
      "Ġ'('": 3917,
      "Ġwar": 3918,
      ";;;;;;;": 3919,
      "âłī": 3920,
      "(_)": 3921,
      "factor": 3922,
      "ĠPRINT": 3923,
      "Ġlocal": 3924,
      "Ġsb": 3925,
      "Ġ<<=": 3926,
      "Ġbind": 3927,
      "â£¤": 3928,
      "Ġgoa": 3929,
      "limit": 3930,
      "CC": 3931,
      "Mode": 3932,
      "ONLINE": 3933,
      "lhs": 3934,
      "rhs": 3935,
      "(\"<<": 3936,
      "])-": 3937,
      "ĠSL": 3938,
      "Ġscore": 3939,
      "Ġenable": 3940,
      "Exp": 3941,
      "Ġdt": 3942,
      "ĠprContain": 3943,
      "ĠAl": 3944,
      "Ġ62": 3945,
      "dbl": 3946,
      "norm": 3947,
      "â£¶": 3948,
      "Index": 3949,
      "Ġchkmin": 3950,
      "AH": 3951,
      "ei": 3952,
      "ĊĠĠĠĉĉ": 3953,
      "ĊĊĊĊĠĠĠ": 3954,
      "Ġuti": 3955,
      "Ġprec": 3956,
      "Init": 3957,
      "14159265358979323846264338327950": 3958,
      "Ġdiagnost": 3959,
      "//*//*": 3960,
      "Ġdiagnostic": 3961,
      "carry": 3962,
      "Ġjt": 3963,
      "Ġ\\\\": 3964,
      "take": 3965,
      "ocess": 3966,
      "14159265359": 3967,
      "warukazu": 3968,
      "sf": 3969,
      "Ġcor": 3970,
      "Ġang": 3971,
      "<<__": 3972,
      "ithub": 3973,
      "ĠPro": 3974,
      "##~~##~~": 3975,
      ")>=": 3976,
      "Pair": 3977,
      "Ð¸": 3978,
      "Ġĉĉĉ": 3979,
      "reate": 3980,
      "â¡ĩ": 3981,
      "5000": 3982,
      "run": 3983,
      "Ġtag": 3984,
      "Ġ\"\")": 3985,
      "Ġchoose": 3986,
      "Ġ100010": 3987,
      "483": 3988,
      "âłĢâłĢâłĢâłĢ": 3989,
      "active": 3990,
      "CM": 3991,
      "Last": 3992,
      "da": 3993,
      "nu": 3994,
      "inverse": 3995,
      "Ġclear": 3996,
      "Ġpol": 3997,
      "acc": 3998,
      "Ġprod": 3999,
      "ĠFILL": 4000,
      "Ġnumbers": 4001,
      "âĶĢâĶĢâĶĢâĶĢ": 4002,
      "Ġmll": 4003,
      "resolution": 4004,
      "ĠCO": 4005,
      "ĠBIT": 4006,
      "âķĲâķ¦": 4007,
      "âķĲâķ©": 4008,
      "++++++++": 4009,
      ")].": 4010,
      "RI": 4011,
      "found": 4012,
      "Ġeach": 4013,
      "))))": 4014,
      "maining": 4015,
      "'.": 4016,
      "200010": 4017,
      "eq": 4018,
      "ini": 4019,
      "ins": 4020,
      "Ġinter": 4021,
      "Ġexhausted": 4022,
      "func": 4023,
      "Ġtimer": 4024,
      "Ġdud": 4025,
      "){}": 4026,
      "((*": 4027,
      "Ġsystem": 4028,
      "(~": 4029,
      "=%": 4030,
      "OU": 4031,
      "github": 4032,
      "Ġfix": 4033,
      "Al": 4034,
      "fp": 4035,
      "Ġlnum": 4036,
      "ĠFIN": 4037,
      "ĠSORT": 4038,
      "Ġchmin": 4039,
      "Ġmsg": 4040,
      "Arrays": 4041,
      "VAR": 4042,
      "Ġsource": 4043,
      "ĠPi": 4044,
      "Ġdecltype": 4045,
      "ĠII": 4046,
      "âł»": 4047,
      "=='\\": 4048,
      "Res": 4049,
      "py": 4050,
      "ĠĠĊĠĠĠ": 4051,
      "Ġap": 4052,
      "Ġsorted": 4053,
      "area": 4054,
      "âł¿": 4055,
      "Ġshould": 4056,
      "-');": 4057,
      "vb": 4058,
      "Ġisprime": 4059,
      "rease": 4060,
      "load": 4061,
      "Ġ1000005": 4062,
      "ATE": 4063,
      "Find": 4064,
      "GL": 4065,
      "PLL": 4066,
      "Ġrge": 4067,
      "Ġstk": 4068,
      "âĸĪâĸĪâķĳ": 4069,
      "vertexs": 4070,
      "Single": 4071,
      "ose": 4072,
      "ÑĢ": 4073,
      "Ġcal": 4074,
      "Ġfen": 4075,
      "conj": 4076,
      "let": 4077,
      "Ġrepd": 4078,
      "Ġprop": 4079,
      "friend": 4080,
      "1828": 4081,
      "ĠInteger": 4082,
      "'][": 4083,
      "]->": 4084,
      "hh": 4085,
      "rx": 4086,
      "Ð»": 4087,
      "Ġsigned": 4088,
      "ĠTs": 4089,
      "Ġequal": 4090,
      "minus": 4091,
      "Div": 4092,
      "EDD": 4093,
      "Equal": 4094,
      "WEEEEEEEEEEEE": 4095,
      "tolower": 4096,
      "Ġmatch": 4097,
      "KKE": 4098,
      "KKW": 4099,
      "arp": 4100,
      "WWKKKKK": 4101,
      "ĠCON": 4102,
      "Ġ.::.": 4103,
      "WWWK": 4104,
      "tfGGGDDDDDDDDDDDD": 4105,
      "Ġ.:;": 4106,
      "35": 4107,
      ":\\": 4108,
      "LOG": 4109,
      "lz": 4110,
      "Ġ...)": 4111,
      "Ġns": 4112,
      "Ġtim": 4113,
      "Ġ&(": 4114,
      "....:": 4115,
      "ĠPF": 4116,
      "current": 4117,
      "Ġreplace": 4118,
      "200001": 4119,
      "ersection": 4120,
      "uclide": 4121,
      "500005": 4122,
      "]^": 4123,
      "wik": 4124,
      "Ġ..": 4125,
      "Ġï¿½ï¿½": 4126,
      "Ġla": 4127,
      "Ġmo": 4128,
      "Ġsfl": 4129,
      "Ġ256": 4130,
      "ĠDebug": 4131,
      "ally": 4132,
      "203": 4133,
      "Ġlev": 4134,
      "Ġnever": 4135,
      "Ġsha": 4136,
      "Ġbigint": 4137,
      "################################################": 4138,
      "onentiation": 4139,
      "versedIntegerRange": 4140,
      "*)": 4141,
      ",`": 4142,
      "vp": 4143,
      "Ġistringstream": 4144,
      "Ġay": 4145,
      "Ġchmax": 4146,
      "Ġprep": 4147,
      "divi": 4148,
      "]%=": 4149,
      "rank": 4150,
      "Ġ(&": 4151,
      "Ġfout": 4152,
      "Ġpal": 4153,
      "Ġeq": 4154,
      ")).": 4155,
      "pply": 4156,
      "/__": 4157,
      "Path": 4158,
      "Sh": 4159,
      "cu": 4160,
      "Ġ(#": 4161,
      "Ġmset": 4162,
      "Ġ*__": 4163,
      "Ġansw": 4164,
      "1000001": 4165,
      "ĠtemporaryNode": 4166,
      "Ġcols": 4167,
      "Ġdigit": 4168,
      "14159265358979323846264338327950288": 4169,
      "Ġsrt": 4170,
      "__<<\":": 4171,
      "ĠTH": 4172,
      "Ġho": 4173,
      "+='": 4174,
      "ĠGraph": 4175,
      "ĊĠĠĠĠĠĠĠĠĊĠĠĠ": 4176,
      "segment": 4177,
      "Ġrtn": 4178,
      "?\"": 4179,
      "FI": 4180,
      "Sub": 4181,
      "ved": 4182,
      "defined": 4183,
      "Ġmode": 4184,
      "Ġ%.": 4185,
      "ĠDice": 4186,
      "counter": 4187,
      "Ġheap": 4188,
      "Ġsfll": 4189,
      "â£¿â£·": 4190,
      "81": 4191,
      "aux": 4192,
      "td": 4193,
      "ÙĦ": 4194,
      "reserve": 4195,
      "Ġlps": 4196,
      "Ġforit": 4197,
      "mas": 4198,
      "Ġpairt": 4199,
      "<<\")": 4200,
      "ĠFT": 4201,
      "Ġcases": 4202,
      "âķĲâķ¦âķĲâķ©": 4203,
      "]&": 4204,
      "xs": 4205,
      "stk": 4206,
      "ĠNL": 4207,
      "ĠBU": 4208,
      "ĠFORN": 4209,
      "Ġany": 4210,
      "Col": 4211,
      "svalc": 4212,
      "Ġ14": 4213,
      "*****/": 4214,
      "Ġuf": 4215,
      "]);}": 4216,
      "ĠLB": 4217,
      "Ġ')';": 4218,
      "Head": 4219,
      "bi": 4220,
      "Ġ[]": 4221,
      "Ġfail": 4222,
      "Ġpx": 4223,
      "Ġbal": 4224,
      "Ġrel": 4225,
      "Ġprim": 4226,
      "Ġmodinv": 4227,
      "Ġostr": 4228,
      "ĠCH": 4229,
      "------------------------": 4230,
      "Ġpossible": 4231,
      "Ġnumeric": 4232,
      "10000000": 4233,
      "Ġperm": 4234,
      "who": 4235,
      "ĠTimer": 4236,
      "Ġ));": 4237,
      "86": 4238,
      "home": 4239,
      "ka": 4240,
      "rnd": 4241,
      "Ġview": 4242,
      "Ġ\\|": 4243,
      "field": 4244,
      "Ġlead": 4245,
      "MaxN": 4246,
      "147483": 4247,
      "]:": 4248,
      "ius": 4249,
      "imp": 4250,
      "Ġ****************": 4251,
      "chk": 4252,
      "','": 4253,
      "NNNN": 4254,
      "afe": 4255,
      "InputIterator": 4256,
      "'));": 4257,
      "Ġ-(": 4258,
      "Ġreq": 4259,
      "Ġways": 4260,
      "ĠIs": 4261,
      "Ġ40": 4262,
      "[]={-": 4263,
      "Ġlbnd": 4264,
      "ĠCompare": 4265,
      ",:.": 4266,
      "bfs": 4267,
      "taken": 4268,
      "Ġ------": 4269,
      "ĊĠĠĠĊĠĠ": 4270,
      "Ġax": 4271,
      "ert": 4272,
      "Ġ23": 4273,
      "Ġsci": 4274,
      "gram": 4275,
      "Ġubnd": 4276,
      "Ġ'?')": 4277,
      "\">": 4278,
      ")|": 4279,
      "Arg": 4280,
      "bx": 4281,
      "cn": 4282,
      "Ġbet": 4283,
      "<<\"(\"<<": 4284,
      "]]){": 4285,
      "IR": 4286,
      "TN": 4287,
      "ĠBASE": 4288,
      "8888888": 4289,
      "##########": 4290,
      "Ġvisit": 4291,
      "ield": 4292,
      "Ġspecial": 4293,
      "ĠInputIterator": 4294,
      "ðŁĴ©ðŁĴ©ðŁĴ©ðŁĴ©": 4295,
      ";)": 4296,
      "The": 4297,
      "[]=": 4298,
      "ao": 4299,
      "match": 4300,
      "ni": 4301,
      "rp": 4302,
      "llint": 4303,
      "Ġresp": 4304,
      "Ġrepr": 4305,
      "Ġ20000": 4306,
      "ĠRREP": 4307,
      "Ġdefined": 4308,
      "1000000000": 4309,
      "cum": 4310,
      "ject": 4311,
      "<<\",\"<<": 4312,
      "ĠĠĠĠĠĠĠĠĠĠĠĠĠĠĠĠĠĠĠĠĠĠ": 4313,
      "Maxn": 4314,
      "buffer": 4315,
      "147483647": 4316,
      "DFS": 4317,
      "Sz": 4318,
      "fail": 4319,
      "Ġtimes": 4320,
      "Ġuid": 4321,
      "Ġgi": 4322,
      "DDDDD": 4323,
      ")++": 4324,
      ".\\": 4325,
      "MACRO": 4326,
      "_.": 4327,
      "ele": 4328,
      "equal": 4329,
      "Ġ**/": 4330,
      "!='": 4331,
      "103": 4332,
      "ï¼ģ": 4333,
      "ĠTESTS": 4334,
      "ja": 4335,
      "jt": 4336,
      "ki": 4337,
      "ug": 4338,
      "way": 4339,
      "Ġ64": 4340,
      "Ġtb": 4341,
      "tices": 4342,
      "ĠMD": 4343,
      "Ġhow": 4344,
      "ĠRest": 4345,
      "modul": 4346,
      "999": 4347,
      "ayer": 4348,
      ")+'": 4349,
      "âĸĴâĸĴâĸĴâĸĴâĸĴâĸĴâĸĴâĸĴ": 4350,
      "Ġ',',": 4351,
      "123456789": 4352,
      "BLE": 4353,
      "GNU": 4354,
      "Ġft": 4355,
      "Ġpob": 4356,
      "itch": 4357,
      "ĠOf": 4358,
      "upid": 4359,
      "ahman": 4360,
      "plicit": 4361,
      "Gi": 4362,
      "Ġge": 4363,
      "())-": 4364,
      "Ġldb": 4365,
      "Ġ\";__": 4366,
      "ĊĊĊĊĊĊ": 4367,
      "14159265": 4368,
      "TIME": 4369,
      "Vs": 4370,
      "Ġpart": 4371,
      "alk": 4372,
      "..........": 4373,
      "ents": 4374,
      "Ġ100001": 4375,
      "Ġfastio": 4376,
      "Num": 4377,
      "ktop": 4378,
      "tv": 4379,
      "ĠRD": 4380,
      "poss": 4381,
      "ï¿½ï¿½ï¿½ï¿½ï¿½ï¿½ï¿½ï¿½": 4382,
      "============": 4383,
      "Ġ.,": 4384,
      "ĊĠĠĠĠĠĠĠĠĠĠĠĠĠĠĠĠĠĠĠĠĠĠĠĠĠĠĠĠĠĠĠĠĠĠĠĠĠĠĠĠĠĠĠĠĠĠĠ": 4385,
      "Ġends": 4386,
      "Desktop": 4387,
      "ÐĲÐ": 4388,
      "hen": 4389,
      "xb": 4390,
      "Ġ22": 4391,
      "Ġ/\\": 4392,
      "indx": 4393,
      "888888": 4394,
      "sive": 4395,
      "Ġunion": 4396,
      "ACH": 4397,
      "Ġwhen": 4398,
      "www": 4399,
      "Ġproblem": 4400,
      "slope": 4401,
      "BIT": 4402,
      "CD": 4403,
      "code": 4404,
      "rope": 4405,
      "year": 4406,
      "Ġ))": 4407,
      "ĠĊĠĠĠĠĠ": 4408,
      "ĠTN": 4409,
      "Ġele": 4410,
      "Ġminn": 4411,
      "aaaa": 4412,
      ":\",": 4413,
      "Ġï¿½ï¿½ï¿½": 4414,
      "Ġsll": 4415,
      "itf": 4416,
      "Ġti": 4417,
      "Ġjud": 4418,
      "])){": 4419,
      "]+(": 4420,
      "({{": 4421,
      "remove": 4422,
      "Ġrows": 4423,
      "First": 4424,
      "_)": 4425,
      "ell": 4426,
      "pf": 4427,
      "Ġlz": 4428,
      "Ġafter": 4429,
      "Ġpe": 4430,
      "Ġ111": 4431,
      "//.": 4432,
      "Ġds": 4433,
      "KKWWWW": 4434,
      "Ġtrav": 4435,
      "GGDDDDDDDDDDD": 4436,
      "Ġ42": 4437,
      "andard": 4438,
      "]=='*": 4439,
      "WWWWWWWWWWWWWWWW": 4440,
      "978": 4441,
      "ĠHOME": 4442,
      "Ġthr": 4443,
      "Ġunique": 4444,
      "Ġheight": 4445,
      "Ġ.:,:": 4446,
      "Ġextended": 4447,
      "Ġhttp": 4448,
      "delta": 4449,
      "wor": 4450,
      "Ġml": 4451,
      "Ġnb": 4452,
      "Ġ&...": 4453,
      "Ġyear": 4454,
      "])*": 4455,
      "Ġ'.'": 4456,
      "Â¦": 4457,
      "ÙĲ": 4458,
      "Ġcd": 4459,
      "height": 4460,
      "Ġoptimization": 4461,
      "Ġ(~(": 4462,
      "cut": 4463,
      "fh": 4464,
      "got": 4465,
      "tK": 4466,
      "Ġanc": 4467,
      "Ġnc": 4468,
      "()<": 4469,
      "Ġbot": 4470,
      "],&": 4471,
      "Ġconnect": 4472,
      "SET": 4473,
      "ĊĠĠĠĠĠĠĠĠĠĠĠĠĠĠĠĠĠĠĠĠĠĠĠĠĠĠĠĠĠĠĠĠĠĠĠĠĠĠĠĠ": 4474,
      "iev": 4475,
      "Ġwho": 4476,
      "Ġmodulo": 4477,
      "ï¼Į": 4478,
      "Ġelements": 4479,
      "GNUC": 4480,
      "52": 4481,
      "IC": 4482,
      "Rep": 4483,
      "TO": 4484,
      "fd": 4485,
      "ĠĠĠĠĊĠĠĠ": 4486,
      "ĊĠĠĠĠĊĠĠĠĠĊĠĠĠ": 4487,
      "reated": 4488,
      "Ġllinf": 4489,
      "Ġevery": 4490,
      "000000000000000000": 4491,
      "Ġseq": 4492,
      "jkstra": 4493,
      "?-": 4494,
      "eded": 4495,
      "itive": 4496,
      "fori": 4497,
      "_____": 4498,
      "111000": 4499,
      "ĠOut": 4500,
      "ĠXXX": 4501,
      "7772": 4502,
      "@@@@@@@@@@@@@@@@": 4503,
      "+\"": 4504,
      "All": 4505,
      "dr": 4506,
      "fix": 4507,
      "ones": 4508,
      "Ġpy": 4509,
      "oupper": 4510,
      "()&&": 4511,
      "optim": 4512,
      ".............": 4513,
      "Ġhoge": 4514,
      "36": 4515,
      "uv": 4516,
      "word": 4517,
      "Ġold": 4518,
      "Ġfb": 4519,
      "Ġda": 4520,
      "ĊĠĠĠĠĠĠĠĠĠĠĠĠĠĠĠĠĠĠĠĠĠĠ": 4521,
      "Ġ'+": 4522,
      "agate": 4523,
      "ĠGcd": 4524,
      "0001": 4525,
      "ĠBS": 4526,
      "ĠOp": 4527,
      "visit": 4528,
      "ANG": 4529,
      "eight": 4530,
      "oll": 4531,
      "vx": 4532,
      "xa": 4533,
      "Ġfloor": 4534,
      "ence": 4535,
      "Ġvld": 4536,
      "ane": 4537,
      "Ġoverflow": 4538,
      "ĠDist": 4539,
      "]]+": 4540,
      "ĊĉĠĉ": 4541,
      "Ġ'.';": 4542,
      "Ġallocate": 4543,
      "ucky": 4544,
      "71": 4545,
      "ale": 4546,
      "ky": 4547,
      "ken": 4548,
      "Ãł": 4549,
      "ÙĴ": 4550,
      "Ġresize": 4551,
      "Ġover": 4552,
      "88888": 4553,
      "3456789": 4554,
      "Ġcycle": 4555,
      "']=": 4556,
      "=__": 4557,
      "Get": 4558,
      "PRO": 4559,
      "jd": 4560,
      "//~": 4561,
      "Ġremaining": 4562,
      "ĠRes": 4563,
      "abc": 4564,
      "ãĢĲ": 4565,
      "ãĢĳ": 4566,
      "Users": 4567,
      "ham": 4568,
      "sw": 4569,
      "Ġendif": 4570,
      "Ġcb": 4571,
      "Ġlarge": 4572,
      "Ġass": 4573,
      "oun": 4574,
      "Ġstupid": 4575,
      "Ġ63": 4576,
      "ĠprintSingle": 4577,
      "Ġmkp": 4578,
      "binary": 4579,
      "<<\"[\";": 4580,
      "ĠSHOW": 4581,
      "cb": 4582,
      "Ġdump": 4583,
      "Ġclk": 4584,
      "ĠVVI": 4585,
      "('-');": 4586,
      "score": 4587,
      "Ġpwr": 4588,
      "777216": 4589,
      "iable": 4590,
      "Ġdon": 4591,
      "ĠAc": 4592,
      "maxl": 4593,
      "â£¿â£¿â£¿": 4594,
      "quare": 4595,
      "TEST": 4596,
      "SA": 4597,
      "pnt": 4598,
      "|=": 4599,
      "ĠĊĠĠĠĠ": 4600,
      "seen": 4601,
      "ĠSize": 4602,
      "ĠPower": 4603,
      "Ġmemcpy": 4604,
      "getline": 4605,
      "Ġ\":\"": 4606,
      "shift": 4607,
      "ĠCONT": 4608,
      "ĠJUDGE": 4609,
      "Ġav": 4610,
      "Ġdj": 4611,
      "Ġys": 4612,
      "Ġprob": 4613,
      "igh": 4614,
      "Ġpoww": 4615,
      "cycle": 4616,
      "499": 4617,
      "82": 4618,
      "gen": 4619,
      "tra": 4620,
      "Ġscc": 4621,
      "Ġcompare": 4622,
      "rows": 4623,
      "info": 4624,
      "Ġorig": 4625,
      "Ġside": 4626,
      "42": 4627,
      "83": 4628,
      ":...": 4629,
      "SH": 4630,
      "eam": 4631,
      "mitr": 4632,
      "rom": 4633,
      "æķ": 4634,
      "Ġ<>": 4635,
      ">>{": 4636,
      "ĊĉĉĉĉĊĉĉĉ": 4637,
      "subtree": 4638,
      "Ġspace": 4639,
      "]<='": 4640,
      "Ġweight": 4641,
      "âķĲâķ¦âķĲâķ©âķĲâķ¦âķĲâķ©": 4642,
      "(--": 4643,
      ".\"": 4644,
      "standard": 4645,
      "Ġca": 4646,
      "Ġdivs": 4647,
      "Ġï¿½ï¿½ï¿½ï¿½ï¿½ï¿½ï¿½ï¿½ï¿½": 4648,
      "Ġsuffix": 4649,
      "'].": 4650,
      "QUE": 4651,
      "Table": 4652,
      "toupper": 4653,
      "Ġ13": 4654,
      "ough": 4655,
      "ĠMore": 4656,
      "ĠAN": 4657,
      "pped": 4658,
      "à¦¿": 4659,
      "Ġgenerated": 4660,
      "ĠOutput": 4661,
      "ĠAccepted": 4662,
      "73": 4663,
      "gon": 4664,
      "vy": 4665,
      "Ġ****************************************************************": 4666,
      "Ġ'(')": 4667,
      "Ġwa": 4668,
      "ĊĠĠĠĠĠĊĠĠĠ": 4669,
      "};//": 4670,
      "ĠCP": 4671,
      "ĠOF": 4672,
      "Ġlook": 4673,
      "141592653589793": 4674,
      "5001": 4675,
      "!!!": 4676,
      "4197": 4677,
      "uclid": 4678,
      "DBG": 4679,
      "Alex": 4680,
      "DEP": 4681,
      "RR": 4682,
      "ian": 4683,
      "vowel": 4684,
      "zz": 4685,
      "»¿": 4686,
      "ï»¿": 4687,
      "urs": 4688,
      "eros": 4689,
      "tii": 4690,
      "Ġ21": 4691,
      ";;;;;": 4692,
      "Exponentiation": 4693,
      "141592653589793238462643383279502884197": 4694,
      ")&&(": 4695,
      "133": 4696,
      "pv": 4697,
      "æľ": 4698,
      "seeing": 4699,
      "ĠFind": 4700,
      "ĠStr": 4701,
      "Ġzipper": 4702,
      "MMMMM": 4703,
      "ĠVs": 4704,
      "âłĻ": 4705,
      "]<<\"\\": 4706,
      "tk": 4707,
      "Ġ*****": 4708,
      "ĠĠĊ": 4709,
      "Ġ}*/": 4710,
      "tient": 4711,
      "ĠFR": 4712,
      "ĠSum": 4713,
      "omet": 4714,
      "Ġseen": 4715,
      "Ġ105": 4716,
      "aze": 4717,
      "âĸĪâĸĪâĸĪâĸĪâĸĪ": 4718,
      "ahidul": 4719,
      "888888888888888888888888": 4720,
      "ĠSegmentTree": 4721,
      "Ġwarning": 4722,
      "æķ°": 4723,
      "Dmitr": 4724,
      "JHelper": 4725,
      "Ġstre": 4726,
      "Ġimag": 4727,
      "Ġpu": 4728,
      "ous": 4729,
      "forward": 4730,
      "ĊĊĊĠĠĠĠĠĠĠ": 4731,
      "short": 4732,
      "ĠJHelper": 4733,
      "eyDmitr": 4734,
      "AlexeyDmitr": 4735,
      "AlexeyDmitriev": 4736,
      "templ": 4737,
      "Ġlt": 4738,
      "Ġdf": 4739,
      "Ġjoin": 4740,
      "Ġ'_": 4741,
      "ĠPOW": 4742,
      "ĠDi": 4743,
      "////////////": 4744,
      "à¦°": 4745,
      "5477": 4746,
      ")>::": 4747,
      ")<=(": 4748,
      "Word": 4749,
      "dg": 4750,
      "pat": 4751,
      "Ġmu": 4752,
      "ĠTo": 4753,
      "cand": 4754,
      "ĠApply": 4755,
      "ĠSeg": 4756,
      "ather": 4757,
      "180": 4758,
      "Ġ1000001": 4759,
      "Inv": 4760,
      "â¡Ħ": 4761,
      "Ġfinish": 4762,
      "FT": 4763,
      "PR": 4764,
      "bg": 4765,
      "Ġmsi": 4766,
      "Ġpv": 4767,
      "Ġphi": 4768,
      "ache": 4769,
      "Ġstore": 4770,
      "ĠVL": 4771,
      "âĸĴâĸĦ": 4772,
      "2010": 4773,
      "5807": 4774,
      "cccc": 4775,
      "ModInt": 4776,
      "digits": 4777,
      "expo": 4778,
      "iiiiiiii": 4779,
      "$$$$": 4780,
      "Ð¾Ð": 4781,
      "Ġrelax": 4782,
      "Flow": 4783,
      "Timer": 4784,
      "overflow": 4785,
      "Ġfe": 4786,
      "ĠnC": 4787,
      "leaf": 4788,
      "0000000000000000": 4789,
      "_______": 4790,
      "fff": 4791,
      "22337": 4792,
      "pts": 4793,
      "Ġpointer": 4794,
      "Ġinitial": 4795,
      "Ġdoes": 4796,
      "ANS": 4797,
      "]>='": 4798,
      "Ġhello": 4799,
      "ĊĠĠĠĠĠĠĠĠĠĠĠĠĠĠĠĠĠĠĠĠĠĠĠĠĠĠĠĠĠĠĠĠĠĠĠĠĠĠĠĠĠĠĠĠĠĠĠĠĉ": 4800,
      "685477": 4801,
      "Ġ'*')": 4802,
      "203685477": 4803,
      "22337203685477": 4804,
      "Root": 4805,
      "ĠĊĉĉĉ": 4806,
      "Ġrrep": 4807,
      "ĠmodPow": 4808,
      "ilon": 4809,
      "Ġbitset": 4810,
      "Ġspeed": 4811,
      "ĠskipWhitespace": 4812,
      "Part": 4813,
      "cstd": 4814,
      "Ġlinf": 4815,
      "--.": 4816,
      "isWhitespace": 4817,
      "Ġ5000": 4818,
      "Ġepsilon": 4819,
      "â¡Ī": 4820,
      "Ġunite": 4821,
      "values": 4822,
      "..................................": 4823,
      ":.....": 4824,
      "KWWWWWW": 4825,
      "LGGGDDDDDDDDDDDD": 4826,
      "half": 4827,
      "lin": 4828,
      "Ġfp": 4829,
      "Ġpnt": 4830,
      "Ġxr": 4831,
      "Ġrit": 4832,
      "WWKKKK": 4833,
      "LLGGDDDDDDDDDDD": 4834,
      "EEEED": 4835,
      "Ġitn": 4836,
      "uler": 4837,
      "DDDDDD": 4838,
      "KKKKKKKKKKK": 4839,
      "ĠUB": 4840,
      "solver": 4841,
      ";;;;;;;;;;;;;;;;": 4842,
      "WWWWWWWKKKKK": 4843,
      "..........................": 4844,
      "Than": 4845,
      "DataEnd": 4846,
      "each": 4847,
      "ired": 4848,
      "è¿": 4849,
      "Ġ************************": 4850,
      "Ġpfl": 4851,
      "Ġsrc": 4852,
      "Ġ\"?": 4853,
      "Ġway": 4854,
      "ĠRI": 4855,
      "ĠINFLL": 4856,
      "Ġrepi": 4857,
      "âłĪ": 4858,
      "Ġnothing": 4859,
      "brur": 4860,
      "product": 4861,
      "223372036854775807": 4862,
      "Fraction": 4863,
      "LONG": 4864,
      "cat": 4865,
      "hull": 4866,
      "wick": 4867,
      "Ġbi": 4868,
      "Ġ24": 4869,
      "Ġumax": 4870,
      "quest": 4871,
      "thing": 4872,
      "Ġ1005": 4873,
      "disable": 4874,
      "Ġimie": 4875,
      "94": 4876,
      "HT": 4877,
      "qry": 4878,
      "source": 4879,
      "eni": 4880,
      "atan": 4881,
      "iful": 4882,
      "ĠTEMPORARY": 4883,
      "Ġ|\\": 4884,
      "ĠCheck": 4885,
      "ĠLLD": 4886,
      "oney": 4887,
      "Ġsmallest": 4888,
      "TH": 4889,
      "ule": 4890,
      "Ġfil": 4891,
      "clr": 4892,
      "cles": 4893,
      "Ġturn": 4894,
      "spl": 4895,
      "Ġgg": 4896,
      "ĊĠĠĉĉ": 4897,
      "âĸĳâĸĳâĸĮ": 4898,
      "Ġ100000000000000000": 4899,
      "------------------------------": 4900,
      "\"<<__": 4901,
      "ĠscanI": 4902,
      "ĠscanL": 4903,
      "Ġsubm": 4904,
      "ITE": 4905,
      "numbers": 4906,
      "ï»¿#": 4907,
      "3000": 4908,
      "DS": 4909,
      "OM": 4910,
      "POW": 4911,
      "bte": 4912,
      "ream": 4913,
      "Ġ28": 4914,
      "unused": 4915,
      "123456": 4916,
      "âłģ": 4917,
      "rightChild": 4918,
      "ants": 4919,
      "versity": 4920,
      "ĠCommon": 4921,
      ",*": 4922,
      ";_": 4923,
      "={": 4924,
      "Stop": 4925,
      "_##": 4926,
      "za": 4927,
      "Ġ.....": 4928,
      "Ġ<(": 4929,
      "ĠtStart": 4930,
      "Ġyn": 4931,
      "Ġwatch": 4932,
      "ODO": 4933,
      "Ġstm": 4934,
      "Ġ#\"": 4935,
      "MMMMMM": 4936,
      "Ġ\\/": 4937,
      "FFER": 4938,
      "\"+": 4939,
      "lx": 4940,
      "idth": 4941,
      "ĠTr": 4942,
      "Ġuli": 4943,
      "trans": 4944,
      "Ġgetint": 4945,
      "ĠreadArray": 4946,
      "\"\"\"\"": 4947,
      "EOF": 4948,
      "Sort": 4949,
      "zi": 4950,
      "dev": 4951,
      "Ġapp": 4952,
      "Ġson": 4953,
      "ings": 4954,
      "****/": 4955,
      "000001": 4956,
      "tiTest": 4957,
      "])/": 4958,
      "minn": 4959,
      "Ġisin": 4960,
      "Impl": 4961,
      "Ġshared": 4962,
      "\"){": 4963,
      "300000": 4964,
      "_[": 4965,
      "fc": 4966,
      "sv": 4967,
      "turn": 4968,
      "Ġort": 4969,
      "Ġvr": 4970,
      "Ġumap": 4971,
      "ĠLcm": 4972,
      "ĠBin": 4973,
      "ĠFORR": 4974,
      "Ġexplicit": 4975,
      "leftChild": 4976,
      "Ġpowm": 4977,
      "PPL": 4978,
      "Graph": 4979,
      "fre": 4980,
      "ored": 4981,
      "ä»": 4982,
      "Ġ##": 4983,
      "reader": 4984,
      "Ġlin": 4985,
      "ita": 4986,
      "cket": 4987,
      "lip": 4988,
      "Ġvvii": 4989,
      "tern": 4990,
      "Ġdigits": 4991,
      "Team": 4992,
      "dst": 4993,
      "fen": 4994,
      "jump": 4995,
      "rat": 4996,
      "Ġ{\"": 4997,
      "Ġfun": 4998,
      "Ġbx": 4999,
      "===": 5000,
      "Ġ200010": 5001,
      "Ġumin": 5002,
      "Ġ_.": 5003,
      "valarray": 5004,
      "pdd": 5005,
      "Ġbitmaxl": 5006,
      "Ġcoef": 5007,
      "&(-": 5008,
      ")]);": 5009,
      "]++,": 5010,
      "hat": 5011,
      "den": 5012,
      "rection": 5013,
      "ĊĉĉĠ": 5014,
      "Ġllu": 5015,
      "opcr": 5016,
      "ĠAR": 5017,
      "Ġmaximum": 5018,
      "Ġlowbit": 5019,
      "aves": 5020,
      "ĠMXN": 5021,
      "LIB": 5022,
      "ĠEndl": 5023,
      "ï¼ģï¼ģ": 5024,
      "opcrof": 5025,
      ")>(": 5026,
      "Circle": 5027,
      "Map": 5028,
      "sCount": 5029,
      "sdbg": 5030,
      "++]);": 5031,
      "ĠTODO": 5032,
      "osite": 5033,
      "chain": 5034,
      "Ġqueries": 5035,
      "1011": 5036,
      "Ġtry": 5037,
      "321": 5038,
      "----------------------------------------": 5039,
      "ĠwriteChar": 5040,
      "Ġpts": 5041,
      "33333333": 5042,
      ")^": 5043,
      "Ki": 5044,
      "Monoid": 5045,
      "nValue": 5046,
      "ĊĠĊĠĠĠĠĠĠĠ": 5047,
      "Ġ'||": 5048,
      "ĠPL": 5049,
      "__________": 5050,
      "(_,": 5051,
      "shuffle": 5052,
      "initial": 5053,
      "Ġextgcd": 5054,
      "255": 5055,
      "cas": 5056,
      "dle": 5057,
      "so": 5058,
      "Ð¡": 5059,
      "ĠDD": 5060,
      "detail": 5061,
      "Ġwant": 5062,
      "Ġgl": 5063,
      "ĠRead": 5064,
      "ĠLG": 5065,
      "ĠDL": 5066,
      "ĠtoInt": 5067,
      "timer": 5068,
      "getnum": 5069,
      "avy": 5070,
      "REC": 5071,
      "Search": 5072,
      ";,": 5073,
      "AK": 5074,
      "fvalc": 5075,
      "qs": 5076,
      "vt": 5077,
      "ĉĠ": 5078,
      "ĊĠĠĠĊĠĠĠ": 5079,
      "Ġtx": 5080,
      "ĠPA": 5081,
      "ĠData": 5082,
      "ĠIF": 5083,
      "\"<<#": 5084,
      "ĠreadImpl": 5085,
      "sorted": 5086,
      "Ġcompute": 5087,
      "â¡·": 5088,
      "ĠinitArrays": 5089,
      "Ġfactd": 5090,
      "ĠInputIter": 5091,
      "......:": 5092,
      "Ġbuffer": 5093,
      "Bits": 5094,
      "bute": 5095,
      "dj": 5096,
      "}]": 5097,
      "å°": 5098,
      "denom": 5099,
      "Ġcos": 5100,
      "()%": 5101,
      "()];": 5102,
      "Ġ201": 5103,
      "102": 5104,
      "ĠPRO": 5105,
      "Ġthere": 5106,
      "ERE": 5107,
      "Ġroots": 5108,
      "******/": 5109,
      "raw": 5110,
      "jkl": 5111,
      "ĠUni": 5112,
      ":;": 5113,
      ":\\\\": 5114,
      "Debug": 5115,
      "kik": 5116,
      "npos": 5117,
      "Ġph": 5118,
      "Ġintersect": 5119,
      "Ġvt": 5120,
      "Ġtab": 5121,
      "Ġdl": 5122,
      "Ġdays": 5123,
      "__|": 5124,
      "Ġrx": 5125,
      "Ġcontainer": 5126,
      "adius": 5127,
      "Ġtoo": 5128,
      "150": 5129,
      "Ġnums": 5130,
      "ĠArr": 5131,
      "Ġmulmod": 5132,
      "Ġ(\".": 5133,
      "â¡Ģ": 5134,
      "à¦¨": 5135,
      "tical": 5136,
      "ĠUniversity": 5137,
      "kikaze": 5138,
      "'ll": 5139,
      ":%": 5140,
      "WIN": 5141,
      "Ġmore": 5142,
      "ses": 5143,
      "Ġ&);": 5144,
      "ĊĠĠĠĠĠĠĠĠĠĠĠĠĠĠĠĠĠĠĠĠĠĠĠĠĠ": 5145,
      "ntime": 5146,
      "ĠField": 5147,
      "ism": 5148,
      "uniform": 5149,
      ">=_": 5150,
      "Ġposition": 5151,
      "policies": 5152,
      "ĠPrints": 5153,
      "ä¸Ģ": 5154,
      "At": 5155,
      "GD": 5156,
      "OK": 5157,
      "OS": 5158,
      "mer": 5159,
      "tw": 5160,
      "tsc": 5161,
      "Ġign": 5162,
      "001": 5163,
      "Ġpairs": 5164,
      "ĠLS": 5165,
      "100500": 5166,
      "ĠInit": 5167,
      "IOS": 5168,
      "âĸĮâĸĮ": 5169,
      "âĸĳâĸĳâĸĳâĸĳâĸĳâĸĳâĸĳâĸĳâĸĳâĸĳâĸĳâĸĳâĸĳâĸĳâĸĳâĸĳ": 5170,
      "1111111111111111": 5171,
      "\"))": 5172,
      "');}": 5173,
      "Lazy": 5174,
      "Name": 5175,
      "mr": 5176,
      "wb": 5177,
      "{{": 5178,
      "Ġnu": 5179,
      "Ġ2147483647": 5180,
      "Ġqry": 5181,
      "âĸĪâĸĪâĸĪâĸĪâĸĪâĸĪâĸĪ": 5182,
      "ismillah": 5183,
      ")--)": 5184,
      "Ext": 5185,
      "Or": 5186,
      "ib": 5187,
      "Ø±": 5188,
      "åĪ": 5189,
      "delim": 5190,
      "ĊĉĊĉĊ": 5191,
      "eractive": 5192,
      "Ġrv": 5193,
      "Ġprin": 5194,
      "Ġocc": 5195,
      "...(": 5196,
      "ĠLONG": 5197,
      "ĠCount": 5198,
      ";;;;;;;;;": 5199,
      "Ġnegative": 5200,
      "'re": 5201,
      "Be": 5202,
      "Oper": 5203,
      "self": 5204,
      "Ġputi": 5205,
      "uration": 5206,
      "Ġinteger": 5207,
      "Ġ\"=": 5208,
      "amp": 5209,
      "Ġmag": 5210,
      "Ġrotate": 5211,
      "Ġ'{": 5212,
      "ĠFA": 5213,
      "ĠDA": 5214,
      "present": 5215,
      "ĠVV": 5216,
      "OUTC": 5217,
      "decay": 5218,
      "ĠCOMP": 5219,
      "78": 5220,
      "EX": 5221,
      "Par": 5222,
      "Un": 5223,
      "nmax": 5224,
      "qrt": 5225,
      "Ġfio": 5226,
      "ĠMove": 5227,
      "asdf": 5228,
      "<<\"{": 5229,
      "prop": 5230,
      "ĠFJ": 5231,
      "iss": 5232,
      "Ġdelete": 5233,
      "Ġclz": 5234,
      "Ġinfll": 5235,
      "aaa": 5236,
      "Ġï¿½ï¿½ï¿½ï¿½ï¿½ï¿½ï¿½ï¿½ï¿½ï¿½": 5237,
      "ĠUnique": 5238,
      "Ġshortest": 5239,
      "Operation": 5240,
      ")||(": 5241,
      "CL": 5242,
      "Seg": 5243,
      "sha": 5244,
      "wd": 5245,
      "ĊĉĠĠĠĠĠĠĠĠĠĠĠ": 5246,
      "Ġ*_": 5247,
      "align": 5248,
      "Ġrn": 5249,
      "])*(": 5250,
      "â£§": 5251,
      "ĠPER": 5252,
      "Ġhel": 5253,
      "Ġ33": 5254,
      "Ġstderr": 5255,
      "ĠCh": 5256,
      "ĠĠĠĠĠĠĠĠĠĠĠĠĠĠĠĠĠĠĠĠĠĠĠĠĠĠĠĠĠĠĠĠĠĠĠĠĠĠĠĠĠĠ": 5257,
      "205": 5258,
      "ngine": 5259,
      "111111": 5260,
      "GCD": 5261,
      "ciful": 5262,
      "ks": 5263,
      "large": 5264,
      "nv": 5265,
      "Ġpss": 5266,
      "forgeeks": 5267,
      "Ġyyy": 5268,
      "Ġword": 5269,
      "ĠFord": 5270,
      "++--++": 5271,
      "âĸĳâĸĳâĸĳâĸĳâĸĳâĸĳâĸĳ": 5272,
      "divs": 5273,
      "___(": 5274,
      "cyc": 5275,
      "à§į": 5276,
      "++--++--++--++--++--++--++--++--++--++--++--++--++--++--++--++--++--++--++--++--++--++--++--++--++--++--++--++--++--++--++--++--": 5277,
      "ĠUnion": 5278,
      "Ġ{{{": 5279,
      "ĠSPEED": 5280,
      "writer": 5281,
      "geeksforgeeks": 5282,
      "Ġpoly": 5283,
      "DEPREC": 5284,
      "/************************": 5285,
      "LOCAL": 5286,
      "Query": 5287,
      "ĉĊĉĉ": 5288,
      "ids": 5289,
      "ĠTC": 5290,
      "])==": 5291,
      "condition": 5292,
      "Ġhh": 5293,
      "Ġ300005": 5294,
      "modint": 5295,
      "ĠLCM": 5296,
      "nums": 5297,
      "#########": 5298,
      "Ġviii": 5299,
      "200100": 5300,
      "tribute": 5301,
      "%%%%%%%%": 5302,
      "IGHT": 5303,
      "577": 5304,
      "500000": 5305,
      "ding": 5306,
      "xr": 5307,
      "åĲ": 5308,
      "Ġmf": 5309,
      "Ġsit": 5310,
      "Ġsmax": 5311,
      "attribute": 5312,
      "him": 5313,
      "))-": 5314,
      "<=_": 5315,
      "Ġiss": 5316,
      "occ": 5317,
      "Ġlef": 5318,
      "weight": 5319,
      "ĠLOGN": 5320,
      "Ġdecrease": 5321,
      "ĠMAIN": 5322,
      "[-": 5323,
      "nex": 5324,
      "tem": 5325,
      "__<<\"": 5326,
      "ĠmodInt": 5327,
      "â£¦": 5328,
      "ĠABC": 5329,
      "---------": 5330,
      "aki": 5331,
      "Ġgets": 5332,
      "ĊĠĠĠĠĠĠĊĠĠĠĠĠ": 5333,
      "Ġalpha": 5334,
      "Taken": 5335,
      "WEE": 5336,
      "bakh": 5337,
      "ko": 5338,
      "lag": 5339,
      "nTime": 5340,
      "ĠEE": 5341,
      "ĠĊĠĠĠĠĠĠĠĠĠĠĠĠĠĠĠ": 5342,
      "Ġsome": 5343,
      "Ġifstream": 5344,
      "....,": 5345,
      "Ġconvert": 5346,
      "ĠNU": 5347,
      "ODE": 5348,
      "buw": 5349,
      "trace": 5350,
      "Ġldouble": 5351,
      "ĠOI": 5352,
      "ĠEx": 5353,
      "Ġleaf": 5354,
      "ĠHash": 5355,
      "divis": 5356,
      "Ġ'#')": 5357,
      "Ġ'\"'": 5358,
      "traits": 5359,
      "ĠANS": 5360,
      "'-": 5361,
      "Ei": 5362,
      "EKE": 5363,
      "FR": 5364,
      "Fact": 5365,
      "GE": 5366,
      "GEE": 5367,
      "KD": 5368,
      "WKKKKKKKKKKKKKKKK": 5369,
      "jan": 5370,
      "yb": 5371,
      "ãĤ": 5372,
      "Ġcub": 5373,
      "ĠfDEEEE": 5374,
      "..;": 5375,
      "KKWWW": 5376,
      "Ġrmq": 5377,
      "DDf": 5378,
      "WWWWWKK": 5379,
      "KKKKKKKKKKKK": 5380,
      "ĠstdinBuffer": 5381,
      "EEEEEEEEE": 5382,
      "ostm": 5383,
      "stdinBuffer": 5384,
      "WWWWWWWWKKKKK": 5385,
      "DDDDDDDDDDDDDDDD": 5386,
      "ĊĠĠĠĠĠĠĠĠĠĠĠĠĠĠĠĠĠĠĠĠĠĠĠĠĠĠĠĠĠĠĠĠĠĠĠĠĠĠĠĠĠĠĠĠĉĉ": 5387,
      "KKKKKWWKKKKK": 5388,
      "jjt": 5389,
      "KKKKKKKWKK": 5390,
      "___/": 5391,
      "Ġlike": 5392,
      "Output": 5393,
      "WWWWWWWKKKKKK": 5394,
      "EEEEEEEEEEEEEEE": 5395,
      "WWWWWKKKKK": 5396,
      "LGGDDDDDDDDDDDD": 5397,
      "wardIterator": 5398,
      "problemset": 5399,
      ",,,,,,,;;;;": 5400,
      "Ġ....::::": 5401,
      "tjLLGGDDDDDDDDDDD": 5402,
      ")>>(": 5403,
      ":/": 5404,
      "Gen": 5405,
      "ZERO": 5406,
      "kv": 5407,
      "scc": 5408,
      "Ġ],": 5409,
      "Ġmust": 5410,
      "Ġtv": 5411,
      "Ġindist": 5412,
      "ĠPow": 5413,
      "Ġitem": 5414,
      "...........": 5415,
      "Ġmems": 5416,
      "UTION": 5417,
      "+\".": 5418,
      "/=(": 5419,
      "<>": 5420,
      "rary": 5421,
      ");//": 5422,
      "Ġlson": 5423,
      "Ġrf": 5424,
      "Ġrson": 5425,
      "))&": 5426,
      "ĠFL": 5427,
      "ING": 5428,
      "Ġsteps": 5429,
      "modify": 5430,
      "â¢¾": 5431,
      "sieve": 5432,
      "Ġinvfact": 5433,
      "Ġvertices": 5434,
      "hoge": 5435,
      "ĠMEMS": 5436,
      "Ġdivisor": 5437,
      "Gcd": 5438,
      "Square": 5439,
      "TY": 5440,
      "fu": 5441,
      "ph": 5442,
      "inic": 5443,
      "Ġmrand": 5444,
      "Ġpot": 5445,
      "Ġvit": 5446,
      "ird": 5447,
      "Ġjump": 5448,
      "Ġ==>": 5449,
      "...................": 5450,
      "]={};": 5451,
      "msg": 5452,
      "ĠFIX": 5453,
      "AAAA": 5454,
      "iq": 5455,
      "mb": 5456,
      "yk": 5457,
      "Ùĳ": 5458,
      "Ġpsum": 5459,
      "sets": 5460,
      "prim": 5461,
      "ĠNN": 5462,
      "lose": 5463,
      "times": 5464,
      ":.:.": 5465,
      "Ġelif": 5466,
      "Project": 5467,
      "AZ": 5468,
      "Dice": 5469,
      "IS": 5470,
      "cos": 5471,
      "centroid": 5472,
      "jud": 5473,
      "Ġnax": 5474,
      "Ġba": 5475,
      "cont": 5476,
      "ends": 5477,
      "utu": 5478,
      "ĠMul": 5479,
      "ĠMDL": 5480,
      "Ġprocess": 5481,
      "ĠNum": 5482,
      "Ġmaximize": 5483,
      "Ġminimize": 5484,
      "ĠRand": 5485,
      "};///": 5486,
      ".................": 5487,
      "flg": 5488,
      "]=='#": 5489,
      "points": 5490,
      "pointer": 5491,
      "ĠcrossOper": 5492,
      "Ġhelp": 5493,
      "459": 5494,
      "Cost": 5495,
      "List": 5496,
      "`.": 5497,
      "Ġlcp": 5498,
      "Ġvx": 5499,
      "osition": 5500,
      "Ġinside": 5501,
      "Ġseive": 5502,
      "ĠVP": 5503,
      "2020": 5504,
      "ĠUNI": 5505,
      "Ġangle": 5506,
      "Ġmagic": 5507,
      "AY": 5508,
      "fmt": 5509,
      "Ùħ": 5510,
      "inside": 5511,
      "stdex": 5512,
      "Ġ\"+": 5513,
      "pri": 5514,
      "ĠNo": 5515,
      "â£ł": 5516,
      "//////": 5517,
      "ĠBit": 5518,
      "Ġneeded": 5519,
      "abel": 5520,
      "501": 5521,
      "à¦Ł": 5522,
      "Ġuniform": 5523,
      "LIM": 5524,
      "ĠBinary": 5525,
      "stdexcept": 5526,
      "-';": 5527,
      "?')": 5528,
      "Buf": 5529,
      "Ch": 5530,
      "Cy": 5531,
      "rig": 5532,
      "}),": 5533,
      "ĊĊĠĠĠĠĠĠĠĠĠĠĠĠĠĠĠĠĠĠĠ": 5534,
      "Ġil": 5535,
      "Ġato": 5536,
      "oups": 5537,
      "Ġrecur": 5538,
      "))==": 5539,
      "ĠMN": 5540,
      "Ġqpow": 5541,
      "127": 5542,
      "Ġgoal": 5543,
      "basic": 5544,
      "<<\")\";": 5545,
      "tKarp": 5546,
      "opcroftKarp": 5547,
      ")]=": 5548,
      "rotate": 5549,
      "ze": 5550,
      "Ġiend": 5551,
      "Ġcu": 5552,
      "Ġnex": 5553,
      "Ġsafe": 5554,
      "Ġintersection": 5555,
      "cluding": 5556,
      "Ġvy": 5557,
      "Ġdst": 5558,
      "lef": 5559,
      "Ġprln": 5560,
      "ched": 5561,
      "Ġhull": 5562,
      "Ġdeep": 5563,
      "Ġldbl": 5564,
      "ĠINFL": 5565,
      "\"<<(": 5566,
      "ĠaddEdge": 5567,
      "Ġshahidul": 5568,
      "Ġunz": 5569,
      "ĊĠĠĠĠĠĠĠĠĠĠĠĠĠĠĠĠĊĠĠĠĠĠĠĠĠĠĠĠĠĠĠĠ": 5570,
      "floatfield": 5571,
      "ĠProblem": 5572,
      "'])": 5573,
      "PRE": 5574,
      "ault": 5575,
      "dat": 5576,
      "ful": 5577,
      "full": 5578,
      "part": 5579,
      "Ġ}}}": 5580,
      "--(": 5581,
      "---'": 5582,
      "Ġbc": 5583,
      "lease": 5584,
      "Ġ&,": 5585,
      "Ġrepp": 5586,
      "Ġ////": 5587,
      "vex": 5588,
      "ĠDF": 5589,
      "ART": 5590,
      "Ġposs": 5591,
      "Ġextra": 5592,
      "ween": 5593,
      "ĠIterator": 5594,
      ";*/": 5595,
      "??": 5596,
      "With": 5597,
      "nep": 5598,
      "ox": 5599,
      "§ÙĦ": 5600,
      "ĊĊĠĠĠĠĠĠ": 5601,
      "Ġfree": 5602,
      "Ġbas": 5603,
      "Ġrfile": 5604,
      "Ġwfile": 5605,
      "Ġprnt": 5606,
      "(),::": 5607,
      "ĠLCA": 5608,
      "Ġmpow": 5609,
      "Ġ\",\"": 5610,
      "âĸĢâĸĴ": 5611,
      "('-'": 5612,
      "ĠIncluding": 5613,
      "IIII": 5614,
      "multiprecision": 5615,
      "ĠØ§ÙĦ": 5616,
      "Li": 5617,
      "]};": 5618,
      "dump": 5619,
      "foo": 5620,
      "task": 5621,
      "Ġsr": 5622,
      "Ġsay": 5623,
      "Ġten": 5624,
      "ĊĠĠĠĠĠĠĠĠĠĠĠĠĠĠĠĠĠĠĠĠĠĠĠĠ": 5625,
      "Ġww": 5626,
      "ĠĠĠĠĠĠĠĠĠĠĠĠĠĠĠĠĠĠĠĠĠĠĠĠĠĠĠ": 5627,
      "Ġprl": 5628,
      "edg": 5629,
      "INPUT": 5630,
      "ĠOK": 5631,
      "Ġfib": 5632,
      "ĠQuery": 5633,
      "writeChar": 5634,
      "....................................": 5635,
      "iiiiii": 5636,
      "âķĲâķĿ": 5637,
      "('-'),": 5638,
      "\"};": 5639,
      "xD": 5640,
      "Ġfread": 5641,
      "//--------------------------------": 5642,
      "forr": 5643,
      "ĊĉĉĉĊĉ": 5644,
      "che": 5645,
      "(),\"": 5646,
      "â£Ģ": 5647,
      "ĠSc": 5648,
      "Ġgetbit": 5649,
      "Ġallr": 5650,
      "âķļ": 5651,
      "198": 5652,
      "/****************************************": 5653,
      "target": 5654,
      "95": 5655,
      "FAST": 5656,
      "_^": 5657,
      "aei": 5658,
      "queries": 5659,
      "xc": 5660,
      "~(": 5661,
      "ĠYES": 5662,
      "Ġmost": 5663,
      "Ġsmin": 5664,
      "Ġtd": 5665,
      "Ġes": 5666,
      "anges": 5667,
      "ĠSOL": 5668,
      "estor": 5669,
      "ĠgcdExt": 5670,
      "yyo": 5671,
      "ByOne": 5672,
      "ĠdecreaseByOne": 5673,
      "#.": 5674,
      "Code": 5675,
      "Lower": 5676,
      "Sp": 5677,
      "lcm": 5678,
      "Ã¥": 5679,
      "Ġmstream": 5680,
      "Ġ},": 5681,
      "Ġgive": 5682,
      "ĠAbs": 5683,
      "âĸĳâĸĲ": 5684,
      "ĠIS": 5685,
      "functions": 5686,
      "Ġsubtree": 5687,
      "ĊĠĠĠĠĠĠĠĠĠĠĠĠĠĠĠĠĉ": 5688,
      "rgt": 5689,
      "izations": 5690,
      "Ġ'\"';": 5691,
      "btempl": 5692,
      "ahmanir": 5693,
      "NC": 5694,
      "fLL": 5695,
      "lr": 5696,
      "sb": 5697,
      "tb": 5698,
      "Ġ<<'\\": 5699,
      "ĠRAND": 5700,
      "ĠDOU": 5701,
      "ĠreadDouble": 5702,
      "Ġcommon": 5703,
      "Ġprints": 5704,
      "Ġchildren": 5705,
      "ä¸ª": 5706,
      "Ġdivide": 5707,
      "ĠDOUBLE": 5708,
      ")],": 5709,
      "Two": 5710,
      "where": 5711,
      "Ġpass": 5712,
      "Ġboth": 5713,
      "ife": 5714,
      "Ġuset": 5715,
      "Ġrepe": 5716,
      "Ġmapa": 5717,
      "Ġvvvi": 5718,
      "2001": 5719,
      "Ð°Ð": 5720,
      "Ġcombine": 5721,
      "work": 5722,
      "Replace": 5723,
      "4996": 5724,
      "ĠArray": 5725,
      ")||": 5726,
      ",{": 5727,
      "sn": 5728,
      "Ġent": 5729,
      "Ġbut": 5730,
      "Ġanss": 5731,
      "ĠFargs": 5732,
      "ĠLe": 5733,
      "ĠLLINF": 5734,
      "addEdge": 5735,
      "Ġcomponent": 5736,
      "âĸĲâĸĳâĸĳâĸĳ": 5737,
      "program": 5738,
      "Short": 5739,
      "modulo": 5740,
      "Ġ'+')": 5741,
      "ismillahir": 5742,
      "'),": 5743,
      "On": 5744,
      "ake": 5745,
      "fb": 5746,
      "uy": 5747,
      "ï¹": 5748,
      "007": 5749,
      "//++--++--++--++--++--++--++--++--++--++--++--++--++--++--++--++--++--++--++--++--++--++--++--++--++--++--++--++--++--++--++--++--": 5750,
      "ĠTASK": 5751,
      "Ġ'/": 5752,
      "ĠAkikaze": 5753,
      "ĠSF": 5754,
      "â£¿â£¿â£·": 5755,
      "++--++--++--++": 5756,
      "Ġaddmod": 5757,
      "â¢¯": 5758,
      "++--++--++--++--++--++--++--++": 5759,
      "5010": 5760,
      "Ġdirection": 5761,
      "ĠcountBits": 5762,
      "readInt": 5763,
      "Ġpopcnt": 5764,
      "++--++--++--++--++--++--++--++--++--++--++--++--++--++--++--++": 5765,
      "â£¿â£½": 5766,
      "â£¿â£Ĩ": 5767,
      "ĠForwardIterator": 5768,
      "clzll": 5769,
      "rdv": 5770,
      "efine": 5771,
      "Ġscll": 5772,
      "â£Ĩâł¹": 5773,
      "âłīâłī": 5774,
      "Ġignored": 5775,
      "//++--++--++--++--++--++--++--++--++--++--++--++--++--++--++--++--++--++--++--++--++--++--++--++--++--++--++--++--++--++--++--++--++--++--++--++--++--++--++--++--++--++--++--++--++--++--++--++": 5776,
      ")<<(": 5777,
      "UR": 5778,
      "Upper": 5779,
      "`,,": 5780,
      "ause": 5781,
      "srt": 5782,
      "inite": 5783,
      "intersect": 5784,
      "seed": 5785,
      "Ġnm": 5786,
      "Ġsfi": 5787,
      "Ġfort": 5788,
      "__,_": 5789,
      "Ġgt": 5790,
      "ĠSC": 5791,
      "Ġits": 5792,
      "possible": 5793,
      "Ġisdigit": 5794,
      "compute": 5795,
      "ĠHeap": 5796,
      "Ġprintarray": 5797,
      "werty": 5798,
      "Ġalgorithm": 5799,
      "256000000": 5800,
      "71828": 5801,
      "De": 5802,
      "bot": 5803,
      "duration": 5804,
      "fup": 5805,
      "åı": 5806,
      "Ġko": 5807,
      "ĠNot": 5808,
      "Ġ|/": 5809,
      "uli": 5810,
      "Ġpbds": 5811,
      "200200": 5812,
      "âĸĴâĸĴâĸĴâĸĴâĸĴ": 5813,
      "ThxD": 5814,
      "ĠNumberIterator": 5815,
      "MSC": 5816,
      "wiki": 5817,
      "DEPRECATE": 5818,
      "ĠFIXED": 5819,
      "ThxDem": 5820,
      "Dig": 5821,
      "Vowel": 5822,
      "pn": 5823,
      "sr": 5824,
      "ÐĶ": 5825,
      "å¤": 5826,
      "rege": 5827,
      "Ġcpp": 5828,
      "Ġpull": 5829,
      "ĠType": 5830,
      "Ġeuclide": 5831,
      "Ġred": 5832,
      "ĠRed": 5833,
      "Ġ#%": 5834,
      "Ġ1010": 5835,
      "ĠVEC": 5836,
      "ĠON": 5837,
      "Ġ1000010": 5838,
      "Ġdbgs": 5839,
      "place": 5840,
      "***************": 5841,
      "FFFFFFFF": 5842,
      "questions": 5843,
      "sCounter": 5844,
      "regex": 5845,
      "215": 5846,
      "BR": 5847,
      "Diff": 5848,
      "cal": 5849,
      "rv": 5850,
      "rea": 5851,
      "Ġai": 5852,
      "Ġnj": 5853,
      "Ġremax": 5854,
      "Ġ|__": 5855,
      "...,": 5856,
      "Ġstarts": 5857,
      "Ġindx": 5858,
      "âĸĳâĸĳâĸĳâĸĳâĸĳâĸĲ": 5859,
      "ĠENDL": 5860,
      "<<\"]\";": 5861,
      "################################################################################################################": 5862,
      ")>=(": 5863,
      "91": 5864,
      "96": 5865,
      "MI": 5866,
      "äº": 5867,
      "inator": 5868,
      "Ġbt": 5869,
      "Ġreturns": 5870,
      "izer": 5871,
      "ĠTask": 5872,
      "â£Ħ": 5873,
      "()):": 5874,
      "Ġhs": 5875,
      "ĠtoString": 5876,
      "]-(": 5877,
      "/*!": 5878,
      "ĊĠĠĠĠĠĠĠĠĠĠĠĠĠĠĠĠĠĠĠĠĠĠĠĠĠĠĠĠĠĠ": 5879,
      "+=((": 5880,
      "Ġindexed": 5881,
      "Ġalways": 5882,
      "âĸĪâĸĪâķĹ": 5883,
      "Ġreference": 5884,
      "ĠFastRead": 5885,
      "Ð¡Ð": 5886,
      "Fast": 5887,
      "Less": 5888,
      "tor": 5889,
      "uc": 5890,
      "udge": 5891,
      "ĠâĢ": 5892,
      "()/": 5893,
      "__((": 5894,
      "Ġ':": 5895,
      "ĠMM": 5896,
      "imie": 5897,
      "ĠDSU": 5898,
      "Ġzip": 5899,
      "Ġsearch": 5900,
      "1000010": 5901,
      "Ġfaster": 5902,
      "1415926536": 5903,
      "555": 5904,
      "Ġbitnum": 5905,
      "Ġonbit": 5906,
      "Ġdisc": 5907,
      "TTY": 5908,
      "ittle": 5909,
      "Ġreflect": 5910,
      "âłĽâłĽ": 5911,
      "ĠBUFFER": 5912,
      "device": 5913,
      "Ġ'{';": 5914,
      "PRETTY": 5915,
      "\":": 5916,
      "'-'": 5917,
      ")])": 5918,
      "033": 5919,
      "300010": 5920,
      "ghi": 5921,
      "ji": 5922,
      "oa": 5923,
      "pe": 5924,
      "wh": 5925,
      "wy": 5926,
      "()!=": 5927,
      "Ġvout": 5928,
      "connect": 5929,
      "Ġknow": 5930,
      "ĠMap": 5931,
      "Ġmodpow": 5932,
      "erations": 5933,
      "ĠAND": 5934,
      "Ġsee": 5935,
      "ĠsetIn": 5936,
      "ĠsetOut": 5937,
      "Ġ47": 5938,
      "ĠreadN": 5939,
      "Ġofstream": 5940,
      "Ġbitcount": 5941,
      "1693": 5942,
      "Ġmyrand": 5943,
      "Ġ<<\"\\": 5944,
      "ĠStart": 5945,
      "':'": 5946,
      "xyz": 5947,
      "abcdef": 5948,
      "600": 5949,
      "If": 5950,
      "LES": 5951,
      "dt": 5952,
      "ftree": 5953,
      "falign": 5954,
      "iG": 5955,
      "vf": 5956,
      "dedge": 5957,
      "orig": 5958,
      "Ġpqueue": 5959,
      "Ġplace": 5960,
      "__),": 5961,
      "Ġrll": 5962,
      "Ġya": 5963,
      "asd": 5964,
      "...*/": 5965,
      "unite": 5966,
      "fsched": 5967,
      "Ġzz": 5968,
      "9937": 5969,
      "/*...": 5970,
      "tab": 5971,
      "==========": 5972,
      "({-": 5973,
      "Ġbefore": 5974,
      "Stack": 5975,
      "finish": 5976,
      "Complex": 5977,
      "Ġstackoverflow": 5978,
      "1024000000": 5979,
      "ĠTimerStart": 5980,
      "Ã¥Ã": 5981,
      "03": 5982,
      "BG": 5983,
      "LANG": 5984,
      "MA": 5985,
      "NT": 5986,
      "]--,": 5987,
      "tut": 5988,
      "ual": 5989,
      "Ġ997": 5990,
      "Ġiceil": 5991,
      "Ġfpow": 5992,
      "Ġpsi": 5993,
      "Ġjust": 5994,
      "Ġrsz": 5995,
      "))+": 5996,
      "107": 5997,
      "ĠGNU": 5998,
      "Ġfraction": 5999,
      "201": 6000,
      "âłĩ": 6001,
      "307": 6002,
      "Ġexpo": 6003,
      "Ġoffset": 6004,
      "qrst": 6005,
      "[_]": 6006,
      "plusplus": 6007,
      "1415926535897932384626433832795028841971693": 6008,
      "Nmax": 6009,
      "Rest": 6010,
      "wxyz": 6011,
      "Ð£": 6012,
      "åĩ": 6013,
      "det": 6014,
      "-->": 6015,
      "Ġifndef": 6016,
      "opqrst": 6017,
      "Ġyo": 6018,
      "eratorMonoid": 6019,
      "Ġhor": 6020,
      "ĠCASE": 6021,
      "Ġ101": 6022,
      "mnopqrst": 6023,
      "READ": 6024,
      "//*//*//*//*": 6025,
      "]=='*')": 6026,
      "uvwxyz": 6027,
      "jklmnopqrst": 6028,
      "ghijklmnopqrst": 6029,
      "abcdefghijklmnopqrst": 6030,
      "!\\": 6031,
      "'==": 6032,
      "Down": 6033,
      "fout": 6034,
      "istringstream": 6035,
      "Ġlr": 6036,
      "Ġnil": 6037,
      "Ġbar": 6038,
      "acity": 6039,
      "<<((": 6040,
      "Ġxb": 6041,
      "Ġrp": 6042,
      "Ġry": 6043,
      "Ġrequ": 6044,
      "DDi": 6045,
      "eturn": 6046,
      "ĠBR": 6047,
      "Ġ10000000000000000": 6048,
      "....................": 6049,
      "Ġfactors": 6050,
      "ASH": 6051,
      "children": 6052,
      "Ġ(_|": 6053,
      "Ġabc": 6054,
      "âĸĦâĸĢâĸĴâĸĴ": 6055,
      "eighted": 6056,
      "abcdefghijklmnopqrstuvwxyz": 6057,
      ":,": 6058,
      "DEEEEEEEEEEEE": 6059,
      "GWWWKK": 6060,
      "KWW": 6061,
      "KEEEEEEEE": 6062,
      "LGGGG": 6063,
      "WEEEEEEEE": 6064,
      "WEEE": 6065,
      "WKKK": 6066,
      "WKKKKKKK": 6067,
      "lcp": 6068,
      "ood": 6069,
      "tGG": 6070,
      "è¡": 6071,
      "infile": 6072,
      "outfile": 6073,
      "Ġtw": 6074,
      "KKG": 6075,
      "KKi": 6076,
      "Ġrig": 6077,
      "WWEEEEEEEEEEE": 6078,
      "EEL": 6079,
      "EEf": 6080,
      "ĠMp": 6081,
      "DDWWKK": 6082,
      "ĠFRE": 6083,
      "isy": 6084,
      "ĠADD": 6085,
      "Ġot": 6086,
      "EEEEED": 6087,
      "WWWWK": 6088,
      "Ġitos": 6089,
      "Ġ_`": 6090,
      "ĉĉĊ": 6091,
      "trol": 6092,
      "ĠDS": 6093,
      "ESS": 6094,
      "ĠstdinPos": 6095,
      "ĠstdinDataEnd": 6096,
      "EEEEEEEEEK": 6097,
      "ĊĊĊĊĊĊĊ": 6098,
      ",,,,,;": 6099,
      "DGf": 6100,
      "ĊĠĠĠĠĠĠĠĠĠĠĠĠĠĠĠĠĠĠĠĠĠĠĠĠĠĠĠĠĠĠĠĠĠĠĠĠĠĠĠĠĠĠĠĠĊĠĠĠĠĠĠĠĠĠĠĠĠĠĠĠĠĠĠĠĠĠĠĠĠĠĠĠĠĠĠĠĠĠĠĠĠĠĠĠĠĠĠĠ": 6101,
      "EEEWEEEEEEEEEEEE": 6102,
      "KKKWWW": 6103,
      "KKKKKWWWWWWWWW": 6104,
      "KKKKKWKKKKK": 6105,
      "Ġgroup": 6106,
      "MEM": 6107,
      "Ġ...,:": 6108,
      "KKKKKKKKKKKKKKKKKKKKKKKKKK": 6109,
      "KKKKKKKKKKKKKKKKKKKKKKKKKKKKKKK": 6110,
      "])));": 6111,
      ".................................": 6112,
      "__,__": 6113,
      "DDDDDDDDDDDDDDD": 6114,
      "WWWWWWWKKKK": 6115,
      "WWWWWWKKKKK": 6116,
      "ECT": 6117,
      ":::..": 6118,
      "Ġ.:,;": 6119,
      "poz": 6120,
      "DEEEEE": 6121,
      "DEEEEKKKKKKKKKK": 6122,
      ",,,:.": 6123,
      "EEEEEEEEEEEEEEEEE": 6124,
      "ijLGGGDDDDDDDDDDDD": 6125,
      "ĠReversedIntegerRange": 6126,
      "GGGGGGGGGGGGGGGGGGGGGGGG": 6127,
      "EEEEEEDDf": 6128,
      "DEEEKKKKKKKK": 6129,
      "Ġ.:.,:": 6130,
      "ĠIntegerRange": 6131,
      "itfGGGDDDDDDDDDDDD": 6132,
      "Ġ.....:::..": 6133,
      "ĠOImode": 6134,
      "ĠMultiTest": 6135,
      "__,_|": 6136,
      "!(": 6137,
      "bc": 6138,
      "wise": 6139,
      "åĽ": 6140,
      "Ġafor": 6141,
      "Ġmis": 6142,
      "Ġ110": 6143,
      "Ġ180": 6144,
      "Ġ27": 6145,
      ")),(": 6146,
      "------------": 6147,
      "â¢¹": 6148,
      "Ġ987": 6149,
      ")){}};": 6150,
      "ModMatrix": 6151,
      "group": 6152,
      "......................................": 6153,
      "ĠZERO": 6154,
      "ĠFASTIO": 6155,
      ".............................": 6156,
      "ĠÐ¿": 6157,
      "Ġ\"{\"": 6158,
      ")->": 6159,
      "CO": 6160,
      "Greater": 6161,
      "inity": 6162,
      "Ġfwrite": 6163,
      "Ġtask": 6164,
      "opt": 6165,
      "mail": 6166,
      "Ġ227": 6167,
      "pairs": 6168,
      "ĠSort": 6169,
      "ĠIf": 6170,
      "Ġ77": 6171,
      "Ġmxs": 6172,
      "ostate": 6173,
      "blocks": 6174,
      "âĸĪâĸĪâķĶ": 6175,
      "ReversedIntegerRange": 6176,
      "TASKNAME": 6177,
      "'m": 6178,
      "isprime": 6179,
      "Ġmed": 6180,
      "Ġfre": 6181,
      "Ġrot": 6182,
      "oss": 6183,
      "Ġwalk": 6184,
      "ĠMat": 6185,
      "ĠFW": 6186,
      "isalpha": 6187,
      "imal": 6188,
      "ĠSFL": 6189,
      "ĠPFL": 6190,
      "Ġminimum": 6191,
      "ĠRa": 6192,
      "allah": 6193,
      "Ġ400": 6194,
      "Ġfrr": 6195,
      "Ġexist": 6196,
      "Ġadjac": 6197,
      "Ġsegtree": 6198,
      "============================================": 6199,
      "Force": 6200,
      "ÙİÙĳ": 6201,
      "Second": 6202,
      "Ġamount": 6203,
      "9937510": 6204,
      "14159265358979323846264338327950288419716939937510": 6205,
      "Mat": 6206,
      "RITE": 6207,
      "fll": 6208,
      "gi": 6209,
      "land": 6210,
      "¦Ĭ": 6211,
      "Ã®": 6212,
      "ĠĊĊĠĠĠ": 6213,
      "Ġ\";}": 6214,
      "ĊĠĠĠĠĠĠĠĠĠĠĠĠĠĠĠĠĠĠĠĠĠĠĠĠĠĠ": 6215,
      "spf": 6216,
      ">>&": 6217,
      "ates": 6218,
      "Ġminus": 6219,
      "ĠBe": 6220,
      "Ġseeing": 6221,
      "Ġsetbit": 6222,
      ")(__": 6223,
      "except": 6224,
      "parator": 6225,
      "MMMMMMMMM": 6226,
      "ĠnextInt": 6227,
      "ccc": 6228,
      "beki": 6229,
      "posed": 6230,
      "negative": 6231,
      "ðŁ¦Ĭ": 6232,
      "Ġckmax": 6233,
      "Ġ'#'": 6234,
      "Ġ'#';": 6235,
      "]]]]]]]]": 6236,
      "Ġpropagate": 6237,
      "split": 6238,
      "zipped": 6239,
      "initializer": 6240,
      "ĠBinaryOperation": 6241,
      "#.#.": 6242,
      "654": 6243,
      "Not": 6244,
      "PE": 6245,
      "VE": 6246,
      "]?": 6247,
      "chi": 6248,
      "free": 6249,
      "xf": 6250,
      "Ġreach": 6251,
      "setfill": 6252,
      "ĠABS": 6253,
      "Ġ____;": 6254,
      "gets": 6255,
      "ĠreadLong": 6256,
      "]=='(')": 6257,
      "333": 6258,
      "â¢·": 6259,
      "Ġnoexcept": 6260,
      "PowerOf": 6261,
      "â£»â£¿â£¿": 6262,
      "pleTest": 6263,
      "â¡Īâ¢¿": 6264,
      "PowerOfTwo": 6265,
      ")};": 6266,
      "GET": 6267,
      "TEMPORARY": 6268,
      "brr": 6269,
      "copy": 6270,
      "dul": 6271,
      "ua": 6272,
      "xor": 6273,
      "Ġsave": 6274,
      "eral": 6275,
      "Ġdad": 6276,
      "mapa": 6277,
      "());}": 6278,
      "]]>": 6279,
      "Ġtoken": 6280,
      "&&!": 6281,
      "(-(": 6282,
      "uper": 6283,
      "dddd": 6284,
      "-'){": 6285,
      "cale": 6286,
      "â¡¿âł": 6287,
      "Ġmoves": 6288,
      "ĠmultiplyMod": 6289,
      "Ġbetween": 6290,
      "hamdul": 6291,
      "LowerCase": 6292,
      "hamdulillah": 6293,
      "\").": 6294,
      "._": 6295,
      "2000000": 6296,
      "664": 6297,
      "Update": 6298,
      "rl": 6299,
      "und": 6300,
      "xpo": 6301,
      "ĉĠĠ": 6302,
      "Ġlife": 6303,
      "()).": 6304,
      "llong": 6305,
      "Ġremin": 6306,
      "blems": 6307,
      "LLL": 6308,
      "109": 6309,
      "Ġchain": 6310,
      "______": 6311,
      "locale": 6312,
      "___________": 6313,
      "Ġ(\"-": 6314,
      "STR": 6315,
      "Ġpowermat": 6316,
      "[]={+": 6317,
      "Ġsubmod": 6318,
      "ĠMaxN": 6319,
      "6666": 6320,
      "ĠrandomInteger": 6321,
      "12345": 6322,
      "divider": 6323,
      "Ġthrough": 6324,
      "pleTestMode": 6325,
      "END": 6326,
      "File": 6327,
      "ade": 6328,
      "dim": 6329,
      "nik": 6330,
      "rall": 6331,
      "rmq": 6332,
      "sDEB": 6333,
      "Ùı": 6334,
      "Ġinclu": 6335,
      "dent": 6336,
      "--'": 6337,
      "Ġdv": 6338,
      "Ġman": 6339,
      "(\"{": 6340,
      "ĊĠĉĉĉ": 6341,
      "ĠSA": 6342,
      "Ġhalf": 6343,
      "extra": 6344,
      "Ġzet": 6345,
      "]+=(": 6346,
      "Ġassum": 6347,
      "3005": 6348,
      "ĠREAD": 6349,
      "55555555": 6350,
      "Ġblack": 6351,
      "DBN": 6352,
      "merciful": 6353,
      "UpperCase": 6354,
      ".)": 6355,
      "Author": 6356,
      "Pref": 6357,
      "]||": 6358,
      "las": 6359,
      "mix": 6360,
      "inal": 6361,
      "only": 6362,
      "Ġcar": 6363,
      "Ġccc": 6364,
      "item": 6365,
      "Ġbrr": 6366,
      "ats": 6367,
      "arth": 6368,
      "Ġee": 6369,
      "umn": 6370,
      "Ġ)\\": 6371,
      "process": 6372,
      "]=++": 6373,
      "Ġqs": 6374,
      "ĠLast": 6375,
      "Ġ((*": 6376,
      ")%(": 6377,
      "ï¿½ï¿½ï¿½ï¿½ï¿½ï¿½ï¿½": 6378,
      "Ġmxn": 6379,
      "10005": 6380,
      "poly": 6381,
      "ations": 6382,
      "OUTPUT": 6383,
      "ĠFOREACH": 6384,
      "Ġfunctions": 6385,
      "Ġdivisors": 6386,
      "Cycle": 6387,
      "#################################################################################################################": 6388,
      "CK": 6389,
      "GLI": 6390,
      "RAND": 6391,
      "SN": 6392,
      "fma": 6393,
      "gap": 6394,
      "qx": 6395,
      "zet": 6396,
      "ĠĊĊ": 6397,
      "Ġ****************************************": 6398,
      "()*": 6399,
      "Ġtie": 6400,
      "][__": 6401,
      "tial": 6402,
      "Ġyb": 6403,
      "Ġgp": 6404,
      "ĠBG": 6405,
      "]]-": 6406,
      "than": 6407,
      "mxN": 6408,
      "Ġ.'": 6409,
      "Ġscf": 6410,
      "Ġfinal": 6411,
      "/********************************************************": 6412,
      "(\"\");}": 6413,
      "Ġckmin": 6414,
      "Ġioi": 6415,
      "ĠBigmod": 6416,
      "Ġeverything": 6417,
      "omething": 6418,
      "PS": 6419,
      "YNC": 6420,
      "fo": 6421,
      "join": 6422,
      "lop": 6423,
      "save": 6424,
      "}\");": 6425,
      "Ġctr": 6426,
      "Ġcreate": 6427,
      "Ġali": 6428,
      "Ġfather": 6429,
      "Ġvli": 6430,
      "Ġxl": 6431,
      "Ġ*)": 6432,
      "mple": 6433,
      "Ġ'[": 6434,
      "Ġuu": 6435,
      "Ġ&&...": 6436,
      "edia": 6437,
      "isPrime": 6438,
      "ĠSp": 6439,
      "...>": 6440,
      "Ġhand": 6441,
      "]]]": 6442,
      "ĠisSquare": 6443,
      "ipedia": 6444,
      "ĠEQ": 6445,
      "InOut": 6446,
      "quence": 6447,
      "Ġstructure": 6448,
      "Ġnormalize": 6449,
      "==================================": 6450,
      "eedForce": 6451,
      "BCXX": 6452,
      "ĠFAIL": 6453,
      "718281828": 6454,
      "GLIBCXX": 6455,
      "Ahead": 6456,
      "Next": 6457,
      "_);": 6458,
      "host": 6459,
      "mv": 6460,
      "pot": 6461,
      "tnm": 6462,
      "Ã²": 6463,
      "Ġcm": 6464,
      "Ġlx": 6465,
      "Ġvpl": 6466,
      "Ġtk": 6467,
      "Ġhare": 6468,
      "...............": 6469,
      "ignore": 6470,
      "Ġden": 6471,
      "1100": 6472,
      "ĠBy": 6473,
      "âĸĴâĸĲ": 6474,
      "_________,": 6475,
      "Ġfastpower": 6476,
      "Ġprintv": 6477,
      "ĠwriteWord": 6478,
      "Ġedg": 6479,
      "2353": 6480,
      "Ġ`\"": 6481,
      "Ġevents": 6482,
      "ĠFastIO": 6483,
      "wikipedia": 6484,
      "ĠFTB": 6485,
      "ĠOperatorMonoid": 6486,
      "360": 6487,
      "420": 6488,
      "EQ": 6489,
      "TR": 6490,
      "cor": 6491,
      "cplusplus": 6492,
      "pas": 6493,
      "text": 6494,
      "Ġod": 6495,
      "***/": 6496,
      "ĊĉĉĠĠĠĠ": 6497,
      "Ġbf": 6498,
      "Ġban": 6499,
      "ethod": 6500,
      "ĠAA": 6501,
      "ĠSI": 6502,
      "Ġhale": 6503,
      "Ġstar": 6504,
      "ĠFORd": 6505,
      "counts": 6506,
      "ĠreadInteger": 6507,
      "Ġ9223372036854775807": 6508,
      "271": 6509,
      "ĠMaxn": 6510,
      "-------": 6511,
      "Ġboard": 6512,
      "âĸĳâĸĳâĸĳâĸĢ": 6513,
      "Ġoffbit": 6514,
      "Ġimplement": 6515,
      "__<<\":\"<<__": 6516,
      "Ġhaleyk": 6517,
      "Heap": 6518,
      "^^": 6519,
      "bur": 6520,
      "fopen": 6521,
      "lv": 6522,
      "lucky": 6523,
      "oz": 6524,
      "vpii": 6525,
      "xi": 6526,
      "ÑĮ": 6527,
      "çĤ": 6528,
      "ĠâĸĪâĸĪâķĳ": 6529,
      "Ĳ¹": 6530,
      "Ġly": 6531,
      "Ġaug": 6532,
      "Ġplld": 6533,
      "Ġsomething": 6534,
      "Ġtut": 6535,
      "Ġmany": 6536,
      "ĠMAT": 6537,
      "â£¼": 6538,
      "')*": 6539,
      "âĸĳâĸĳâĸĪ": 6540,
      "ĠVal": 6541,
      "menting": 6542,
      "ĊĠĠĠĠĠĠĠĠĠĠĠĠĠĠĠĠĠĠĠĠĠĠĠĠĠĠĠĠĠĠĠĠĠĠĠĠĠĠĠĠĠĠĠĠĠĠĠĠĠĠĠĠĠĠĠĠĠĠĠĠĠĠĠĠĠĠĠĠĠĠĠĠĠĠĠĠ": 6543,
      "â¢ł": 6544,
      "ĠdoReplace": 6545,
      "Ġ\"]:\",": 6546,
      "Ġmarked": 6547,
      "Ġzeroes": 6548,
      "ðŁĲ¹": 6549,
      "â£¿â¡ĩ": 6550,
      "ĠBigMod": 6551,
      "ðŁ¦ĬðŁ¦Ĭ": 6552,
      "çĤ¹": 6553,
      "You": 6554,
      "ci": 6555,
      "core": 6556,
      "dh": 6557,
      "eof": 6558,
      "jf": 6559,
      "sgn": 6560,
      "uild": 6561,
      "}));": 6562,
      "Ġ99999999": 6563,
      "dem": 6564,
      "Ġclose": 6565,
      "Ġnv": 6566,
      "ypot": 6567,
      "Ġmay": 6568,
      "ido": 6569,
      "Ġrnk": 6570,
      "Ġmaxim": 6571,
      "000000001": 6572,
      "ĠCreated": 6573,
      "position": 6574,
      "vertical": 6575,
      "/////////": 6576,
      "ĠsetIO": 6577,
      "ĊĠĠĠĠĠĠĠĠĠĠĠĠĠĠĠĠĠĠĠĠĠĠĠĠĠĠĠĠĠĠĠĠĠ": 6578,
      "Ġ1001": 6579,
      "Ġcountbit": 6580,
      "hah": 6581,
      "14159265358979323": 6582,
      "Ġcoll": 6583,
      "Ġctz": 6584,
      "ĉĉĉĉĉĉĉĉ": 6585,
      "ĠTHE": 6586,
      "Ġassign": 6587,
      "214": 6588,
      "Eof": 6589,
      "MQ": 6590,
      "NAN": 6591,
      "Vec": 6592,
      "]^=": 6593,
      "cess": 6594,
      "jl": 6595,
      "med": 6596,
      "nYES": 6597,
      "xl": 6598,
      "stants": 6599,
      ");*/": 6600,
      "Ġamt": 6601,
      "enwick": 6602,
      "()<=": 6603,
      "retty": 6604,
      "llow": 6605,
      "..,": 6606,
      "Ġtint": 6607,
      "Ġtolower": 6608,
      "irl": 6609,
      "Ġmaxt": 6610,
      ":::.": 6611,
      "Ġrgt": 6612,
      "Ġekv": 6613,
      "Ġul": 6614,
      "))<": 6615,
      "Ġga": 6616,
      "Ġgre": 6617,
      "ĊĠĠĠĠĠĊĠĠĠĠ": 6618,
      "...:": 6619,
      "ulation": 6620,
      ",,;": 6621,
      "ĠDC": 6622,
      "ĠisPowerOfTwo": 6623,
      "10010": 6624,
      "ĠreadAhead": 6625,
      "ĠwriteInt": 6626,
      "Ġ((((": 6627,
      "black": 6628,
      "final": 6629,
      "...............................": 6630,
      "ÐµÐ½": 6631,
      "Ġteam": 6632,
      "ĠEXIT": 6633,
      "/*************************************************/": 6634,
      ",,,,,,,,,,,,,,,,,,,,,,,,": 6635,
      ".........:": 6636,
      "ĠIntegerIterator": 6637,
      "iables": 6638,
      "ĠPowerMod": 6639,
      "ĠnCr": 6640,
      "SortComp": 6641,
      ")]++;": 6642,
      "/****************": 6643,
      "08": 6644,
      "0123456789": 6645,
      ":-": 6646,
      "_\\": 6647,
      "after": 6648,
      "kl": 6649,
      "lat": 6650,
      "nNO": 6651,
      "ĊĊĠĠĠĠĠĠĠĠĠĠ": 6652,
      "Ġ********************************": 6653,
      "sta": 6654,
      "Ġisp": 6655,
      "ords": 6656,
      "Ġamax": 6657,
      "Ġmst": 6658,
      "era": 6659,
      "Ġrl": 6660,
      "ueue": 6661,
      "hip": 6662,
      "odo": 6663,
      "ĠNX": 6664,
      "...));": 6665,
      "Ġtra": 6666,
      "Ġht": 6667,
      "2097": 6668,
      "<<(#": 6669,
      "1415926535898": 6670,
      "âĸĢâĸĢâĸĢ": 6671,
      "Ġdegree": 6672,
      "Ġ123456789": 6673,
      "cases": 6674,
      "////////////////////////////////////////////////////////////////////////////////////////////////": 6675,
      "itten": 6676,
      "Shortest": 6677,
      "eturns": 6678,
      "']--;": 6679,
      "Rand": 6680,
      "eff": 6681,
      "fil": 6682,
      "gain": 6683,
      "rsz": 6684,
      "round": 6685,
      "sg": 6686,
      "Ġ97": 6687,
      "Ġ());": 6688,
      "Ġslld": 6689,
      "Ġrk": 6690,
      "Ġregister": 6691,
      "ĊĊĊĠ": 6692,
      "Ġkill": 6693,
      "ĠMMM": 6694,
      "Ġ++(": 6695,
      "DDE": 6696,
      "ĠPr": 6697,
      "unk": 6698,
      "ĠBFS": 6699,
      "ARE": 6700,
      "Ġplll": 6701,
      "âĸĳâĸĳâĸĳâĸĳâĸĲ": 6702,
      "factors": 6703,
      "Ġwriteln": 6704,
      "00000001": 6705,
      "Ġ1000000021": 6706,
      "SegmentTree": 6707,
      "Ġ|_|\\": 6708,
      "<<\"{\";": 6709,
      "Ġpolygon": 6710,
      "Ġinclusive": 6711,
      ",',": 6712,
      ",``": 6713,
      "30000": 6714,
      "84": 6715,
      "BU": 6716,
      "Cout": 6717,
      "Even": 6718,
      "FIN": 6719,
      "Mask": 6720,
      "_];": 6721,
      "car": 6722,
      "nj": 6723,
      "pli": 6724,
      "rin": 6725,
      "|=(": 6726,
      "Ġcps": 6727,
      "Ġvil": 6728,
      "ĊĉĉĠĠ": 6729,
      "ites": 6730,
      "Ġ\"=\"": 6731,
      "ali": 6732,
      "constant": 6733,
      "))){": 6734,
      "))!=": 6735,
      "ĠMain": 6736,
      "Ġcond": 6737,
      "ĊĠĠĠĠĠĉ": 6738,
      "ĠAIM": 6739,
      "Ġstuff": 6740,
      "ĠCac": 6741,
      "summ": 6742,
      "ĠHopcroftKarp": 6743,
      "xxx": 6744,
      "<<\":\"": 6745,
      "aryanc": 6746,
      "*******/": 6747,
      "before": 6748,
      "ĠForE": 6749,
      "âĸĵâĸĵâĸĵâĸĵ": 6750,
      "ÑģÑĤ": 6751,
      ",',');": 6752,
      ">)": 6753,
      "AP": 6754,
      "GR": 6755,
      "_<": 6756,
      "etic": 6757,
      "jir": 6758,
      "Ðĵ": 6759,
      "Ġ(){": 6760,
      "Ġcentroid": 6761,
      "Ġflip": 6762,
      "Ġsii": 6763,
      "Ġkb": 6764,
      "eta": 6765,
      "Ġham": 6766,
      "ĠRES": 6767,
      "ĠgetMax": 6768,
      "ithmetic": 6769,
      "Ġpositive": 6770,
      "viky": 6771,
      "1415926535": 6772,
      "Ġvvb": 6773,
      "powmod": 6774,
      "1415926535897932384626": 6775,
      "Possible": 6776,
      "dfn": 6777,
      "______________": 6778,
      "Ġgoto": 6779,
      "Ġutils": 6780,
      "++++++++++++++++": 6781,
      "Ġ-------": 6782,
      "500010": 6783,
      "Bl": 6784,
      "CPPL": 6785,
      "ELE": 6786,
      "Row": 6787,
      "Tt": 6788,
      "blog": 6789,
      "ption": 6790,
      "single": 6791,
      "vect": 6792,
      "xff": 6793,
      "}\"<<": 6794,
      "ØŃ": 6795,
      "ĠĠĊĠ": 6796,
      "--->": 6797,
      "Ġtu": 6798,
      "Ġbra": 6799,
      "Ġrw": 6800,
      "ople": 6801,
      "asing": 6802,
      "Ġ_____": 6803,
      "Ġhar": 6804,
      "ĠVAR": 6805,
      "Ġ\\__": 6806,
      "ception": 6807,
      "]=='?')": 6808,
      "âĸĳâĸĳâĸĳâĸĳâĸĮ": 6809,
      "dict": 6810,
      "16777216": 6811,
      "ĠInteractive": 6812,
      "opeTimer": 6813,
      ":::::::::": 6814,
      "Ġproblems": 6815,
      "},{-": 6816,
      "ĠSPCPPL": 6817,
      "Ġ'*'": 6818,
      "Ġfactorize": 6819,
      "ĠĠĠĠĠĠĠĠĠĠĠĠĠĠĠĠĠĠĠĠĠĠĠĠĠĠĠĠĠĠĠĠĠĠĠĠĠĠĠĠĠĠĠĠĠĠĠĠĠĠĠĠĠĠĠĠĠĠĠĠĠĠĠĠĠĠĠĠĠĠĠĠĠĠĠĠĠĠĠĠĠĠĠĠĠĠĠĠĠĠĠĠĠĠĠĠĠĠĠĠĠĠĠĠĠĠĠĠĠĠĠĠĠĠĠĠĠĠĠĠĠĠĠĠĠĠĠĠĠĠĠĠĠĠĠĠĠĠĠĠĠĠĠĠĠĠĠĠĠĠĠĠĠĠĠĠĠĠĠĠĠĠĠĠĠĠĠĠĠĠĠĠĠĠĠĠĠĠĠĠĠĠĠĠĠĠĠĠĠĠĠĠĠĠĠĠĠĠĠĠĠĠĠĠĠĠĠĠĠĠĠĠĠĠĠĠĠĠĠĠĠĠĠĠĠĠĠĠĠĠĠĠĠĠĠĠĠĠĠĠĠĠĠĠĠĠĠĠĠĠĠĠĠĠĠĠ": 6820,
      "ĠScopeTimer": 6821,
      "åĽŀ": 6822,
      ".:": 6823,
      "<>,": 6824,
      "Cur": 6825,
      "SOL": 6826,
      "gmail": 6827,
      "hy": 6828,
      "king": 6829,
      "oy": 6830,
      "æĹ": 6831,
      "steps": 6832,
      "reach": 6833,
      "onal": 6834,
      "lls": 6835,
      "endido": 6836,
      "();(": 6837,
      "setw": 6838,
      "â£ŀ": 6839,
      "â£¿â¢Ģ": 6840,
      "ofile": 6841,
      "Ġmakeit": 6842,
      "ĠLIE": 6843,
      "resh": 6844,
      "Ġinfi": 6845,
      "977": 6846,
      "atri": 6847,
      "composite": 6848,
      "START": 6849,
      "â¡Ĩ": 6850,
      "Ġvvpii": 6851,
      "readN": 6852,
      "â£¯â¢¿": 6853,
      "reference": 6854,
      "â£½â£»": 6855,
      "â¢Ģâ¢Ģâ¢Ģâ¢Ģ": 6856,
      "Ġlocalhost": 6857,
      "â£¶â£¶": 6858,
      "uclidean": 6859,
      "optimizations": 6860,
      "jumps": 6861,
      "â£§âłĺ": 6862,
      "ĠgcdExtendido": 6863,
      "efines": 6864,
      "76": 6865,
      ">\"": 6866,
      "Parent": 6867,
      "cv": 6868,
      "cst": 6869,
      "gl": 6870,
      "rnk": 6871,
      "|!": 6872,
      "Ñĥ": 6873,
      "Ġmb": 6874,
      "Ġfnd": 6875,
      "Ġsv": 6876,
      "Ġintt": 6877,
      "ample": 6878,
      "Ġdat": 6879,
      "Ġxa": 6880,
      "],-": 6881,
      "ĠMY": 6882,
      "])//": 6883,
      "prob": 6884,
      "ĠLang": 6885,
      "64000000": 6886,
      "ĠCC": 6887,
      "Ġsizes": 6888,
      "1003": 6889,
      "Ġfru": 6890,
      "Ġ1000111000": 6891,
      "222": 6892,
      "389": 6893,
      "Ġorg": 6894,
      "Ġnormmod": 6895,
      "Ġcorner": 6896,
      "TYPE": 6897,
      "*=-": 6898,
      "/|": 6899,
      "75": 6900,
      "?(": 6901,
      "JK": 6902,
      "je": 6903,
      "vot": 6904,
      "zx": 6905,
      "Ñĩ": 6906,
      "Ø³": 6907,
      "âĺ": 6908,
      "Ġ(),": 6909,
      "Ġscd": 6910,
      "Ġbg": 6911,
      "Ġxor": 6912,
      "ĠTL": 6913,
      "ĠyLast": 6914,
      "(\"%\"": 6915,
      "Ġ).": 6916,
      "ĠAL": 6917,
      "ĠSolution": 6918,
      "ĠPos": 6919,
      "Ġdeq": 6920,
      "ĠCSE": 6921,
      "ĠBang": 6922,
      "ĠINFINT": 6923,
      "ĠOM": 6924,
      "ĠreadString": 6925,
      "team": 6926,
      "Ġlines": 6927,
      "Ġdifference": 6928,
      "/******************************************************/": 6929,
      "ĊĠĠĠĠĊĠĠĠĠĊĠĠĠĠĊĠĠĠĠĊĠĠĠĠĊĠĠĠĠĊĠĠĠĠĊĠĠĠĠ": 6930,
      "dau": 6931,
      "!='-')": 6932,
      "Ġelem": 6933,
      "ĠNUM": 6934,
      "&)": 6935,
      "BB": 6936,
      "Function": 6937,
      "My": 6938,
      "MDL": 6939,
      "Up": 6940,
      "kh": 6941,
      "knight": 6942,
      "vent": 6943,
      "ĠĠĠĊĠĠĠĠĠĠĠ": 6944,
      "Ġamin": 6945,
      "Ġmil": 6946,
      "Ġter": 6947,
      "Ġbec": 6948,
      "Ġ\"'": 6949,
      "ĊĠĠĠĠĠĠĠĠĠĠĠĠĊĠĠĠĠĠĠĠ": 6950,
      "Ġ'>": 6951,
      "seconds": 6952,
      "Ġcontain": 6953,
      "Ġ|.": 6954,
      "Ġ|_": 6955,
      "ĠPO": 6956,
      "based": 6957,
      "ĠRALL": 6958,
      "sums": 6959,
      "]]!=": 6960,
      "Ġzeros": 6961,
      "Ġarri": 6962,
      "totient": 6963,
      "ĠOFF": 6964,
      "Ġcome": 6965,
      "Ġbef": 6966,
      "293": 6967,
      "degree": 6968,
      "Ġ')')": 6969,
      "Ġfollow": 6970,
      "ĠbinarySearch": 6971,
      "totalCount": 6972,
      "Ġgenerate": 6973,
      "dblcmp": 6974,
      "ĠARY": 6975,
      "ðŁĲ¹ðŁĲ¹": 6976,
      ")!=(": 6977,
      "*((": 6978,
      "74": 6979,
      "AV": 6980,
      "Fr": 6981,
      "TOR": 6982,
      "bp": 6983,
      "ea": 6984,
      "tom": 6985,
      "åħ": 6986,
      "ĊĊĠĠĠĠĠĠĠĠ": 6987,
      "stop": 6988,
      "Ġcpresent": 6989,
      "Ġpn": 6990,
      "()<<\"": 6991,
      "Ġvect": 6992,
      "idge": 6993,
      "Ġ'-';": 6994,
      "etree": 6995,
      "agetree": 6996,
      "ĉĉĊĉ": 6997,
      "ĠBUG": 6998,
      "Ġclone": 6999,
      "Ġlena": 7000,
      "100011": 7001,
      "582097": 7002,
      "player": 7003,
      "à¦²": 7004,
      "Ġ9000000000000000000": 7005,
      "ĠWRITE": 7006,
      "ĊĉĠĉĉ": 7007,
      "Ġppf": 7008,
      "Ġtajir": 7009,
      "ĠPRId": 7010,
      "Ġtakemod": 7011,
      "ENT": 7012,
      "âķ¬âķ¬âķ¬âķ¬âķ¬âķ¬âķ¬âķ¬": 7013,
      "Ġthrust": 7014,
      "è¿Ķ": 7015,
      "14159265358979323846264338327950288419716939937510582097": 7016,
      "LCA": 7017,
      "Write": 7018,
      "Zero": 7019,
      "]}": 7020,
      "])))": 7021,
      "bst": 7022,
      "fG": 7023,
      "ķÐ": 7024,
      "Ġ=================": 7025,
      "Ġsig": 7026,
      "ering": 7027,
      "__))": 7028,
      "Ġ']": 7029,
      "Ġkhod": 7030,
      "Ġstop": 7031,
      "ĠDE": 7032,
      "Ġreadin": 7033,
      "//////////////////////": 7034,
      "Ġcompress": 7035,
      "ATCH": 7036,
      "4944": 7037,
      "â£¤â£¤": 7038,
      "divide": 7039,
      "141592653589793238462643383279502884197169399375105820974944": 7040,
      "&=": 7041,
      ".;": 7042,
      "210": 7043,
      "Gf": 7044,
      "Var": 7045,
      "Yn": 7046,
      "bX": 7047,
      "oice": 7048,
      "rht": 7049,
      "vr": 7050,
      "ĊĉĠĠĠĠĠ": 7051,
      "//{": 7052,
      "Ġround": 7053,
      "ances": 7054,
      "etch": 7055,
      "Ġhrs": 7056,
      "union": 7057,
      "ĠDFOR": 7058,
      "Ġsorta": 7059,
      "fft": 7060,
      "Ġfront": 7061,
      "fib": 7062,
      ")<<\",\"<<": 7063,
      "Ġasd": 7064,
      "Ġthen": 7065,
      "------------------------------------": 7066,
      "vari": 7067,
      "Ġslope": 7068,
      "Ġlsb": 7069,
      "ĠEXP": 7070,
      "intercept": 7071,
      "~~~~~~~~": 7072,
      "suffix": 7073,
      "OOP": 7074,
      "ĠAlhamdulillah": 7075,
      "ĠTimerStop": 7076,
      "jdflg": 7077,
      "asdfasdf": 7078,
      "Ġcppstr": 7079,
      "trolIO": 7080,
      "Ã®Ã": 7081,
      "(==": 7082,
      "045": 7083,
      "179": 7084,
      "85": 7085,
      "Is": 7086,
      "May": 7087,
      "_-": 7088,
      "cf": 7089,
      "ssert": 7090,
      "xp": 7091,
      "xcross": 7092,
      "Ġfup": 7093,
      "Ġnmax": 7094,
      "ĠtG": 7095,
      "Ġbst": 7096,
      "Ġformat": 7097,
      "les": 7098,
      "Ġeuler": 7099,
      "Ġ'}": 7100,
      "Ġcntbit": 7101,
      "ices": 7102,
      "cntr": 7103,
      "')';": 7104,
      "Ġsums": 7105,
      "help": 7106,
      "Ġ55": 7107,
      "Ġ\",++": 7108,
      "ĊĠĠĠĠĠĠĠĠĉ": 7109,
      "à¦®": 7110,
      "ĠWor": 7111,
      "1000006": 7112,
      ",\"%": 7113,
      "Ġï¿½ï¿½ï¿½ï¿½ï¿½ï¿½ï¿½ï¿½ï¿½ï¿½ï¿½ï¿½": 7114,
      "ĠxyLine": 7115,
      "Ġ5005": 7116,
      "Ġpoz": 7117,
      "_______________": 7118,
      "ĠĊĠĠĊĠĠĠ": 7119,
      "normfac": 7120,
      "Ġprimos": 7121,
      "aeiou": 7122,
      "Ð£Ð¡Ð": 7123,
      "è¿ĶåĽŀ": 7124,
      "(==)": 7125,
      "(!=": 7126,
      "Df": 7127,
      "Del": 7128,
      "aut": 7129,
      "ban": 7130,
      "iN": 7131,
      "vir": 7132,
      "æĺ": 7133,
      "Ġ=>": 7134,
      "Ġci": 7135,
      "Ġmoney": 7136,
      "Ġsink": 7137,
      "()>=": 7138,
      "Ġlongest": 7139,
      "ctr": 7140,
      "::..": 7141,
      "Ġever": 7142,
      "WWEE": 7143,
      "olog": 7144,
      "])!=": 7145,
      "adr": 7146,
      "...;": 7147,
      "ĠCont": 7148,
      "]==')": 7149,
      "Ġmiddle": 7150,
      "alloc": 7151,
      "Ġreps": 7152,
      "ĠMAXK": 7153,
      "Ġ409": 7154,
      "ecution": 7155,
      "ĠfastInOut": 7156,
      "229": 7157,
      "lice": 7158,
      "349": 7159,
      "invfact": 7160,
      "marked": 7161,
      "KEK": 7162,
      "uffix": 7163,
      "Ġ`.": 7164,
      "Ġcyc": 7165,
      "ULO": 7166,
      "<<\",\";": 7167,
      "Ġutility": 7168,
      "111000111": 7169,
      "Ġ1000111000111000111": 7170,
      "(!=)": 7171,
      ",--": 7172,
      "50000": 7173,
      ":.............": 7174,
      ":.................................": 7175,
      ";................................": 7176,
      ";,.": 7177,
      "Break": 7178,
      "Check": 7179,
      "DKK": 7180,
      "DEEEEEEEEEEE": 7181,
      "GDDD": 7182,
      "KG": 7183,
      "KEEE": 7184,
      "KDEEE": 7185,
      "Rd": 7186,
      "Returns": 7187,
      "SP": 7188,
      "WI": 7189,
      "WKKKKKK": 7190,
      "fD": 7191,
      "iDD": 7192,
      "kt": 7193,
      "pal": 7194,
      "radius": 7195,
      "çĽ": 7196,
      "Ġ****": 7197,
      "Ġ9999": 7198,
      "Ġâķļ": 7199,
      "Ġlv": 7200,
      "Ġpred": 7201,
      "KKEK": 7202,
      "::,": 7203,
      "::,,,,,,,;;;;": 7204,
      "WWKKKKKKKKKKKKKKKK": 7205,
      "WWKE": 7206,
      "WWEEEEEEE": 7207,
      "EEKK": 7208,
      "EEDDDD": 7209,
      "EEKKWWWW": 7210,
      "DDL": 7211,
      "DDDG": 7212,
      "Ġ//~": 7213,
      "Ġ:,;;": 7214,
      "ĠSLL": 7215,
      "ĠPll": 7216,
      "EEEEEED": 7217,
      "WWWWKKKKKKKWKK": 7218,
      ";}};": 7219,
      "Ġ_=": 7220,
      "Ġcntr": 7221,
      "uni": 7222,
      "DDDDDDD": 7223,
      "pport": 7224,
      "Ġsumm": 7225,
      "âĸĪâĸĮ": 7226,
      "Ġisvowel": 7227,
      "Ġsetw": 7228,
      "Ġ.;": 7229,
      "Ġ.:::": 7230,
      "WWWWWWWWWWWWWW": 7231,
      "WWWWWWWWWWK": 7232,
      "library": 7233,
      "GGGGDDDDDDDDDDD": 7234,
      "GGGGGL": 7235,
      "DDDDDDDDD": 7236,
      "ĊĠĠĠĠĠĠĠĠĠĠĠĠĠĠĠĠĠĠĠĠĠĠĠĠĠĠĠĠĠĠĠĠĠĠĠĠ": 7237,
      "WWWKKKKKKKKKK": 7238,
      "WWWKKKKKKKKKKKKKKK": 7239,
      "KKKWWWWWWWW": 7240,
      "KKKWWK": 7241,
      "leftCount": 7242,
      "Ġbeli": 7243,
      "KKKKKKKKKKKKKKKKW": 7244,
      "KKKKKKKKKKKKKKKKWKKKKKKKK": 7245,
      "goal": 7246,
      "WKE": 7247,
      "DEi": 7248,
      ".....,": 7249,
      "tfGGGGDDDDDDDDDDD": 7250,
      "WWWWWWKKKKKK": 7251,
      "EEEEEEEEEEEEE": 7252,
      "!!!!": 7253,
      "WKKWK": 7254,
      "WWWWWWWWWGWWWKK": 7255,
      "......,": 7256,
      "......;": 7257,
      "EDi": 7258,
      "KWEK": 7259,
      "ijLG": 7260,
      "WKKKKKi": 7261,
      "Ġfdto": 7262,
      "fffffff": 7263,
      "DEEKKK": 7264,
      "Ġcorrect": 7265,
      "ĠfDEEEEEE": 7266,
      "WWWWWWWWKKKKKi": 7267,
      "WWWWWKKKKKWWWWWWWWWWWW": 7268,
      "Ġ....::::..": 7269,
      "GGGGGGGGGGGGGGGGGGGGGGGGGG": 7270,
      "Ġ.:::;:": 7271,
      ";,,": 7272,
      "En": 7273,
      "circle": 7274,
      "dn": 7275,
      "white": 7276,
      "Ø¨": 7277,
      "Ġcut": 7278,
      "Ġcans": 7279,
      "ĊĠĠĠĠĠĠĠĊĠĠĠĠĠĠĠ": 7280,
      "Ġnt": 7281,
      "Ġvint": 7282,
      "//'": 7283,
      "///*": 7284,
      "Ġblo": 7285,
      "answ": 7286,
      "LLAH": 7287,
      "Ġ,&": 7288,
      "<<\"?": 7289,
      "pril": 7290,
      "Ġ36": 7291,
      "Ġ30000": 7292,
      "ĠLE": 7293,
      "ĠgetSum": 7294,
      "ĠCODE": 7295,
      "love": 7296,
      "ĠisLe": 7297,
      "Ġsorting": 7298,
      "vious": 7299,
      "Ġ.'.": 7300,
      "âĸĴâĸĴâĸĴâĸĦ": 7301,
      "ĠEngine": 7302,
      "Ġcounts": 7303,
      "&(~(": 7304,
      "................................................................": 7305,
      "\\\\\\\\": 7306,
      ",\"/": 7307,
      "ĊĠĊĠĊĠĊĠ": 7308,
      "board": 7309,
      "ÐµÐ": 7310,
      "itting": 7311,
      "strict": 7312,
      "Ġimpl": 7313,
      "SSI": 7314,
      "Pairs": 7315,
      "ðŁĴ©ðŁĴ©ðŁĴ©ðŁĴ©ðŁĴ©ðŁĴ©ðŁĴ©ðŁĴ©": 7316,
      "æľĢ": 7317,
      "å°ı": 7318,
      "577215": 7319,
      "ĠEngineering": 7320,
      "577215664": 7321,
      "ABC": 7322,
      "Block": 7323,
      "CR": 7324,
      "_/": 7325,
      "cz": 7326,
      "phi": 7327,
      "ran": 7328,
      "witch": 7329,
      "cloc": 7330,
      "Ġsff": 7331,
      "()<<\"\\": 7332,
      "Ġforup": 7333,
      "types": 7334,
      "asu": 7335,
      "Ġminheap": 7336,
      "Ġhsh": 7337,
      "Ġstay": 7338,
      ")%=": 7339,
      "ĠVPII": 7340,
      "ĠOL": 7341,
      "nown": 7342,
      "Ġvvpll": 7343,
      "ĠWA": 7344,
      "vvl": 7345,
      "calculate": 7346,
      "sdk": 7347,
      "denominator": 7348,
      "459045": 7349,
      "BufSize": 7350,
      "718281828459045": 7351,
      "Ġ4096": 7352,
      "7182818284590452353": 7353,
      ")\\": 7354,
      ":`": 7355,
      "BO": 7356,
      "YY": 7357,
      "ient": 7358,
      "lh": 7359,
      "vpll": 7360,
      "whitespace": 7361,
      "Ġlop": 7362,
      "Ġfc": 7363,
      "ĠfRead": 7364,
      "ĠfWrite": 7365,
      "Ġ0123456789": 7366,
      "Ġvull": 7367,
      "ĠrFOR": 7368,
      "ops": 7369,
      "Ġ'<": 7370,
      "Ġ200000000": 7371,
      "iiiii": 7372,
      "ĠFr": 7373,
      "Ġminim": 7374,
      "ĠĠĠĠĠĊ": 7375,
      "ĠCan": 7376,
      "ĠCalc": 7377,
      "///////////////////": 7378,
      "ĠbufSize": 7379,
      "MinVal": 7380,
      "Ġ200100": 7381,
      "Ġobject": 7382,
      "Execution": 7383,
      "rdtsc": 7384,
      "VECTOR": 7385,
      "Ġ'?'": 7386,
      "MMMMMMMMMMMMMMMMMMMMMMMMMMMMMMMMMMMMMMMMMMMMMMMM": 7387,
      "optimize": 7388,
      "è¡¨": 7389,
      "420978": 7390,
      "'ve": 7391,
      "(...);": 7392,
      "131": 7393,
      "GN": 7394,
      "GIC": 7395,
      "Inc": 7396,
      "Mx": 7397,
      "New": 7398,
      "Print": 7399,
      "SIT": 7400,
      "TC": 7401,
      "]/=": 7402,
      "cen": 7403,
      "coun": 7404,
      "kth": 7405,
      "mu": 7406,
      "ship": 7407,
      "ĠĠĠĊ": 7408,
      "stan": 7409,
      "Ġcas": 7410,
      "Ġcache": 7411,
      "Ġbel": 7412,
      "Ġ\"}": 7413,
      "Ġllint": 7414,
      "ĠTO": 7415,
      "til": 7416,
      "special": 7417,
      "Ġ200001": 7418,
      "]).": 7419,
      "owed": 7420,
      "â£´": 7421,
      "ĠSwitch": 7422,
      "Ġ300000": 7423,
      "orth": 7424,
      "âĸĳâĸĦâĸĢ": 7425,
      "Ġgetnum": 7426,
      "Ġdes": 7427,
      "Ġmxx": 7428,
      "=========": 7429,
      "ĊĊĊĊĊĠĠĠ": 7430,
      "ocal": 7431,
      "âł¸": 7432,
      "xxxx": 7433,
      "Ġpause": 7434,
      "XXXX": 7435,
      "âĸĳâĸĳâĸĳâĸĳâĸĳâĸĮ": 7436,
      "âĢĻ": 7437,
      "moves": 7438,
      "Ġactive": 7439,
      "lzy": 7440,
      "Ġavail": 7441,
      "Ġsubmitting": 7442,
      "Ġ227420978": 7443,
      "Area": 7444,
      "GT": 7445,
      "Ins": 7446,
      "NMAX": 7447,
      "VL": 7448,
      "[\";": 7449,
      "bar": 7450,
      "cbegin": 7451,
      "cent": 7452,
      "fprintf": 7453,
      "how": 7454,
      "Ðŀ": 7455,
      "deq": 7456,
      "delete": 7457,
      "Ġmom": 7458,
      "ency": 7459,
      "Ġforl": 7460,
      "(\"?": 7461,
      "Ġrch": 7462,
      "Ġrad": 7463,
      "Ġgll": 7464,
      "ĠFIO": 7465,
      "Ġ3000": 7466,
      "Ġseconds": 7467,
      "Ġmpii": 7468,
      "ĠGen": 7469,
      "alla": 7470,
      "Ġsortd": 7471,
      "Ġ\\_|": 7472,
      "ĠMAXM": 7473,
      "âĸĢâĸĪâĸĪâĸĪâĸĪâĸĪ": 7474,
      "Ġ^_^": 7475,
      "ĠHERE": 7476,
      "readth": 7477,
      "âĸĪâĸĪâĸĪâĸĪâĸĮ": 7478,
      "âĸĢâĸĢâĸĳâĸĳâĸĮ": 7479,
      "âĸĦâĸĦâĸĳâĸĳâĸĮ": 7480,
      "Ġbsr": 7481,
      "book": 7482,
      "myCout": 7483,
      "âĸĪâĸĪâĸĪâĸĮ": 7484,
      "âĸĢâĸĢâĸĢâĸĢâĸĢâĸĦ": 7485,
      "Ġpattern": 7486,
      "<<\"]\\": 7487,
      "ĠSegTree": 7488,
      "âĸĲâĸĳâĸĳâĸĳâĸĦâĸĦâĸĳâĸĳâĸĮ": 7489,
      "ÐĶÐ": 7490,
      "âĸĢâĸĢâĸĢâĸĴâĸĴâĸĴâĸĴâĸĴâĸĴ": 7491,
      "æĺ¯": 7492,
      "&>::": 7493,
      "']);": 7494,
      "Cor": 7495,
      "DC": 7496,
      "iy": 7497,
      "å®": 7498,
      "Ġ####": 7499,
      "ĠĠĠĠĊĠ": 7500,
      "Ġforward": 7501,
      "ameter": 7502,
      "Ġrai": 7503,
      "Ġconv": 7504,
      "),-": 7505,
      "ĠFix": 7506,
      "Ġov": 7507,
      "Ġary": 7508,
      "Ġha": 7509,
      "ĠDO": 7510,
      "ĠDfs": 7511,
      "ĠCTr": 7512,
      "Ġinfl": 7513,
      "Ġsetfill": 7514,
      "100002": 7515,
      "1000100": 7516,
      "ĠcheckMod": 7517,
      "888888888": 7518,
      "roots": 7519,
      "infuck": 7520,
      "Ġ1000003": 7521,
      "runtime": 7522,
      "oved": 7523,
      "interval": 7524,
      "elem": 7525,
      "Ġconnections": 7526,
      "switch": 7527,
      "==================================+": 7528,
      "Ġbrainfuck": 7529,
      "CON": 7530,
      "Dec": 7531,
      "MY": 7532,
      "Ptr": 7533,
      "pur": 7534,
      "pull": 7535,
      "Ġ(--": 7536,
      "Ġcsum": 7537,
      "<<=": 7538,
      "Ġxi": 7539,
      "Ġrm": 7540,
      "Ġwidth": 7541,
      "ĠMO": 7542,
      "lines": 7543,
      "Ġstt": 7544,
      "ĠGr": 7545,
      "ĠCU": 7546,
      "ĠOP": 7547,
      "Ġstra": 7548,
      "1002": 7549,
      "Ġ\",\";": 7550,
      "ĊĠĠĠĠĠĠĠĠĊĠĠĠĠĠĠĠĠ": 7551,
      "Ġscs": 7552,
      "Ġadjlist": 7553,
      "Ġasdf": 7554,
      "ccess": 7555,
      "segtree": 7556,
      "âĸĪâĸĪâĸĪâĸĪâĸĪâĸĪ": 7557,
      "bbb": 7558,
      "287": 7559,
      "Ġcoords": 7560,
      "Ġgenerator": 7561,
      "Ġextr": 7562,
      "Ġ(_)": 7563,
      "Ġsdk": 7564,
      "Ġ2005": 7565,
      "Ġ\"{}\";": 7566,
      "Ġbacks": 7567,
      "ĠDebugger": 7568,
      "Ġbetter": 7569,
      "@@@@@@@@@@@@@@@@@@@@@@@@@@@@@@@@": 7570,
      "æľī": 7571,
      "ĠPAIR": 7572,
      "allocator": 7573,
      ".,": 7574,
      "250": 7575,
      "497": 7576,
      "443": 7577,
      "512": 7578,
      "Move": 7579,
      "Queue": 7580,
      "ZZ": 7581,
      "fig": 7582,
      "her": 7583,
      "han": 7584,
      "rit": 7585,
      "tms": 7586,
      "vd": 7587,
      "æĦ": 7588,
      "Ġ])": 7589,
      "Ġ={": 7590,
      "Ġids": 7591,
      "reset": 7592,
      "Ġ(&...": 7593,
      "Ġagain": 7594,
      "Ġpas": 7595,
      "Ġtour": 7596,
      "ĠTry": 7597,
      "Ġwon": 7598,
      "Ġinstead": 7599,
      "chu": 7600,
      "ĠFlag": 7601,
      "ĠmodAdd": 7602,
      "â£Į": 7603,
      "())*": 7604,
      "Ġ_|": 7605,
      "Ġboolalpha": 7606,
      "Ġ555": 7607,
      "MMMMMMM": 7608,
      "Ġsetmax": 7609,
      "âĸĳâĸĳâĸĳâĸĳâĸĳâĸĳ": 7610,
      "MaxVal": 7611,
      "â¡Į": 7612,
      "Ġvvv": 7613,
      "Ġeni": 7614,
      "11111": 7615,
      "1000000000000000000": 7616,
      "ATION": 7617,
      "â£¿â£§": 7618,
      "â£¿â£¾": 7619,
      "â£¿â£Ł": 7620,
      "ters": 7621,
      "Ġtopr": 7622,
      "â£¯â£Ł": 7623,
      "â£Łâ£¾": 7624,
      "â£¿â¡½": 7625,
      "FFFFFF": 7626,
      "222222": 7627,
      "â¡ĩâ¢¸": 7628,
      "RIX": 7629,
      "cuoi": 7630,
      "ĠLeft": 7631,
      "æĦı": 7632,
      ":\";": 7633,
      "?'\\": 7634,
      "Main": 7635,
      "UONG": 7636,
      "[!": 7637,
      "_=": 7638,
      "cW": 7639,
      "tI": 7640,
      "æŀ": 7641,
      "inct": 7642,
      "Ġistr": 7643,
      "Ġlas": 7644,
      "Ġnpair": 7645,
      "Ġtxt": 7646,
      "Ġragetree": 7647,
      "nton": 7648,
      "Ġrect": 7649,
      ">>,": 7650,
      "Ġ)%": 7651,
      "<<\"}\";": 7652,
      "vecin": 7653,
      "ĠFG": 7654,
      "ĠFo": 7655,
      "Ġmaxheap": 7656,
      "ĠPref": 7657,
      "=(__": 7658,
      "Ġstable": 7659,
      "______,": 7660,
      "Ġisz": 7661,
      ")('": 7662,
      "///--------------------------------": 7663,
      "Ġbiton": 7664,
      "Ġbitoff": 7665,
      "mula": 7666,
      "1999": 7667,
      "Ġmultimap": 7668,
      "lnb": 7669,
      "Ġdebarr": 7670,
      "irect": 7671,
      "cslnb": 7672,
      "ĠFFT": 7673,
      "##~~##~~##~~##~~": 7674,
      "PROG": 7675,
      "Debugger": 7676,
      "]=='#')": 7677,
      "ĠSOLUONG": 7678,
      "Ġaugmenting": 7679,
      "æĹ¶": 7680,
      "âĺģ": 7681,
      "dividend": 7682,
      "&!": 7683,
      "137": 7684,
      "526": 7685,
      ">())": 7686,
      "WE": 7687,
      "Wall": 7688,
      "When": 7689,
      "hp": 7690,
      "little": 7691,
      "pu": 7692,
      "qwerty": 7693,
      "Ġol": 7694,
      "resp": 7695,
      "Ġpof": 7696,
      "//*/": 7697,
      "Ġdout": 7698,
      "Ġdust": 7699,
      "__)(__": 7700,
      "Ġran": 7701,
      "Ġef": 7702,
      "ĠMx": 7703,
      "asy": 7704,
      "stread": 7705,
      "Ġoi": 7706,
      "Ġchunk": 7707,
      "ico": 7708,
      "ĠBi": 7709,
      "sss": 7710,
      "@@@": 7711,
      "-='": 7712,
      "els": 7713,
      "ready": 7714,
      "----------------------------------------------------------------": 7715,
      "cover": 7716,
      "ĠmodularExponentiation": 7717,
      "Ġplus": 7718,
      "ĠÐ·": 7719,
      "served": 7720,
      "anced": 7721,
      "actice": 7722,
      "ĠNOT": 7723,
      "Ġlargest": 7724,
      "ĠPROGR": 7725,
      "ethods": 7726,
      "14159265358979323846264338327950288419716939937510582097494459": 7727,
      "SSIBLE": 7728,
      "Let": 7729,
      "Watch": 7730,
      "euclidean": 7731,
      "over": 7732,
      "pass": 7733,
      "rn": 7734,
      "rate": 7735,
      "yo": 7736,
      "}]=": 7737,
      "¦ģ": 7738,
      "Ġour": 7739,
      "star": 7740,
      "Ġcnk": 7741,
      "Ġbip": 7742,
      "Ġbte": 7743,
      "Ġ\"\");": 7744,
      "contest": 7745,
      "ized": 7746,
      "Ġren": 7747,
      "ĠPDD": 7748,
      "Ġmpp": 7749,
      "Ġdenom": 7750,
      "ĠBB": 7751,
      "Ġ???": 7752,
      "frac": 7753,
      "Ġmxm": 7754,
      "ĠELE": 7755,
      "Ġnep": 7756,
      "Ġthree": 7757,
      "STL": 7758,
      "ĠKnight": 7759,
      "Ġrights": 7760,
      "Ġcanh": 7761,
      "ONE": 7762,
      "belong": 7763,
      "2907": 7764,
      "Stream": 7765,
      "ĠComplex": 7766,
      "200002": 7767,
      "ticulation": 7768,
      "reatest": 7769,
      "osen": 7770,
      "Ġfilename": 7771,
      "------------------------------------------": 7772,
      "+\",": 7773,
      "Il": 7774,
      "OI": 7775,
      "Ok": 7776,
      "Odd": 7777,
      "OSSIBLE": 7778,
      "UU": 7779,
      "fx": 7780,
      "fnd": 7781,
      "pretty": 7782,
      "rge": 7783,
      "uary": 7784,
      "viz": 7785,
      "ä½": 7786,
      "ĠĠĊĠĠĠĠĠĠĠ": 7787,
      "rel": 7788,
      "rement": 7789,
      "ĊĉĊĠĠĠ": 7790,
      "Ġcent": 7791,
      "Ġmex": 7792,
      "Ġfull": 7793,
      "stdint": 7794,
      "../": 7795,
      "//_": 7796,
      "arithmetic": 7797,
      "Ġey": 7798,
      "Ġcini": 7799,
      "iswhitespace": 7800,
      "INIT": 7801,
      "ĠmodDiv": 7802,
      "ĠSh": 7803,
      "881": 7804,
      "maxv": 7805,
      "00000000000": 7806,
      "ĠgetMin": 7807,
      "Ġdet": 7808,
      "geti": 7809,
      "Ġtostr": 7810,
      "Ġ500000": 7811,
      "Ġ798": 7812,
      "120": 7813,
      "Ġoptimiz": 7814,
      "VAL": 7815,
      "Ġ[\"": 7816,
      "Ġvvld": 7817,
      "ĠYou": 7818,
      "305": 7819,
      "ĠWH": 7820,
      "Ġheart": 7821,
      "Ġ\")\\": 7822,
      "1010101": 7823,
      "ECK": 7824,
      "Stamp": 7825,
      "ĠRAH": 7826,
      "ĠDirections": 7827,
      "çļĦå": 7828,
      "access": 7829,
      "Ġconnected": 7830,
      "Ġtokens": 7831,
      "ĠSpeedForce": 7832,
      "\"\\": 7833,
      "\"));": 7834,
      "(';": 7835,
      "CP": 7836,
      "HERE": 7837,
      "SQ": 7838,
      "_((": 7839,
      "dad": 7840,
      "dges": 7841,
      "lm": 7842,
      "lis": 7843,
      "mst": 7844,
      "ral": 7845,
      "rim": 7846,
      "rahman": 7847,
      "zeros": 7848,
      "dest": 7849,
      "deep": 7850,
      "Ġix": 7851,
      "Ġfw": 7852,
      "Ġfopen": 7853,
      "Ġfpi": 7854,
      "Ġnth": 7855,
      "Ġninf": 7856,
      "Ġnpq": 7857,
      "stdata": 7858,
      "Ġfordo": 7859,
      "ĠTh": 7860,
      "Ġequ": 7861,
      "ano": 7862,
      "();*": 7863,
      "ĠmodSub": 7864,
      "10198": 7865,
      "Ġoc": 7866,
      "putnb": 7867,
      "ĠCase": 7868,
      "hest": 7869,
      "Ġoutdist": 7870,
      "ĠinfLL": 7871,
      "Ġsetbase": 7872,
      "Ġ---": 7873,
      "Ġ--){": 7874,
      "151": 7875,
      "100009": 7876,
      "ĠXOR": 7877,
      "azfast": 7878,
      "////////////////////////////": 7879,
      "Ġempb": 7880,
      "suma": 7881,
      "Ġdoing": 7882,
      "ĠmultipleTestMode": 7883,
      "ivo": 7884,
      "ATOR": 7885,
      "Ġ'.');": 7886,
      "testdata": 7887,
      "ĠtimeStamp": 7888,
      "/**************************************": 7889,
      "Ġ~/": 7890,
      ")((((*": 7891,
      "Ġaccess": 7892,
      "delrahman": 7893,
      "Ġquit": 7894,
      "]=='.'){": 7895,
      "balance": 7896,
      "ĠSHOWVECTOR": 7897,
      "âķĲâķ¦âķĲâķ©âķĲâķ¦âķĲâķ©âķĲâķ¦âķĲâķ©âķĲâķ¦âķĲâķ©": 7898,
      "!!!\"": 7899,
      "fcse": 7900,
      "ĠIFD": 7901,
      "shared": 7902,
      "Digit": 7903,
      "654321": 7904,
      "SOLUTION": 7905,
      "Ġoptimiza": 7906,
      "400000": 7907,
      ">((": 7908,
      "Knight": 7909,
      "bes": 7910,
      "csc": 7911,
      "hour": 7912,
      "qe": 7913,
      "ãĥ": 7914,
      "ä¼": 7915,
      "åº": 7916,
      "Ġcircle": 7917,
      "Ġcreated": 7918,
      "Ġae": 7919,
      "Ġmish": 7920,
      "sel": 7921,
      "Ġpm": 7922,
      "Ġplease": 7923,
      "Ġtre": 7924,
      "usk": 7925,
      "ĠThis": 7926,
      "Ġkmp": 7927,
      "ĠMB": 7928,
      "ĠMy": 7929,
      "ĠNext": 7930,
      "Ġmodinverse": 7931,
      "ĠSW": 7932,
      "ota": 7933,
      "ĠLi": 7934,
      "âĸĳâĸĪ": 7935,
      "MAXL": 7936,
      "MAXM": 7937,
      "ĠINFF": 7938,
      "Ġ1000000005": 7939,
      "skip": 7940,
      "Ġ!!": 7941,
      "*************************************": 7942,
      "atron": 7943,
      "]={-": 7944,
      "10001": 7945,
      ")*((": 7946,
      "('<<": 7947,
      "Ġvvd": 7948,
      "Ġ{},": 7949,
      "limN": 7950,
      "Ġgraf": 7951,
      "2002": 7952,
      "Ġfinp": 7953,
      "ĠPRS": 7954,
      "Ġworld": 7955,
      "11111111111": 7956,
      "Ġallocator": 7957,
      "IMPOSSIBLE": 7958,
      "******************************************": 7959,
      "Ġstree": 7960,
      "Union": 7961,
      "ĠisLeap": 7962,
      "Ġmishatron": 7963,
      "'],": 7964,
      "Dan": 7965,
      "Dis": 7966,
      "Euclid": 7967,
      "Jun": 7968,
      "Lf": 7969,
      "OP": 7970,
      "Targs": 7971,
      "TION": 7972,
      "We": 7973,
      "aw": 7974,
      "bid": 7975,
      "gas": 7976,
      "money": 7977,
      "Ðł": 7978,
      "ĊĠĠĠĠĊ": 7979,
      "Ġia": 7980,
      "reg": 7981,
      "Ġcop": 7982,
      "Ġaut": 7983,
      "Ġpfs": 7984,
      "Ġ114": 7985,
      "Ġbakh": 7986,
      "typecast": 7987,
      "ĠTIE": 7988,
      "oly": 7989,
      "Ġreserved": 7990,
      "spot": 7991,
      "setbase": 7992,
      "Ġ///////////": 7993,
      "\";}}": 7994,
      "ĠNE": 7995,
      "ĠNAME": 7996,
      "isspace": 7997,
      "ĠPair": 7998,
      "Ġ_______": 7999,
      ";;)": 8000,
      "ĠID": 8001,
      "Ġ1000000000000": 8002,
      "Ġ1011111111": 8003,
      "Ġprecompute": 8004,
      "ĠUS": 8005,
      "149": 8006,
      "<<'('<<": 8007,
      "227": 8008,
      "à¦ķ": 8009,
      "hsh": 8010,
      "rightCount": 8011,
      "grade": 8012,
      "Ġnega": 8013,
      "monostate": 8014,
      "ĠÐ½": 8015,
      "Ġpdqueue": 8016,
      "Ġevent": 8017,
      "000000000000000000000000000": 8018,
      "---------------------------------------------": 8019,
      "111111111111111111111111111": 8020,
      "ĠUnionFind": 8021,
      "/***************************": 8022,
      "ĠNoisy": 8023,
      "ĠRANDOM": 8024,
      "âĸĳâĸĳâĸĳâĸĳâĸĳâĸĲâĸĳâĸĳâĸĳâĸĳâĸĳâĸĳâĸĳ": 8025,
      "Inside": 8026,
      "Ġaryanc": 8027,
      "Ġcanhazfast": 8028,
      ")[(": 8029,
      "+--": 8030,
      ":......:": 8031,
      ";:.": 8032,
      "AMP": 8033,
      "Crt": 8034,
      "Dbg": 8035,
      "Ind": 8036,
      "bel": 8037,
      "date": 8038,
      "qwe": 8039,
      "tout": 8040,
      "width": 8041,
      "Ġ######": 8042,
      "Ġcoun": 8043,
      "Ġnok": 8044,
      "Ġ1123456": 8045,
      "Ġinto": 8046,
      "--;}": 8047,
      "::_": 8048,
      "__);}": 8049,
      "))][": 8050,
      "price": 8051,
      "Ġ//////": 8052,
      "ĠFill": 8053,
      "887": 8054,
      "ĠRight": 8055,
      "omin": 8056,
      "*********************": 8057,
      "ĠVS": 8058,
      "327": 8059,
      "181": 8060,
      "::::.": 8061,
      "Ġmnx": 8062,
      "Ġgroups": 8063,
      "Ġsuch": 8064,
      "ĠJew": 8065,
      "********************************************************************************************************************************": 8066,
      "Ġà¦ķ": 8067,
      "Ġ505": 8068,
      "Ġgeti": 8069,
      "ĠextendedEuclid": 8070,
      "Ġ'||*": 8071,
      "ĠIteratorType": 8072,
      "ĠPROGRAM": 8073,
      "CrtDbg": 8074,
      "ĠJewel": 8075,
      "CrtDbgBreak": 8076,
      "#$": 8077,
      "+((": 8078,
      "709": 8079,
      "9000": 8080,
      "Red": 8081,
      "SPC": 8082,
      "Tp": 8083,
      "]<<(": 8084,
      "euclid": 8085,
      "sat": 8086,
      "Ã¨": 8087,
      "éĩ": 8088,
      "Ġfetch": 8089,
      "Ġsg": 8090,
      "Ġ\"[]": 8091,
      "alt": 8092,
      "algo": 8093,
      "ĠTemplate": 8094,
      "Ġepr": 8095,
      "Ġreunique": 8096,
      "Ġ239": 8097,
      "Ġkth": 8098,
      "Ġgu": 8099,
      "chool": 8100,
      "ĠFX": 8101,
      "ĠFunction": 8102,
      "ncr": 8103,
      "Ġqi": 8104,
      "Ġmaxv": 8105,
      "')+": 8106,
      "bucket": 8107,
      "Ġsze": 8108,
      "ĠDate": 8109,
      "ĠIL": 8110,
      "three": 8111,
      "ĠFORIT": 8112,
      "ĠsetBit": 8113,
      "Ġ--++--": 8114,
      "Ġstri": 8115,
      "187": 8116,
      "157": 8117,
      "Ġpie": 8118,
      "Ġulli": 8119,
      "Ġtmpv": 8120,
      "Ġbucket": 8121,
      "431": 8122,
      "STD": 8123,
      "LEN": 8124,
      "comb": 8125,
      "III": 8126,
      "Ġonline": 8127,
      "Ġsure": 8128,
      "bef": 8129,
      "show": 8130,
      "Ġsfd": 8131,
      "Ġ\"]\"": 8132,
      "âĶĢâĸĪ": 8133,
      "Ġrdtsc": 8134,
      "ĠtotalCount": 8135,
      "Ġdecimal": 8136,
      "Ġ1900": 8137,
      "Ġsplay": 8138,
      "DEFINE": 8139,
      "âĢĶ": 8140,
      "tarun": 8141,
      "bbbbbbbb": 8142,
      "bbbbbbb": 8143,
      "xyLine": 8144,
      "<<\")\";}": 8145,
      "Ġbottom": 8146,
      "Ġstress": 8147,
      "Ġcube": 8148,
      "ssertsCounter": 8149,
      "*>": 8150,
      "06": 8151,
      "Big": 8152,
      "Cont": 8153,
      "Free": 8154,
      "From": 8155,
      "LS": 8156,
      "Off": 8157,
      "SYNC": 8158,
      "XZ": 8159,
      "Year": 8160,
      "bk": 8161,
      "qt": 8162,
      "rot": 8163,
      "~!": 8164,
      "ĉĠĠĠ": 8165,
      "Ġiq": 8166,
      "Ġcz": 8167,
      "Ġauthor": 8168,
      "Ġmpr": 8169,
      "Ġsong": 8170,
      "Ġsmain": 8171,
      "():": 8172,
      "itor": 8173,
      "Ġbid": 8174,
      "Ġ\"<": 8175,
      "ĠxLast": 8176,
      "::...": 8177,
      "Ġru": 8178,
      "Ġrloop": 8179,
      "Ġradius": 8180,
      "ĠTp": 8181,
      "Ġem": 8182,
      "spec": 8183,
      "uter": 8184,
      "ĠMem": 8185,
      "anss": 8186,
      "Ġinq": 8187,
      "ads": 8188,
      "ĠSU": 8189,
      "ĠPH": 8190,
      "ĠPDE": 8191,
      "ĠPPII": 8192,
      "Ġops": 8193,
      "ĠLINE": 8194,
      "ĠCo": 8195,
      "Ġallrev": 8196,
      "ĠreadLine": 8197,
      "ocol": 8198,
      "Ġaccepted": 8199,
      "Ġdistances": 8200,
      "MMMMMMMMMM": 8201,
      "iel": 8202,
      "ĠALLAH": 8203,
      "139": 8204,
      "horse": 8205,
      "Ġwhite": 8206,
      "printLine": 8207,
      "à§ģ": 8208,
      "ĠPrintV": 8209,
      "Ġcycles": 8210,
      "________________________________________________": 8211,
      "appy": 8212,
      "Ġgeomet": 8213,
      "Ġinitialize": 8214,
      "âĸĮâĸĮâĸĳâĸĳâĸĳâĸĳâĸĳ": 8215,
      "Ġatoi": 8216,
      "Ġunzipper": 8217,
      "Faster": 8218,
      "Ġ'[';": 8219,
      "filename": 8220,
      "blogspot": 8221,
      "'};": 8222,
      "*\";": 8223,
      "9223372036854775807": 8224,
      "BASE": 8225,
      "Centroid": 8226,
      "IF": 8227,
      "IK": 8228,
      "PH": 8229,
      "QQ": 8230,
      "Task": 8231,
      "XY": 8232,
      "floor": 8233,
      "ght": 8234,
      "lps": 8235,
      "ores": 8236,
      "ron": 8237,
      "ĳÐŀ": 8238,
      "ster": 8239,
      "Ġcst": 8240,
      "Ġ{//": 8241,
      "Ġmv": 8242,
      "Ġtem": 8243,
      "Ġrat": 8244,
      "Ġuc": 8245,
      "Ġwind": 8246,
      "Ġgs": 8247,
      "ĠMint": 8248,
      "<<\"!": 8249,
      "ĠSync": 8250,
      "Ġoperation": 8251,
      "Ġtrail": 8252,
      "((__": 8253,
      "ĠDR": 8254,
      "ĠCopy": 8255,
      "Ġ50000": 8256,
      "Ġ78": 8257,
      "frq": 8258,
      "/*#": 8259,
      "189": 8260,
      "ĊĠĠĠĠĠĠĠĠĠĠĠĠĠĠĠĠĠĠĠĠĠĠĠĠĠĠĠĠĠĠĠĠĠĠĠĠĠĠĠĠĠĠĠĠĠĠĠĠĠĠĠ": 8261,
      "88888888888": 8262,
      "cols": 8263,
      "ĠIndex": 8264,
      "777": 8265,
      "ĠtestCase": 8266,
      "ĠModInverse": 8267,
      "Modular": 8268,
      "Ġprimelist": 8269,
      "Ġ1000006": 8270,
      "à§ĭ": 8271,
      "673": 8272,
      "Ġ------------------------------------------------": 8273,
      "ãĢĤ": 8274,
      "Ġblocks": 8275,
      "reflect": 8276,
      "Distance": 8277,
      "ĠContainer": 8278,
      "ÑĢÐ¾": 8279,
      "ĠDijkstra": 8280,
      "propagate": 8281,
      "ĠØ§ÙĦØ±": 8282,
      "SPCPPL": 8283,
      "*)&": 8284,
      "211": 8285,
      "2000000000": 8286,
      "4000": 8287,
      "Bound": 8288,
      "isp": 8289,
      "sfl": 8290,
      "ÙĨ": 8291,
      "ÙĬ": 8292,
      "ĠĊĠĠĠĠĠĠĠĠĠ": 8293,
      ");;": 8294,
      "default": 8295,
      "Ġpls": 8296,
      "clk": 8297,
      "Ġ>&": 8298,
      "ities": 8299,
      "Ġball": 8300,
      "ypow": 8301,
      "ues": 8302,
      "speed": 8303,
      "Ġupp": 8304,
      "ĠFenwick": 8305,
      "ĠSe": 8306,
      "Ġoset": 8307,
      "Ġcnts": 8308,
      "unsetf": 8309,
      "Ġgetsum": 8310,
      "ĠIR": 8311,
      "###########": 8312,
      "ĠOn": 8313,
      "537": 8314,
      "ĠreadTable": 8315,
      "cev": 8316,
      "Ġleast": 8317,
      "ccw": 8318,
      "671": 8319,
      "Ġtopolog": 8320,
      "}}}": 8321,
      "ĠxyCircle": 8322,
      "VERSIT": 8323,
      "plicative": 8324,
      "Ġdefinite": 8325,
      "DIA": 8326,
      "Trie": 8327,
      "Ġprecision": 8328,
      "Ġoverload": 8329,
      "ĠUNIVERSIT": 8330,
      "ĠCopyright": 8331,
      "Ġdefinitely": 8332,
      "ĠUNIVERSITY": 8333,
      "401": 8334,
      "CEP": 8335,
      "HOME": 8336,
      "TOC": 8337,
      "VEN": 8338,
      "eu": 8339,
      "gjdflg": 8340,
      "miss": 8341,
      "ook": 8342,
      "sion": 8343,
      "vol": 8344,
      "Ñı": 8345,
      "ĠOR": 8346,
      "Ġ99": 8347,
      "Ġoup": 8348,
      "Ġ---------": 8349,
      "Ġ=(": 8350,
      "Ġcare": 8351,
      "Ġlw": 8352,
      "Ġles": 8353,
      "Ġmit": 8354,
      "Ġfld": 8355,
      "Ġfuck": 8356,
      "Ġnon": 8357,
      "ĠpDD": 8358,
      "Ġsarth": 8359,
      "ĠTTT": 8360,
      "strchr": 8361,
      "();)": 8362,
      "Ġ'---'": 8363,
      "Ġ:)": 8364,
      "ĠALI": 8365,
      "ĠPRE": 8366,
      "Ġarticulation": 8367,
      "Ġ37": 8368,
      "ĠLet": 8369,
      "ĠLazy": 8370,
      "Ġ||__|": 8371,
      "ĠCF": 8372,
      "ĠBIG": 8373,
      "sumi": 8374,
      "dsh": 8375,
      "Ġseed": 8376,
      "Ġseparator": 8377,
      "third": 8378,
      "Ġneigh": 8379,
      "âĸĦâĸĴâĸĴâĸĴâĸĴ": 8380,
      "â¡Ł": 8381,
      "ĠKMP": 8382,
      "Ġbeep": 8383,
      "Ġsuma": 8384,
      "elements": 8385,
      "ALLOC": 8386,
      "ĠbufAt": 8387,
      "âĸĳâĸĳâĸĳâĸĳâĸĳâĸĳâĸĳâĸĳâĸĳâĸĳâĸĳ": 8388,
      "month": 8389,
      "Ġtakes": 8390,
      "smaller": 8391,
      "Ġsmaller": 8392,
      "Ġtell": 8393,
      "ctzll": 8394,
      "/************************************************/": 8395,
      "Ġngy": 8396,
      "Ġdefault": 8397,
      "cstdint": 8398,
      "ĠARG": 8399,
      "ĠPROTOC": 8400,
      "ĠExit": 8401,
      "'-.": 8402,
      "Ġ|_|\\__,_|": 8403,
      "ĠRESET": 8404,
      "Ġ|.--.": 8405,
      "YnB": 8406,
      "Ġsarthak": 8407,
      "ĠPROTOCOL": 8408,
      "Adj": 8409,
      "CE": 8410,
      "Fargs": 8411,
      "Need": 8412,
      "cse": 8413,
      "dv": 8414,
      "fy": 8415,
      "fas": 8416,
      "most": 8417,
      "ÐĹ": 8418,
      "ĠÂ": 8419,
      "ļÐĲÐ": 8420,
      "Ġ=================================": 8421,
      "Ġlis": 8422,
      "Ġpuu": 8423,
      "Ġ}}": 8424,
      "Ġ\">": 8425,
      "<<_": 8426,
      "ala": 8427,
      "__<<": 8428,
      "Ġesp": 8429,
      "Ġ228": 8430,
      "Ġwl": 8431,
      "choose": 8432,
      "]=\"": 8433,
      "ĠmaxL": 8434,
      "())!=": 8435,
      "Ġ____": 8436,
      "Ġhope": 8437,
      "Ġ320": 8438,
      "............": 8439,
      "ĠLog": 8440,
      "Ġgetv": 8441,
      "ĠgetFaster": 8442,
      "\");}": 8443,
      "ĠBL": 8444,
      "heavy": 8445,
      "ĠĠĠĠĠĠĠĠĠĠĠĠĠĠĠĠĠĠĠĠĠĠĠĠĠĠĠĠĠĠĠĠĠĠĠĠĠĠĠ": 8446,
      "ĠEACH": 8447,
      "Ġputnum": 8448,
      "parity": 8449,
      "ĠcheckBit": 8450,
      "Ġvvc": 8451,
      "509": 8452,
      "à¦Ľ": 8453,
      "infinity": 8454,
      "ĠWeighted": 8455,
      "791": 8456,
      "@@@@@@": 8457,
      "607": 8458,
      ";;;;;;;;;;": 8459,
      ";;;;;;;;;;;": 8460,
      "Ġ',')": 8461,
      "âĸĵâĸĪ": 8462,
      "ĠDIS": 8463,
      "slam": 8464,
      "ĠresetBit": 8465,
      "SUCC": 8466,
      "ĠMAGIC": 8467,
      "2000005": 8468,
      ">>>>>>": 8469,
      "Ġproduct": 8470,
      "Color": 8471,
      "Ġ*****************************************************************************************************": 8472,
      "Ġ1000000000000000007": 8473,
      "divisor": 8474,
      "General": 8475,
      "Ġunzip": 8476,
      "intersected": 8477,
      "Ġalive": 8478,
      "Black": 8479,
      "ķÐľ": 8480,
      "Ġbelieve": 8481,
      "Ġbelow": 8482,
      "Ġstrict": 8483,
      "SUCCESS": 8484,
      "GH": 8485,
      "GK": 8486,
      "HEL": 8487,
      "fname": 8488,
      "lapsed": 8489,
      "nC": 8490,
      "watch": 8491,
      "{\\": 8492,
      "};}": 8493,
      "ĊĊĉĉĉĉ": 8494,
      "Ġ88": 8495,
      "ŁÐ£Ð¡Ð": 8496,
      "decl": 8497,
      "ĊĠĠĠĠĊĠ": 8498,
      "Ġform": 8499,
      "<<')';": 8500,
      "Ġdm": 8501,
      "(\"!": 8502,
      "(\"\")": 8503,
      "ĠTA": 8504,
      "uel": 8505,
      "ĠFlow": 8506,
      "agic": 8507,
      "=(*": 8508,
      "Ġ360": 8509,
      "ems": 8510,
      "minv": 8511,
      "ĠDX": 8512,
      "ĠCMP": 8513,
      "ĠBINF": 8514,
      "Ġfive": 8515,
      "269": 8516,
      "ĠXor": 8517,
      "336": 8518,
      "Ġlogn": 8519,
      "component": 8520,
      "ALT": 8521,
      "Ġvvs": 8522,
      "Ġ61": 8523,
      "Ġshuffle": 8524,
      "fastio": 8525,
      "Ġprinta": 8526,
      "paired": 8527,
      "239": 8528,
      "ordin": 8529,
      "Ġgcdex": 8530,
      "Ġelm": 8531,
      "Ġbox": 8532,
      "Ġorderset": 8533,
      "Answer": 8534,
      "tual": 8535,
      "ÐµÑĤ": 8536,
      "Ġabdelrahman": 8537,
      "ancestor": 8538,
      "Ġranks": 8539,
      "âĸĢâĸĦâĸĳâĸĳâĸĳâĸĳ": 8540,
      "Ġraand": 8541,
      "Algo": 8542,
      "ÐĲÐŁÐ£Ð¡Ð": 8543,
      "aaaaaaaa": 8544,
      "ĠResult": 8545,
      "cccccccc": 8546,
      "Ġ2019": 8547,
      "divisors": 8548,
      "ĊĠĠĠĠĠĉĠĉ": 8549,
      "ļÐĲÐķÐľ": 8550,
      "ÐĲÐŁÐ£Ð¡ÐļÐĲÐķÐľ": 8551,
      "\"(": 8552,
      ")});": 8553,
      "253": 8554,
      "411": 8555,
      "Engine": 8556,
      "Pi": 8557,
      "Wr": 8558,
      "face": 8559,
      "hfj": 8560,
      "lds": 8561,
      "label": 8562,
      "mf": 8563,
      "otient": 8564,
      "want": 8565,
      "Ðº": 8566,
      "Ø§": 8567,
      "ĉĊĠĠĠ": 8568,
      "ĊĊĉĊ": 8569,
      "integ": 8570,
      "onth": 8571,
      "()][": 8572,
      "--;}}": 8573,
      "Ġtext": 8574,
      "Ġbag": 8575,
      "Ġbsh": 8576,
      "Ġdw": 8577,
      "Ġ'!": 8578,
      "ĠMr": 8579,
      "ĠFOUT": 8580,
      "addedge": 8581,
      "Ġdpp": 8582,
      "Ġhv": 8583,
      "minx": 8584,
      "ĠDefines": 8585,
      "Ġdecl": 8586,
      "ĠChi": 8587,
      "ĠCost": 8588,
      "]==...": 8589,
      "extended": 8590,
      "ĠBY": 8591,
      "Ġ1024": 8592,
      "-------------------": 8593,
      "Ġ72": 8594,
      "mxm": 8595,
      "Ġprevious": 8596,
      "ipa": 8597,
      "ĠUL": 8598,
      "121": 8599,
      "973": 8600,
      "Ġexgcd": 8601,
      "simple": 8602,
      "ava": 8603,
      "Ġstarting": 8604,
      "Ġparents": 8605,
      "Ġ:::": 8606,
      "()))))": 8607,
      "Ġgenrate": 8608,
      "Ġà¦Ĩ": 8609,
      "Ġà¦ı": 8610,
      "Ð¾Ðµ": 8611,
      "âĸĪâĸĪâĸĪâĸĢ": 8612,
      "```": 8613,
      "events": 8614,
      "Ġ'-'){": 8615,
      "modulus": 8616,
      "Ġwait": 8617,
      "{{{": 8618,
      "Order": 8619,
      "Ġputii": 8620,
      "Ġadjacent": 8621,
      "Ġ===========================": 8622,
      "ĠPrefix": 8623,
      "ÐĹÐĲÐŁÐ£Ð¡ÐļÐĲÐķÐľ": 8624,
      "#';": 8625,
      ".\";": 8626,
      ".';": 8627,
      ".')": 8628,
      "300001": 8629,
      "697": 8630,
      "?),": 8631,
      "Emr": 8632,
      "MAST": 8633,
      "OB": 8634,
      "WN": 8635,
      "[%": 8636,
      "]<<'\\": 8637,
      "cid": 8638,
      "hf": 8639,
      "jo": 8640,
      "éĹ": 8641,
      "ĠĊĉĠĠĠ": 8642,
      "Ħï¹": 8643,
      "Ġident": 8644,
      "Ġmrg": 8645,
      "seive": 8646,
      "Ġfv": 8647,
      "Ġfvalc": 8648,
      "++/": 8649,
      "llf": 8650,
      "lll": 8651,
      "Ġvir": 8652,
      "Ġforab": 8653,
      "amb": 8654,
      "ingh": 8655,
      "ected": 8656,
      "arn": 8657,
      "olved": 8658,
      "))*(": 8659,
      "Ġgreatest": 8660,
      "ĠFac": 8661,
      "ĠFile": 8662,
      "â£³": 8663,
      "Ġminx": 8664,
      "Ġhelper": 8665,
      "otal": 8666,
      "Ġsti": 8667,
      "â£¿â¢¿": 8668,
      "â£¿â¢¾": 8669,
      "modinv": 8670,
      "ORY": 8671,
      "ĠBuild": 8672,
      "]]].": 8673,
      "ĠisArr": 8674,
      "Ġ70": 8675,
      "155": 8676,
      "Ġcheckmax": 8677,
      "Ġpartial": 8678,
      "abbr": 8679,
      "STAN": 8680,
      "Ġcomps": 8681,
      "â¡½": 8682,
      "â¡Ļ": 8683,
      "Ġpowerk": 8684,
      "ĠWe": 8685,
      "Ġheavy": 8686,
      "Ġmyland": 8687,
      "017": 8688,
      "ROLS": 8689,
      "193": 8690,
      "Ġkeep": 8691,
      "â£¿â£¿â£¿â£¿â£¿â£¿â£¿â£¿â£¿â£¿": 8692,
      "â£¿â£»": 8693,
      "lso": 8694,
      "ĠFora": 8695,
      "Ġà¦¸": 8696,
      "â£¯â£¿â£¿": 8697,
      "â£Łâ¡¿": 8698,
      "â£Łâ£¯": 8699,
      "â£Łâ£·": 8700,
      "ĠDIC": 8701,
      "â£¿â¡Ħ": 8702,
      "â£¿â¡Ĩ": 8703,
      "triangle": 8704,
      "ĠMAJK": 8705,
      "<<\"[\"<<": 8706,
      "ĠEXCEP": 8707,
      "CAKE": 8708,
      "ĠConstants": 8709,
      "Ġutil": 8710,
      "âłĢâłĢâłĢâłĢâłĢâłĢ": 8711,
      "!='-'": 8712,
      "ĠCONTROLS": 8713,
      "åĪĨ": 8714,
      "ï¹Ħï¹": 8715,
      "/*********************************************************/": 8716,
      "â£¿â¡ĩâ¢¸": 8717,
      "â£ŀâ¡¿": 8718,
      "Ġbecause": 8719,
      "ĠPHASE": 8720,
      "HELPER": 8721,
      "Emrul": 8722,
      "MASTER": 8723,
      "ĠEXCEPTION": 8724,
      "ï¹Ħï¹ĥ": 8725,
      ")<<'\\": 8726,
      ":\"<<": 8727,
      ">-": 8728,
      "?\"\"": 8729,
      "Me": 8730,
      "PQ": 8731,
      "Template": 8732,
      "tps": 8733,
      "å¯": 8734,
      "æī": 8735,
      "ĉĊĊ": 8736,
      "Ġcf": 8737,
      "Ġlucky": 8738,
      "Ġaft": 8739,
      "sep": 8740,
      "Ġfak": 8741,
      "Ġppp": 8742,
      "Ġtst": 8743,
      "Ġtic": 8744,
      "Ġbk": 8745,
      "Ġxmax": 8746,
      "Ġyr": 8747,
      "asic": 8748,
      "Ġ//__": 8749,
      "Ġconvex": 8750,
      "ĠFS": 8751,
      "rth": 8752,
      "Ġhai": 8753,
      "try": 8754,
      "Ġgett": 8755,
      "ĠCnt": 8756,
      "gest": 8757,
      "Ġ1000000000000000": 8758,
      "https": 8759,
      "Ġlove": 8760,
      "âķĹ": 8761,
      "ĠHASH": 8762,
      "sider": 8763,
      "Ġdijkstra": 8764,
      "167": 8765,
      "383": 8766,
      "haha": 8767,
      "3482": 8768,
      "segnum": 8769,
      "Ġccw": 8770,
      "Ġpaths": 8771,
      "box": 8772,
      "()),((": 8773,
      "ĠComputer": 8774,
      "othing": 8775,
      "Ġlogf": 8776,
      "Ġcapacity": 8777,
      "ĠReset": 8778,
      "Length": 8779,
      "âł¿âł¿": 8780,
      "Projects": 8781,
      "ĠUNIQUE": 8782,
      "ĠâĢĵ": 8783,
      "Ġimplementation": 8784,
      "CONSTAN": 8785,
      ")^(": 8786,
      "02": 8787,
      ":(": 8788,
      "Dp": 8789,
      "Edges": 8790,
      "IAB": 8791,
      "Ver": 8792,
      "Walk": 8793,
      "What": 8794,
      "ae": 8795,
      "breadth": 8796,
      "Ã¡": 8797,
      "Ġcat": 8798,
      "Ġao": 8799,
      "Ġant": 8800,
      "Ġndp": 8801,
      "Ġpin": 8802,
      "ĠpLL": 8803,
      "()%(": 8804,
      "ending": 8805,
      "strcmp": 8806,
      "foru": 8807,
      "Ġreally": 8808,
      "Ġyalla": 8809,
      "],(": 8810,
      "Ġgap": 8811,
      "ĠMASK": 8812,
      "asi": 8813,
      "Ġprsp": 8814,
      "ĠFact": 8815,
      "Ġmaxa": 8816,
      "omial": 8817,
      "ionProjects": 8818,
      "track": 8819,
      "ĠDinic": 8820,
      "Ġtypes": 8821,
      "ĠIFN": 8822,
      "Ġ?!": 8823,
      "EST": 8824,
      "ĠisVowel": 8825,
      "ĠisInside": 8826,
      "ĠĠĠĠĠĠĠĠĠĠĠĠĠĠĠĠĠĠĠĠĠĠĠĠĠĠĠĠĠĠĠĠĠĠĠĠ": 8827,
      "Ġ777": 8828,
      "ĠVII": 8829,
      "_________": 8830,
      "Ġdebuga": 8831,
      "Ġmnm": 8832,
      "Ġbases": 8833,
      "Infin": 8834,
      "Ġgoing": 8835,
      "301": 8836,
      "plane": 8837,
      "Ġprintln": 8838,
      "avg": 8839,
      "9983": 8840,
      "ĠinvGeneral": 8841,
      "paint": 8842,
      "1000000009": 8843,
      "Ġverdict": 8844,
      "2767": 8845,
      "101010": 8846,
      "251": 8847,
      "541": 8848,
      "nodo": 8849,
      "offset": 8850,
      "PROJ": 8851,
      "PRINT": 8852,
      "ï¼ģï¼ģï¼ģï¼ģ": 8853,
      "Ġ1000000000000000001": 8854,
      "ĠRahim": 8855,
      "ĠFixPoint": 8856,
      "ĠMemory": 8857,
      "IABLES": 8858,
      "*)(": 8859,
      "358": 8860,
      "CASE": 8861,
      "LATE": 8862,
      "LOOP": 8863,
      "MO": 8864,
      "Ra": 8865,
      "Small": 8866,
      "cache": 8867,
      "rw": 8868,
      "tam": 8869,
      "Ñĭ": 8870,
      "âĪ": 8871,
      "è¯": 8872,
      "Ġiota": 8873,
      "Ġ(::": 8874,
      "Ġ{'": 8875,
      "Ġsn": 8876,
      "Ġvowel": 8877,
      "ĠtMod": 8878,
      "Ġtodo": 8879,
      "Ġdraw": 8880,
      "hik": 8881,
      "Ġ2000000000000000000": 8882,
      "Ġuin": 8883,
      "Ġuax": 8884,
      "Ġprice": 8885,
      "Ġchocol": 8886,
      "agonal": 8887,
      "Ġ300010": 8888,
      ";;..": 8889,
      "641": 8890,
      "Ġdelim": 8891,
      "âĸĪâĸĢ": 8892,
      "Ġ102": 8893,
      "Ġisn": 8894,
      "ĠĠĠĠĠĠĠĠĠĠĠĠĠĠĠĠĠĠĠĠĠĠĠĠĠĠĠĠĠĠĠĠĠĠĠĠĠĠĠĠĠĠĠĠĠĠĠĠĠĠĠĠĠĠĠ": 8895,
      "Ġnumerator": 8896,
      "Ġleaves": 8897,
      "ĊĉĉĉĉĉĊĉĉĉĉ": 8898,
      "Ċĉĉĉĉĉĉĉĉ": 8899,
      "439": 8900,
      "Ġpows": 8901,
      "347": 8902,
      "***************/": 8903,
      "irectional": 8904,
      "ĠINPUT": 8905,
      "Ġscln": 8906,
      "Rev": 8907,
      "EMPLATE": 8908,
      "ĠUpdateMax": 8909,
      "ĠAlpha": 8910,
      "Ġmodexpo": 8911,
      "ICPC": 8912,
      "1331": 8913,
      "ä»£": 8914,
      "//------------------------------------------------": 8915,
      "FFFFFFFFFFFFFF": 8916,
      "ofileIdx": 8917,
      "Ġ'}';": 8918,
      "Ġchocolate": 8919,
      "*()": 8920,
      "04": 8921,
      "311": 8922,
      "424": 8923,
      "511": 8924,
      "=!": 8925,
      "CN": 8926,
      "DSU": 8927,
      "GW": 8928,
      "RPr": 8929,
      "UP": 8930,
      "_],": 8931,
      "bd": 8932,
      "border": 8933,
      "ever": 8934,
      "fgc": 8935,
      "fstrict": 8936,
      "pOut": 8937,
      "æĪ": 8938,
      "inlin": 8939,
      "Ġ(%": 8940,
      "Ġcv": 8941,
      "Ġatr": 8942,
      "Ġfan": 8943,
      "Ġntt": 8944,
      "++(": 8945,
      "//(": 8946,
      "Ġforget": 8947,
      "Ġ\"***": 8948,
      "ifi": 8949,
      "++))": 8950,
      "Ġrule": 8951,
      "ĠTest": 8952,
      "==///": 8953,
      "anized": 8954,
      "Ġrecalc": 8955,
      "Ġwy": 8956,
      "])]": 8957,
      "ĠFrom": 8958,
      "Ġ|___/": 8959,
      "...){": 8960,
      "Ġhypot": 8961,
      "thread": 8962,
      "NOT": 8963,
      "Ġretif": 8964,
      "ĠisEof": 8965,
      "Ġ500005": 8966,
      "ĠĠĠĠĠĠĠĠĠĠĠĠĠĠĠĠĠĠĠĠĠĠĠĠĠĠĠĠĠĠĠĠĠĠĠĠĠĠĠĠ": 8967,
      "ĠEB": 8968,
      "ĠEps": 8969,
      "GGGGGG": 8970,
      "Ġbuy": 8971,
      "ĠHere": 8972,
      "Ġasche": 8973,
      "Ġpary": 8974,
      "colors": 8975,
      "ĠKAZ": 8976,
      "ĠWIN": 8977,
      "317": 8978,
      "scn": 8979,
      "groups": 8980,
      "ITNO": 8981,
      "/**/": 8982,
      "593": 8983,
      "Ġ(*__": 8984,
      "Ġforever": 8985,
      "Ġpci": 8986,
      "difference": 8987,
      "=\"\",": 8988,
      "Ġweak": 8989,
      "XXX": 8990,
      "Const": 8991,
      "ĠSTR": 8992,
      "ĠTimeStart": 8993,
      "ĠTimeEnd": 8994,
      "ĠControlIO": 8995,
      "ĠUpdateMin": 8996,
      "insns": 8997,
      "Ġprepare": 8998,
      "34567891": 8999,
      "8888888888888888888888888": 9000,
      "dgas": 9001,
      "TimerStop": 9002,
      "cstddef": 9003,
      "-------------------------------": 9004,
      "freorder": 9005,
      "fschedule": 9006,
      "ĠMATRIX": 9007,
      "Ġorganized": 9008,
      "ĠFunctions": 9009,
      "lapsedTime": 9010,
      "asicInteger": 9011,
      "fgcse": 9012,
      "inlining": 9013,
      ",++": 9014,
      "257": 9015,
      "2147483647": 9016,
      "Bal": 9017,
      "DIM": 9018,
      "Field": 9019,
      "IP": 9020,
      "Link": 9021,
      "US": 9022,
      "]|": 9023,
      "dl": 9024,
      "don": 9025,
      "days": 9026,
      "father": 9027,
      "sof": 9028,
      "ĉĊĉĉĉ": 9029,
      "desh": 9030,
      "orn": 9031,
      "ĠfMin": 9032,
      "Ġppl": 9033,
      "//--------": 9034,
      "iti": 9035,
      "ĠdX": 9036,
      "ĠTemp": 9037,
      "Ġerep": 9038,
      "formula": 9039,
      "ani": 9040,
      "Ġrez": 9041,
      "till": 9042,
      "Ġ;.": 9043,
      "Ġgod": 9044,
      "Ġprs": 9045,
      "Ġ:;": 9046,
      "ets": 9047,
      "ĠmaxValue": 9048,
      "ĠSqrt": 9049,
      "Ġoor": 9050,
      "ĠPb": 9051,
      "Ġstod": 9052,
      "emz": 9053,
      "ĠDp": 9054,
      "ĠCircle": 9055,
      "ĠIslam": 9056,
      "Ġpiiii": 9057,
      "vertices": 9058,
      "getc": 9059,
      "upgrade": 9060,
      "many": 9061,
      "///================================": 9062,
      "]={{": 9063,
      "Ġunpaired": 9064,
      "ngy": 9065,
      "ĠtestNum": 9066,
      "Ġsolv": 9067,
      "â¢Ģâ£Ģ": 9068,
      "Ġdebmat": 9069,
      "Ġsince": 9070,
      "---\\": 9071,
      "GGGGGGGGGGGGGGGGGGGG": 9072,
      "ladesh": 9073,
      "ranks": 9074,
      "ratio": 9075,
      "connected": 9076,
      "ĠFREIN": 9077,
      "ĠBangladesh": 9078,
      "57721566490": 9079,
      "ĠisLeapYear": 9080,
      "ä»£è¡¨": 9081,
      ",..": 9082,
      "233": 9083,
      "727": 9084,
      ":................": 9085,
      ";........................": 9086,
      "DW": 9087,
      "DGG": 9088,
      "DGGGG": 9089,
      "DEEK": 9090,
      "Eti": 9091,
      "Eii": 9092,
      "Eiii": 9093,
      "EDDD": 9094,
      "EKKKKKWWKKKKK": 9095,
      "GEEE": 9096,
      "GEEEEEEEEEEEEEEEE": 9097,
      "Kii": 9098,
      "KWWWWWWWW": 9099,
      "KWKK": 9100,
      "KEEEK": 9101,
      "Lj": 9102,
      "Liii": 9103,
      "LGGG": 9104,
      "NG": 9105,
      "RST": 9106,
      "Slow": 9107,
      "WEEEEEEEEEEEEEEEE": 9108,
      "WKKKKKKKKKK": 9109,
      "WEEEEEEEEEEE": 9110,
      "WEEEEE": 9111,
      "WEEEED": 9112,
      "ball": 9113,
      "baki": 9114,
      "fK": 9115,
      "fe": 9116,
      "fEEE": 9117,
      "fWK": 9118,
      "fwd": 9119,
      "fLGGDDDDDDDDDDDD": 9120,
      "iD": 9121,
      "iDEEEE": 9122,
      "iWWWWWK": 9123,
      "iKDEEE": 9124,
      "jD": 9125,
      "jLGGGDDDDDDDDDDDD": 9126,
      "judge": 9127,
      "tWK": 9128,
      "tEL": 9129,
      "uage": 9130,
      "yl": 9131,
      "¼ÐµÐ½": 9132,
      "è¦ģ": 9133,
      "Ġcen": 9134,
      "Ġcac": 9135,
      "Ġmypow": 9136,
      "ĠfDEEEKKKKKKKK": 9137,
      "Ġtos": 9138,
      "Ġbld": 9139,
      "Ġ\"|": 9140,
      "Ġdream": 9141,
      "KKEEEEEEEE": 9142,
      "KKWWWWWWW": 9143,
      "KKEEEEEEE": 9144,
      "::,,": 9145,
      "::,,,,": 9146,
      "::;:": 9147,
      "::..........................": 9148,
      "WWD": 9149,
      "WWEEE": 9150,
      "WWEEEEEEEEEEEE": 9151,
      "WWEEEEEEEEEEEEEEEE": 9152,
      "WWKW": 9153,
      "WWKKKKW": 9154,
      "EEDD": 9155,
      "EEKKKK": 9156,
      "EEKKKKKKKKKKKKKKKK": 9157,
      "EEGEEEEEEEEEEEEEEEE": 9158,
      "Ġ'+'": 9159,
      "Ġyi": 9160,
      "ately": 9161,
      "LLGGGG": 9162,
      "LLGGG": 9163,
      "LLONG": 9164,
      "Ġ,::,,,,,,,;;;;": 9165,
      "DDGG": 9166,
      "DDDE": 9167,
      "DDEEEWEEEEEEEEEEEE": 9168,
      "KKKKWWWWWWWW": 9169,
      "KKKKEEE": 9170,
      "Ġ:,": 9171,
      "Ġ:,:.": 9172,
      "imit": 9173,
      "Ġmaxk": 9174,
      "maxm": 9175,
      "ĠPre": 9176,
      "EEEEDDDD": 9177,
      "EEEEEK": 9178,
      "EEEEWEEEEEEEEEEEE": 9179,
      "WWWWKK": 9180,
      "WWWWEEEEE": 9181,
      "WWWWKKW": 9182,
      "ĠRET": 9183,
      "ques": 9184,
      "Ġstoi": 9185,
      "ĉĉĠ": 9186,
      "ĠLDEEEE": 9187,
      ",,,:": 9188,
      "Ġszz": 9189,
      "ĠDo": 9190,
      "ĠGDEE": 9191,
      "ĠGDEEEKKKKKKKK": 9192,
      "lobal": 9193,
      "Ġsegs": 9194,
      "cmf": 9195,
      "KKKKKKKKKKKKK": 9196,
      "numerator": 9197,
      "Ġ1000000001": 9198,
      "ESH": 9199,
      "ĠisLeft": 9200,
      "token": 9201,
      "Ġ50000000": 9202,
      "exist": 9203,
      "263": 9204,
      "....................:": 9205,
      ";;;;,": 9206,
      "Ġ.::::::::": 9207,
      "Ġ.:::::::": 9208,
      "Ġ.::;:": 9209,
      ",,,,;": 9210,
      ",,,,,:.": 9211,
      "2048": 9212,
      "stdinDataEnd": 9213,
      "WWWWWWWWKKKK": 9214,
      "WWWWWWWWWWWWWWW": 9215,
      "DDDDDDDDEEE": 9216,
      "DDDDDDDDDDDDDDDDDDDD": 9217,
      "DDDDDDDDDEEEE": 9218,
      "DDDDDDDDEEEEEE": 9219,
      "Ġlose": 9220,
      "WWWKKKKKKKK": 9221,
      "WWWEEEEEEEEEEEE": 9222,
      "EEEWW": 9223,
      "EEEKE": 9224,
      "EEEKKWWWW": 9225,
      "EEEKKWWW": 9226,
      "EEEKKKWWW": 9227,
      "Ġdefines": 9228,
      "ĠHH": 9229,
      "ĠHoss": 9230,
      "KKKEK": 9231,
      "KKKWWWWW": 9232,
      "KKKWWKK": 9233,
      "parse": 9234,
      "à¦¤": 9235,
      "poww": 9236,
      ":.::::::::": 9237,
      "KKKKKWWWWWWWWWWW": 9238,
      "KKKKKWKKKKKK": 9239,
      "KKKKKKKKKKKKKKKKKKKKKKK": 9240,
      "RTIME": 9241,
      "Ġ:::.": 9242,
      "WKEEEEEEEEEE": 9243,
      "WKWKKWK": 9244,
      "DEK": 9245,
      "Ġvert": 9246,
      "KKKKKKKWKKKKK": 9247,
      "KKKKKKKEL": 9248,
      ";.:": 9249,
      "tfLG": 9250,
      "tfLGGGG": 9251,
      "tfLGGG": 9252,
      "DDDK": 9253,
      "GGGK": 9254,
      "KEKKK": 9255,
      "KEKKKKKKKKKKKKKKKKKKKKKKKK": 9256,
      "KEKKW": 9257,
      "ĠFILES": 9258,
      "EEEEEEEEEEEEKKKKKKKKKKKKKKKKKKKKKKKK": 9259,
      "KKKKKKWWWWWWWWW": 9260,
      "fji": 9261,
      "fjti": 9262,
      "Ġ.:,": 9263,
      "Ġ.:,,,": 9264,
      "Ġ.:,;;": 9265,
      "à§Ł": 9266,
      "DEEEEKKKKKKKKKKKKKKKK": 9267,
      "888888888888888888": 9268,
      "WWWWWWWWWE": 9269,
      "WWWWWWWWWKKKWWK": 9270,
      "::::::::::::::::": 9271,
      ":::::::::..": 9272,
      "paths": 9273,
      "EKEEEEE": 9274,
      "Ġlogg": 9275,
      ";:..": 9276,
      "**************************": 9277,
      "ÐµÑĢ": 9278,
      "KWKKK": 9279,
      "EEDf": 9280,
      "]=='.'": 9281,
      "EEKWWWWWWWW": 9282,
      "WKKKKKEE": 9283,
      "''''": 9284,
      "ĠCLown": 9285,
      "Ġtransposed": 9286,
      "WWKKWWWW": 9287,
      "KKKKWKKKKKKKKKKKKKKKK": 9288,
      "Ġ'*';": 9289,
      "GGGGGGGGGGGGGGGGGGG": 9290,
      "KKKKKKKKKKKKKKKWKKKKKKKK": 9291,
      "EEEKWWWWW": 9292,
      "EEEKWWWWWWKKKKKK": 9293,
      "EEEEEEDEi": 9294,
      ",,,,,,;": 9295,
      ",,,,,,,;": 9296,
      "DKWWWWWWKKKKK": 9297,
      "DKiWWWWWK": 9298,
      "WWWWWKWKKKK": 9299,
      ",,,,,,,;;": 9300,
      ",,,,,,,;;;": 9301,
      "EGIN": 9302,
      "::::::,": 9303,
      "::::::,,,,,,,;;": 9304,
      ":::::::,,,,,;": 9305,
      ":::::::,,,,,,,;": 9306,
      "Ġtriangle": 9307,
      "22222": 9308,
      "Ġ.:.,.": 9309,
      "Ġ.:.;:": 9310,
      "tfLGGDDDDDDDD": 9311,
      "tfLGGDDDDDDDDDD": 9312,
      "tfLGGDDDDDD": 9313,
      "whole": 9314,
      "itfLGGDDDDDDDDDDDD": 9315,
      "KKWWWWKEEEEEEEE": 9316,
      "WWWWWWWWWWWWWWWWWWWWWW": 9317,
      "WWKKKKWWWWWWWWWWW": 9318,
      ";;;;;;;;;;;;;;;;;;;;;;;;;": 9319,
      "WWWWWWWKKKKKi": 9320,
      "WWWWWWWKKKKKt": 9321,
      "ĠTrie": 9322,
      ";,.....": 9323,
      "GEEKKKKKWKKKKK": 9324,
      "ĊĠĠĠĠĠĠĠĠĠĠĠĠĠĠĠĠĠĠĠĠĠĠĠĠĠĠĠĠĠĠĠĠĠĠĠĠĠĠĠĠĠĠĠĠĉĉĊĠĠĠĠĠĠĠĠĠĠĠĠĠĠĠĠĠĠĠĠĠĠĠĠĠĠĠĠĠĠĠĠĠĠĠĠĠĠĠĠĠĠĠĠĊĠĠĠĠĠĠĠĠĠĠĠĠĠĠĠĠĠĠĠĠĠĠĠĠĠĠĠĠĠĠĠĠĠĠĠĠĠĠĠĠĠĠĠ": 9325,
      "KKKKKWWKKKKKWWWWWWWWW": 9326,
      "EEEEEEEEEEEEEEEKKKKKKKKKKKKKKKK": 9327,
      "WKKKWK": 9328,
      "WKKKKKKKWWWWWWW": 9329,
      "WWEEEEEEEEEEEWWWWEEEEE": 9330,
      "DDWWKKDDDDD": 9331,
      "EEEEEEEEEKEEEEEEEEEEEEEEEEE": 9332,
      "...............................:": 9333,
      ",,,,,,,,,,,,,,,,,,,,,,,,,": 9334,
      "ĠVARIABLES": 9335,
      "ĠContest": 9336,
      "iDDEEEEWEEEEEEEEEEEE": 9337,
      "WWKKKKKKKKKKKKKKKKK": 9338,
      "WWEEEEEEEDD": 9339,
      "DDDGL": 9340,
      "WWWKKKKKKKKKKW": 9341,
      "WWWKKKKKKKKKKKKKKKWKK": 9342,
[...]
