{
  "version": "1.0",
  "truncation": null,
  "padding": null,
  "added_tokens": [
    {
      "id": 0,
      "content": "<unk>",
      "single_word": false,
      "lstrip": false,
      "rstrip": false,
      "normalized": false,
      "special": true
    }
  ],
  "normalizer": null,
  "pre_tokenizer": {
    "type": "ByteLevel",
    "add_prefix_space": false,
    "trim_offsets": true,
    "use_regex": true
  },
  "post_processor": null,
  "decoder": null,
  "model": {
    "type": "BPE",
    "dropout": null,
    "unk_token": "<unk>",
    "continuing_subword_prefix": null,
    "end_of_word_suffix": null,
    "fuse_unk": false,
    "byte_fallback": false,
    "ignore_merges": false,
    "vocab": {
      "<unk>": 0,
      "!": 1,
      "\"": 2,
      "#": 3,
      "$": 4,
      "%": 5,
      "&": 6,
      "'": 7,
      "(": 8,
      ")": 9,
      "*": 10,
      "+": 11,
      ",": 12,
      "-": 13,
      ".": 14,
      "/": 15,
      "0": 16,
      "1": 17,
      "2": 18,
      "3": 19,
      "4": 20,
      "5": 21,
      "6": 22,
      "7": 23,
      "8": 24,
      "9": 25,
      ":": 26,
      ";": 27,
      "<": 28,
      "=": 29,
      ">": 30,
      "?": 31,
      "@": 32,
      "A": 33,
      "B": 34,
      "C": 35,
      "D": 36,
      "E": 37,
      "F": 38,
      "G": 39,
      "H": 40,
      "I": 41,
      "J": 42,
      "K": 43,
      "L": 44,
      "M": 45,
      "N": 46,
      "O": 47,
      "P": 48,
      "Q": 49,
      "R": 50,
      "S": 51,
      "T": 52,
      "U": 53,
      "V": 54,
      "W": 55,
      "X": 56,
      "Y": 57,
      "Z": 58,
      "[": 59,
      "\\": 60,
      "]": 61,
      "^": 62,
      "_": 63,
      "`": 64,
      "a": 65,
      "b": 66,
      "c": 67,
      "d": 68,
      "e": 69,
      "f": 70,
      "g": 71,
      "h": 72,
      "i": 73,
      "j": 74,
      "k": 75,
      "l": 76,
      "m": 77,
      "n": 78,
      "o": 79,
      "p": 80,
      "q": 81,
      "r": 82,
      "s": 83,
      "t": 84,
      "u": 85,
      "v": 86,
      "w": 87,
      "x": 88,
      "y": 89,
      "z": 90,
      "{": 91,
      "|": 92,
      "}": 93,
      "~": 94,
      "¡": 95,
      "¢": 96,
      "£": 97,
      "¤": 98,
      "¥": 99,
      "¦": 100,
      "§": 101,
      "¨": 102,
      "©": 103,
      "ª": 104,
      "«": 105,
      "¬": 106,
      "®": 107,
      "¯": 108,
      "°": 109,
      "±": 110,
      "²": 111,
      "³": 112,
      "´": 113,
      "µ": 114,
      "¶": 115,
      "·": 116,
      "¸": 117,
      "¹": 118,
      "º": 119,
      "»": 120,
      "¼": 121,
      "½": 122,
      "¾": 123,
      "¿": 124,
      "À": 125,
      "Á": 126,
      "Â": 127,
      "Ã": 128,
      "Ä": 129,
      "Å": 130,
      "Æ": 131,
      "Ç": 132,
      "È": 133,
      "É": 134,
      "Ê": 135,
      "Ë": 136,
      "Ì": 137,
      "Í": 138,
      "Î": 139,
      "Ï": 140,
      "Ð": 141,
      "Ñ": 142,
      "Ò": 143,
      "Ó": 144,
      "Ô": 145,
      "Õ": 146,
      "Ö": 147,
      "×": 148,
      "Ø": 149,
      "Ù": 150,
      "Ú": 151,
      "Û": 152,
      "Ü": 153,
      "Ý": 154,
      "Þ": 155,
      "ß": 156,
      "à": 157,
      "á": 158,
      "â": 159,
      "ã": 160,
      "ä": 161,
      "å": 162,
      "æ": 163,
      "ç": 164,
      "è": 165,
      "é": 166,
      "ê": 167,
      "ë": 168,
      "ì": 169,
      "í": 170,
      "î": 171,
      "ï": 172,
      "ð": 173,
      "ñ": 174,
      "ò": 175,
      "ó": 176,
      "ô": 177,
      "õ": 178,
      "ö": 179,
      "÷": 180,
      "ø": 181,
      "ù": 182,
      "ú": 183,
      "û": 184,
      "ü": 185,
      "ý": 186,
      "þ": 187,
      "ÿ": 188,
      "Ā": 189,
      "ā": 190,
      "Ă": 191,
      "ă": 192,
      "Ą": 193,
      "ą": 194,
      "Ć": 195,
      "ć": 196,
      "Ĉ": 197,
      "ĉ": 198,
      "Ċ": 199,
      "ċ": 200,
      "Č": 201,
      "č": 202,
      "Ď": 203,
      "ď": 204,
      "Đ": 205,
      "đ": 206,
      "Ē": 207,
      "ē": 208,
      "Ĕ": 209,
      "ĕ": 210,
      "Ė": 211,
      "ė": 212,
      "Ę": 213,
      "ę": 214,
      "Ě": 215,
      "ě": 216,
      "Ĝ": 217,
      "ĝ": 218,
      "Ğ": 219,
      "ğ": 220,
      "Ġ": 221,
      "ġ": 222,
      "Ģ": 223,
      "ģ": 224,
      "Ĥ": 225,
      "ĥ": 226,
      "Ħ": 227,
      "ħ": 228,
      "Ĩ": 229,
      "ĩ": 230,
      "Ī": 231,
      "ī": 232,
      "Ĭ": 233,
      "ĭ": 234,
      "Į": 235,
      "į": 236,
      "İ": 237,
      "ı": 238,
      "Ĳ": 239,
      "ĳ": 240,
      "Ĵ": 241,
      "ĵ": 242,
      "Ķ": 243,
      "ķ": 244,
      "ĸ": 245,
      "Ĺ": 246,
      "ĺ": 247,
      "Ļ": 248,
      "ļ": 249,
      "Ľ": 250,
      "ľ": 251,
      "Ŀ": 252,
      "ŀ": 253,
      "Ł": 254,
      "ł": 255,
      "Ń": 256,
      "ĠĠ": 257,
      "ĠĠĠĠ": 258,
      "in": 259,
      "ĠĠĠ": 260,
      "int": 261,
      "de": 262,
      "ĊĠĠĠĠ": 263,
      "Ġ=": 264,
      "st": 265,
      "ĊĠĠĠ": 266,
      "Ġi": 267,
      "Ġ<": 268,
      ");": 269,
      "re": 270,
      "def": 271,
      "or": 272,
      "Ġ(": 273,
      "Ċĉ": 274,
      "on": 275,
      "ine": 276,
      "Ġc": 277,
      "ĠĠĠĠĠĠĠĠ": 278,
      "define": 279,
      "Ġl": 280,
      "ĊĠĠĠĠĠĠĠ": 281,
      "Ġa": 282,
      "Ġ{": 283,
      "Ġm": 284,
      "se": 285,
      "Ġf": 286,
      "Ġn": 287,
      "Ġp": 288,
      "++": 289,
      "Ġ1": 290,
      "00": 291,
      "cl": 292,
      "Ġ0": 293,
      "Ġ}": 294,
      "ou": 295,
      "ur": 296,
      "en": 297,
      "Ġs": 298,
      "Ġint": 299,
      "()": 300,
      "clu": 301,
      "inclu": 302,
      "include": 303,
      "ret": 304,
      "ll": 305,
      "**": 306,
      "Ġv": 307,
      "Ġ<<": 308,
      "urn": 309,
      "return": 310,
      "std": 311,
      "--": 312,
      "ĠĠĠĠĠĠĠ": 313,
      "Ġ+": 314,
      "Ġ>": 315,
      "ong": 316,
      "//": 317,
      "..": 318,
      "Ċĉĉ": 319,
      "out": 320,
      "it": 321,
      "Ġt": 322,
      "Ġb": 323,
      "Ġfor": 324,
      "Ġif": 325,
      "ĊĠĠĠĠĠĠĠĠĠĠĠ": 326,
      "Ġ-": 327,
      "ac": 328,
      "Ġ\"": 329,
      "am": 330,
      "Ġlong": 331,
      "<<": 332,
      "];": 333,
      "at": 334,
      "][": 335,
      "Ġd": 336,
      "er": 337,
      "ing": 338,
      "con": 339,
      "ns": 340,
      "yp": 341,
      "ir": 342,
      "Ġx": 343,
      "us": 344,
      "Ġreturn": 345,
      "if": 346,
      "le": 347,
      "++)": 348,
      "ct": 349,
      "Ġ&": 350,
      "end": 351,
      "\",": 352,
      "typ": 353,
      "Ġma": 354,
      "ĊĠĠĠĠĠĠĠĠĠĠĠĠ": 355,
      "(\"": 356,
      "ĊĠ": 357,
      "Ġ*": 358,
      "al": 359,
      "id": 360,
      "KK": 361,
      "ame": 362,
      "ect": 363,
      "ar": 364,
      "){": 365,
      "ector": 366,
      "mp": 367,
      "****": 368,
      "iz": 369,
      "__": 370,
      "ize": 371,
      "Ġll": 372,
      "Ġ>>": 373,
      "type": 374,
      "Ġstd": 375,
      "::": 376,
      "Ġj": 377,
      "Ġr": 378,
      "0000": 379,
      "].": 380,
      "op": 381,
      "==": 382,
      "str": 383,
      "ĠT": 384,
      "const": 385,
      "ue": 386,
      "os": 387,
      "ma": 388,
      "Ġcout": 389,
      "Ġ==": 390,
      "Ġe": 391,
      "typedef": 392,
      "air": 393,
      "an": 394,
      "for": 395,
      "WW": 396,
      "();": 397,
      "nt": 398,
      "ol": 399,
      "EE": 400,
      "Ġans": 401,
      "Ġcin": 402,
      "Ġre": 403,
      "ĊĊ": 404,
      "size": 405,
      "using": 406,
      "hi": 407,
      "ace": 408,
      "ack": 409,
      "ti": 410,
      "Ġ'": 411,
      "sp": 412,
      "lse": 413,
      ">>": 414,
      "Ġy": 415,
      "Ġname": 416,
      "od": 417,
      "ut": 418,
      "Ġ2": 419,
      "io": 420,
      "emp": 421,
      "space": 422,
      "##": 423,
      "----": 424,
      "ĊĠĠĠĠĠĠĠĠĠĠĠĠĠĠĠ": 425,
      "Ċĉĉĉ": 426,
      "ate": 427,
      "string": 428,
      "Ġu": 429,
      "ĠĠĠĠĠĠĠĠĠĠĠĠĠĠĠĠ": 430,
      "eg": 431,
      "Ġnamespace": 432,
      "],": 433,
      "))": 434,
      "(\"%": 435,
      "oid": 436,
      "Ġk": 437,
      "back": 438,
      "endl": 439,
      "ush": 440,
      "Ġw": 441,
      "Ġ;": 442,
      "um": 443,
      "....": 444,
      "Ġg": 445,
      "set": 446,
      "ĊĊĠĠĠ": 447,
      "ĠM": 448,
      "Ġmain": 449,
      "as": 450,
      "âĸ": 451,
      "])": 452,
      "egin": 453,
      "Ġvector": 454,
      "Ġ%": 455,
      "irst": 456,
      "hile": 457,
      "begin": 458,
      "bit": 459,
      "Ġ<=": 460,
      "ans": 461,
      "LL": 462,
      "ble": 463,
      "Ġin": 464,
      "ow": 465,
      "cout": 466,
      "vector": 467,
      "Ġ,": 468,
      "stre": 469,
      "can": 470,
      "empl": 471,
      "stream": 472,
      "Ġ++": 473,
      "cond": 474,
      "!=": 475,
      "********": 476,
      "second": 477,
      "ith": 478,
      "Ġpr": 479,
      "emplate": 480,
      "ch": 481,
      "DD": 482,
      "ii": 483,
      "ouble": 484,
      "Ġpair": 485,
      "cin": 486,
      "]=": 487,
      "xt": 488,
      "bits": 489,
      "<<\"": 490,
      "stdio": 491,
      "++.": 492,
      "Ġ+=": 493,
      "stdc": 494,
      "pr": 495,
      "canf": 496,
      "Ġ//": 497,
      "]);": 498,
      "Ġelse": 499,
      "Ġ)": 500,
      "Ġ&&": 501,
      "ase": 502,
      "Ġcon": 503,
      "tie": 504,
      "KKKK": 505,
      "ĊĠĠĠĠĠ": 506,
      "<=": 507,
      "void": 508,
      "template": 509,
      "ed": 510,
      "),": 511,
      "(),": 512,
      "ve": 513,
      "\";": 514,
      "ig": 515,
      "++;": 516,
      "ool": 517,
      "pair": 518,
      "Ġ:": 519,
      "ĠF": 520,
      "intf": 521,
      "88": 522,
      "ĠN": 523,
      "ename": 524,
      "ass": 525,
      "et": 526,
      "Ġendl": 527,
      "Ġres": 528,
      "nc": 529,
      "Ġ|": 530,
      "));": 531,
      "Ġ/": 532,
      "Ġwhile": 533,
      "is": 534,
      "Ġq": 535,
      "Ġmod": 536,
      "alse": 537,
      "push": 538,
      "IN": 539,
      "¿½": 540,
      "ï¿½": 541,
      "ator": 542,
      "ĠA": 543,
      "Ġdouble": 544,
      "ync": 545,
      "im": 546,
      "with": 547,
      "line": 548,
      "erator": 549,
      "ad": 550,
      "Ġ!=": 551,
      "Ġmax": 552,
      "sync": 553,
      "open": 554,
      "Ġscanf": 555,
      ").": 556,
      "ĠS": 557,
      "Ġo": 558,
      "10": 559,
      "ode": 560,
      "reopen": 561,
      "--------": 562,
      "max": 563,
      "ke": 564,
      "ĠP": 565,
      "first": 566,
      "rt": 567,
      "nd": 568,
      "put": 569,
      "EEEE": 570,
      "Ġconst": 571,
      "else": 572,
      "...": 573,
      "â£": 574,
      "////": 575,
      "pb": 576,
      "ree": 577,
      "WWWW": 578,
      "Ġar": 579,
      "Ġop": 580,
      "++){": 581,
      "ï¿½ï¿½": 582,
      "Ġch": 583,
      "Ġtr": 584,
      "Ġfirst": 585,
      "####": 586,
      "uto": 587,
      "MM": 588,
      ";}": 589,
      "Ġdp": 590,
      "Ġ__": 591,
      "Ġit": 592,
      "base": 593,
      "())": 594,
      "long": 595,
      "ag": 596,
      "OD": 597,
      "=(": 598,
      "Ġ_": 599,
      "Ġpush": 600,
      "Ġmin": 601,
      "Ġ>=": 602,
      "Ġ3": 603,
      "Ġh": 604,
      "AX": 605,
      "ĠR": 606,
      "typename": 607,
      "ot": 608,
      "Ġcnt": 609,
      "ic": 610,
      "que": 611,
      "ul": 612,
      "Ġprintf": 613,
      "........": 614,
      "ĠĠĠĠĠ": 615,
      "bool": 616,
      "char": 617,
      "Ġst": 618,
      "em": 619,
      "cnt": 620,
      "Ġ#": 621,
      "class": 622,
      "};": 623,
      "ist": 624,
      "dp": 625,
      "Ġsecond": 626,
      "of": 627,
      "____": 628,
      "un": 629,
      "((": 630,
      "Ġios": 631,
      "00000000": 632,
      "map": 633,
      ";;": 634,
      "ĉĉ": 635,
      "Ġval": 636,
      "while": 637,
      "Ġpb": 638,
      "';": 639,
      "ĊĠĠ": 640,
      "es": 641,
      "sert": 642,
      "tin": 643,
      "Ġmake": 644,
      "ast": 645,
      "mod": 646,
      "ort": 647,
      "txt": 648,
      "ĠL": 649,
      "64": 650,
      "Ġvoid": 651,
      "auto": 652,
      "Ġmp": 653,
      "****************": 654,
      "om": 655,
      "err": 656,
      "false": 657,
      ",,": 658,
      "ion": 659,
      "ĊĠĠĠĠĠĠĠĠĠĠĠĠĠĠĠĠĠĠĠ": 660,
      "+=": 661,
      "ign": 662,
      "--)": 663,
      "fs": 664,
      "â£¿": 665,
      "')": 666,
      "olve": 667,
      "ck": 668,
      "(){": 669,
      "GG": 670,
      "âĸĳ": 671,
      "Ġ\"<<": 672,
      "inline": 673,
      "cur": 674,
      "Ġsz": 675,
      "bu": 676,
      "ak": 677,
      "ĠMOD": 678,
      "min": 679,
      "res": 680,
      "Ġ((": 681,
      "Ġ||": 682,
      "ĠD": 683,
      "val": 684,
      "tr": 685,
      "000": 686,
      "ĠC": 687,
      "====": 688,
      "Ġget": 689,
      ">=": 690,
      "Ġde": 691,
      "ĠG": 692,
      "DDDD": 693,
      "\",&": 694,
      "pp": 695,
      "il": 696,
      "Ġsum": 697,
      "());": 698,
      "Ġtyp": 699,
      "Ġall": 700,
      "Ġoperator": 701,
      "\");": 702,
      "Ġcur": 703,
      "orde": 704,
      "ap": 705,
      "pos": 706,
      "INF": 707,
      "ge": 708,
      "OR": 709,
      "11": 710,
      "]==": 711,
      "cd": 712,
      "ind": 713,
      "ount": 714,
      "--;": 715,
      "node": 716,
      ",-": 717,
      "Ġstring": 718,
      "igned": 719,
      "ĠI": 720,
      "Ġld": 721,
      "endif": 722,
      "ext": 723,
      "\")": 724,
      "tinue": 725,
      "Ġtrue": 726,
      "ath": 727,
      "arr": 728,
      "reak": 729,
      "iostream": 730,
      "queue": 731,
      "lld": 732,
      "lo": 733,
      "ime": 734,
      "8888": 735,
      "Ġpii": 736,
      "Ġfreopen": 737,
      "ĠB": 738,
      "Ġsize": 739,
      "->": 740,
      "MAX": 741,
      "]]": 742,
      "sum": 743,
      "Ġmid": 744,
      "he": 745,
      "Ġmem": 746,
      "Ġto": 747,
      "freopen": 748,
      "Ġad": 749,
      "Ġz": 750,
      "âĸĳâĸĳ": 751,
      "tim": 752,
      "EP": 753,
      "ithm": 754,
      "â£¿â£¿": 755,
      "gor": 756,
      "Ċĉĉĉĉ": 757,
      "pd": 758,
      "ĠĠĠĠĠĠĠĠĠĠĠĠĠĠĠĠĠĠĠĠĠĠĠĠĠĠĠĠĠĠĠĠ": 759,
      "gorithm": 760,
      "Ġbool": 761,
      "Ġ\";": 762,
      "âĸĪ": 763,
      "Ġ?": 764,
      "99": 765,
      "ds": 766,
      "Ġfalse": 767,
      "algorithm": 768,
      "Ġsolve": 769,
      "Ġarr": 770,
      "scanf": 771,
      "tree": 772,
      "Ġse": 773,
      "ver": 774,
      "Ġ'\\": 775,
      "len": 776,
      "all": 777,
      "printf": 778,
      "gs": 779,
      "nsigned": 780,
      "cm": 781,
      "]-": 782,
      "num": 783,
      "double": 784,
      "Ġrep": 785,
      "ĠĠĠĠĠĠ": 786,
      "bs": 787,
      "ĊĊĠĠĠĠĠĠĠ": 788,
      "ĠINF": 789,
      "ent": 790,
      "ix": 791,
      "Ġ100000000": 792,
      "ower": 793,
      "agma": 794,
      "ĠĠĠĠĠĠĠĠĠĠĠ": 795,
      "pragma": 796,
      "KKKKKKKK": 797,
      "////////": 798,
      "ES": 799,
      "pop": 800,
      "get": 801,
      "th": 802,
      "Ġtypename": 803,
      "NO": 804,
      "Ġout": 805,
      "&&": 806,
      "Ġstdin": 807,
      "pre": 808,
      "est": 809,
      "Ġret": 810,
      "Ġ10": 811,
      "Ġsort": 812,
      "AR": 813,
      "Ġ5": 814,
      "Ġcl": 815,
      "sz": 816,
      "*(": 817,
      "ĠLL": 818,
      "ostream": 819,
      "Ġchar": 820,
      "Ġis": 821,
      "red": 822,
      "ff": 823,
      "Ġdfs": 824,
      "Ġunsigned": 825,
      "Ġ7": 826,
      "to": 827,
      "++--": 828,
      "]+": 829,
      "Ġpos": 830,
      "Ġinf": 831,
      "Ġvi": 832,
      "ĠFOR": 833,
      "(!": 834,
      "----------------": 835,
      "ub": 836,
      "Ġ-=": 837,
      "omp": 838,
      "Ġ(!": 839,
      "fr": 840,
      ")%": 841,
      "++--++--": 842,
      "ld": 843,
      "ay": 844,
      "ĠV": 845,
      "Ġcontinue": 846,
      "ound": 847,
      "Ġset": 848,
      "ULL": 849,
      "Ġ\\": 850,
      "mx": 851,
      "Ġcerr": 852,
      "Ġinline": 853,
      "ios": 854,
      "oint": 855,
      "MMMM": 856,
      "ĊĉĊ": 857,
      "Ġ);": 858,
      "/*": 859,
      "count": 860,
      "ft": 861,
      "ĠGC": 862,
      "Ġmemset": 863,
      "ull": 864,
      "input": 865,
      "32": 866,
      "Ġtree": 867,
      "\",\"": 868,
      "Ġos": 869,
      "Ġbreak": 870,
      "Ġid": 871,
      "ex": 872,
      ")(": 873,
      "ifdef": 874,
      "ht": 875,
      "pdate": 876,
      "########": 877,
      ");}": 878,
      "ĠĠĠĠĠĠĠĠĠ": 879,
      "sk": 880,
      "ĠGCC": 881,
      "ps": 882,
      "Ġgcd": 883,
      "ĠO": 884,
      "ss": 885,
      "',": 886,
      "insert": 887,
      "Ġ4": 888,
      "ordered": 889,
      "Ġ--": 890,
      "âĸĪâĸĪ": 891,
      "Ġmx": 892,
      "cmath": 893,
      "Ġ\"\\": 894,
      "ĠMAX": 895,
      "âĸĴ": 896,
      "53": 897,
      "vi": 898,
      "Ġpre": 899,
      "ï¿½ï¿½ï¿½ï¿½": 900,
      "ta": 901,
      "li": 902,
      "Ġfi": 903,
      "Ġstr": 904,
      "18": 905,
      "*/": 906,
      ")/": 907,
      "ight": 908,
      "\"<<": 909,
      "mid": 910,
      "15": 911,
      "GS": 912,
      "idx": 913,
      "cstdio": 914,
      "Ġ1000000007": 915,
      "100": 916,
      "Ġfr": 917,
      "and": 918,
      "Ġ\",": 919,
      "stack": 920,
      "Ġclass": 921,
      ",&": 922,
      "Ġnum": 923,
      "ro": 924,
      "Ġstdout": 925,
      "bug": 926,
      "Ġlen": 927,
      "26": 928,
      "art": 929,
      "pii": 930,
      "NULL": 931,
      "fi": 932,
      "now": 933,
      "YES": 934,
      "________": 935,
      "uct": 936,
      "Ġadd": 937,
      "sizeof": 938,
      "10000": 939,
      "ip": 940,
      "ĊĠĠĠĠĠĠĠĠ": 941,
      "Ġread": 942,
      "................": 943,
      "ĠPI": 944,
      "ce": 945,
      "ax": 946,
      "bound": 947,
      "EEEEEEEE": 948,
      "[]": 949,
      "ĠU": 950,
      "ost": 951,
      "sed": 952,
      "========": 953,
      "ty": 954,
      "Ġ]": 955,
      "(-": 956,
      "//#": 957,
      "fl": 958,
      "Ġpll": 959,
      "ĊĊĊĊ": 960,
      ">&": 961,
      "'.": 962,
      "ity": 963,
      "ĠAr": 964,
      "hpp": 965,
      "ĊĠĠĠĠĊĠĠĠ": 966,
      "14": 967,
      "...)": 968,
      "output": 969,
      "12": 970,
      "@@": 971,
      "vis": 972,
      "ARGS": 973,
      "oc": 974,
      "]++;": 975,
      "uer": 976,
      "Ġpi": 977,
      "Ġoptim": 978,
      "ment": 979,
      "ĠĠĠĠĠĠĠĠĠĠ": 980,
      "eck": 981,
      "MAXN": 982,
      "sse": 983,
      "SE": 984,
      "ite": 985,
      ";;;;": 986,
      "ĊĠĠĠĠĠĠĠĠĠĠĠĠĠĠĠĠĠĠĠĠĠĠĠ": 987,
      "ĠX": 988,
      "are": 989,
      "Ġ.": 990,
      "({": 991,
      "VA": 992,
      "cstring": 993,
      "his": 994,
      "ĠE": 995,
      "order": 996,
      "Ġull": 997,
      "Ġtmp": 998,
      "uery": 999,
      "Ġ!": 1000,
      "ĠREP": 1001,
      "âĸĴâĸĴ": 1002,
      "OC": 1003,
      "Ġoptimize": 1004,
      ";++": 1005,
      "ec": 1006,
      "Ġtemplate": 1007,
      "iterator": 1008,
      "wap": 1009,
      "Ġmap": 1010,
      "********************************": 1011,
      "act": 1012,
      "Ġac": 1013,
      "20": 1014,
      ",,,,": 1015,
      "erase": 1016,
      "ĊĊĠ": 1017,
      "ĊĠĠĠĠĠĠ": 1018,
      "Ġsq": 1019,
      "Ġmul": 1020,
      "ction": 1021,
      "Ġ[": 1022,
      "Ġne": 1023,
      "Ġle": 1024,
      "Ġss": 1025,
      "().": 1026,
      "stdin": 1027,
      "Ġ10000": 1028,
      "verse": 1029,
      ">(": 1030,
      "});": 1031,
      "Ġsizeof": 1032,
      "::::": 1033,
      "Ġput": 1034,
      "]){": 1035,
      "abs": 1036,
      "');": 1037,
      "Ġii": 1038,
      "Ġ*/": 1039,
      "Ġdebug": 1040,
      "up": 1041,
      "INE": 1042,
      "assert": 1043,
      "WWWWWWWW": 1044,
      "ĊĠĠĠĠĠĠĠĠĠ": 1045,
      "MOD": 1046,
      "struct": 1047,
      "33": 1048,
      "tmp": 1049,
      "lib": 1050,
      ">,": 1051,
      "ont": 1052,
      "97": 1053,
      "buil": 1054,
      "Ġvalue": 1055,
      "sort": 1056,
      "empty": 1057,
      "cerr": 1058,
      "rep": 1059,
      "Ġnode": 1060,
      "LINE": 1061,
      "ep": 1062,
      "gn": 1063,
      "man": 1064,
      "Ġbu": 1065,
      "GGGG": 1066,
      "Ġtemp": 1067,
      "unordered": 1068,
      "Ġvis": 1069,
      "Ġeps": 1070,
      "Ġthe": 1071,
      "ĠĠĠĠĠĠĠĠĠĠĠĠĠ": 1072,
      "stdlib": 1073,
      "///": 1074,
      "Ġauto": 1075,
      "stat": 1076,
      "Ġof": 1077,
      "cle": 1078,
      "Ċĉĉĉĉĉ": 1079,
      "maxn": 1080,
      "ĊĠĠĠĠĠĠĠĠĠĠĠĠĠĠĠĠĠĠĠĠĠĠĠĠĠĠĠĠ": 1081,
      "DG": 1082,
      "]=='": 1083,
      "update": 1084,
      "ata": 1085,
      "âķ": 1086,
      "prec": 1087,
      "az": 1088,
      "time": 1089,
      "DDDDDDDD": 1090,
      "ision": 1091,
      "ĊĠĠĠĠĠĠĠĠĠĠĠĠĠĠĠĠĠĠĠĠĠĠĠĠĠĠĠĠĠĠĠĠĠĠĠĠĠĠĠĠĠĠĠĠ": 1092,
      "front": 1093,
      "','.": 1094,
      "Ġand": 1095,
      "Ġ*=": 1096,
      "ĊĊĉ": 1097,
      "atr": 1098,
      "1000": 1099,
      "Ġex": 1100,
      "Ġsc": 1101,
      "ok": 1102,
      "clo": 1103,
      "<<'": 1104,
      "Ġ%=": 1105,
      "bitset": 1106,
      "Ġlo": 1107,
      "ĠĠĠĠĠĠĠĠĠĠĠĠĠĠĠ": 1108,
      ")-": 1109,
      "Ġarg": 1110,
      "<<(": 1111,
      "precision": 1112,
      "Ġdist": 1113,
      "24": 1114,
      ")+": 1115,
      "WWW": 1116,
      "find": 1117,
      "Ġend": 1118,
      "Int": 1119,
      "ĠĠĠĠĠĠĠĠĠĠĠĠ": 1120,
      "ult": 1121,
      "Ġmn": 1122,
      "////////////////": 1123,
      "gcd": 1124,
      "ioman": 1125,
      "iomanip": 1126,
      "88888888": 1127,
      "]={": 1128,
      "Ġ(\"": 1129,
      "Ġ^": 1130,
      "(...)": 1131,
      "mem": 1132,
      ">;": 1133,
      "âĸĢ": 1134,
      "âł": 1135,
      "ore": 1136,
      "Ġadj": 1137,
      "mn": 1138,
      "Ġabs": 1139,
      "(__": 1140,
      "++--++--++--++--": 1141,
      "58": 1142,
      "Ġacos": 1143,
      "Ġ1000": 1144,
      "gth": 1145,
      "stdout": 1146,
      "â£¿â£¿â£¿â£¿": 1147,
      "Ġok": 1148,
      "(_": 1149,
      "ab": 1150,
      "Ġ\"<<#": 1151,
      "unction": 1152,
      "resize": 1153,
      "Ġinclude": 1154,
      "Ġdb": 1155,
      "EEE": 1156,
      "JU": 1157,
      "one": 1158,
      ")*": 1159,
      "ER": 1160,
      "break": 1161,
      "<<\"\\": 1162,
      "Ġlast": 1163,
      "atrix": 1164,
      "AL": 1165,
      "Ġfast": 1166,
      "DGE": 1167,
      "top": 1168,
      "JUDGE": 1169,
      "NLINE": 1170,
      "Ġvec": 1171,
      "<(": 1172,
      "vec": 1173,
      "pper": 1174,
      "builtin": 1175,
      "Ġbase": 1176,
      "Ġ6": 1177,
      "ange": 1178,
      "EB": 1179,
      "dist": 1180,
      "ĠH": 1181,
      "159": 1182,
      "its": 1183,
      "Ġ';": 1184,
      "cstdlib": 1185,
      "temp": 1186,
      "Ġdefine": 1187,
      "list": 1188,
      "continue": 1189,
      "Ġostream": 1190,
      "rand": 1191,
      ")*(": 1192,
      "arent": 1193,
      "14159": 1194,
      "Ġcom": 1195,
      "mask": 1196,
      "comp": 1197,
      "dfs": 1198,
      "ptr": 1199,
      "clock": 1200,
      "1415926": 1201,
      ")<<": 1202,
      "Ġ/=": 1203,
      "rite": 1204,
      "--){": 1205,
      "||": 1206,
      "dex": 1207,
      "this": 1208,
      "xx": 1209,
      "lock": 1210,
      "ndef": 1211,
      "ead": 1212,
      "KKK": 1213,
      "Ġtype": 1214,
      "rr": 1215,
      "In": 1216,
      "name": 1217,
      "Ġfl": 1218,
      "Ġas": 1219,
      "par": 1220,
      "ie": 1221,
      "â¢": 1222,
      "','.','.": 1223,
      "Ġth": 1224,
      "gnu": 1225,
      "Max": 1226,
      "add": 1227,
      "ash": 1228,
      "43": 1229,
      "ess": 1230,
      "Ġcheck": 1231,
      "Ġgo": 1232,
      "args": 1233,
      "ĠONLINE": 1234,
      "âĸĦ": 1235,
      "ST": 1236,
      "à¦": 1237,
      "ifndef": 1238,
      "âĸĳâĸĳâĸĳâĸĳ": 1239,
      "rbegin": 1240,
      "Ġpar": 1241,
      "tag": 1242,
      "Ġidx": 1243,
      "ĊĊĊ": 1244,
      "deque": 1245,
      "iner": 1246,
      "true": 1247,
      "]!=": 1248,
      "Ġswap": 1249,
      "Ġtot": 1250,
      "tainer": 1251,
      "22": 1252,
      "Ġhi": 1253,
      "clear": 1254,
      "141592653": 1255,
      "Ġdx": 1256,
      "EPS": 1257,
      "ĠMAXN": 1258,
      ">::": 1259,
      "('": 1260,
      "si": 1261,
      "Ġcomp": 1262,
      "Ġvv": 1263,
      "37": 1264,
      "ne": 1265,
      "ixed": 1266,
      "solve": 1267,
      "ior": 1268,
      "Ġdy": 1269,
      "sstream": 1270,
      "MMMMMMMM": 1271,
      "},": 1272,
      "Ġfind": 1273,
      "30": 1274,
      "Ġff": 1275,
      "50": 1276,
      "Ġquery": 1277,
      "]*": 1278,
      "col": 1279,
      "ctime": 1280,
      "Ġdi": 1281,
      "azy": 1282,
      "lex": 1283,
      "iority": 1284,
      "pl": 1285,
      "Ġputs": 1286,
      "Ġsh": 1287,
      "OCAL": 1288,
      "SEC": 1289,
      "Ġed": 1290,
      "length": 1291,
      "Ġnow": 1292,
      "UG": 1293,
      "ĠY": 1294,
      "Ġun": 1295,
      "di": 1296,
      "Ġbit": 1297,
      "Ġ){": 1298,
      "<<\":": 1299,
      "ĠK": 1300,
      "pbds": 1301,
      "-=": 1302,
      "55": 1303,
      "cc": 1304,
      "istream": 1305,
      "################": 1306,
      "function": 1307,
      "(),(": 1308,
      "AC": 1309,
      "container": 1310,
      "/=": 1311,
      "fast": 1312,
      "ink": 1313,
      "00005": 1314,
      "pow": 1315,
      "tt": 1316,
      "Ġprint": 1317,
      "Ġ};": 1318,
      "ics": 1319,
      "null": 1320,
      "alc": 1321,
      "adj": 1322,
      "last": 1323,
      "aa": 1324,
      "Ġen": 1325,
      "Ġ100": 1326,
      "uti": 1327,
      "chr": 1328,
      "ĠLOCAL": 1329,
      "pll": 1330,
      "istics": 1331,
      "LE": 1332,
      "EBUG": 1333,
      "ber": 1334,
      "IO": 1335,
      "ation": 1336,
      "Ġupdate": 1337,
      "hs": 1338,
      "arget": 1339,
      "statistics": 1340,
      "Ġ++)": 1341,
      "assoc": 1342,
      "ng": 1343,
      "pol": 1344,
      "ĠIn": 1345,
      "av": 1346,
      "cassert": 1347,
      "ĠEPS": 1348,
      "Ġ9": 1349,
      "make": 1350,
      "Ġnext": 1351,
      "operator": 1352,
      "dd": 1353,
      "ĊĊĠĠĠĠĠĠĠĠĠĠĠ": 1354,
      ":.": 1355,
      "...);": 1356,
      "ĠĊ": 1357,
      "â¡": 1358,
      "ĠArgs": 1359,
      "left": 1360,
      "Ġcount": 1361,
      "<<\"=": 1362,
      "]-'": 1363,
      "16": 1364,
      "KKKKK": 1365,
      "__)": 1366,
      "row": 1367,
      "Ġargs": 1368,
      "38": 1369,
      "Ġstart": 1370,
      "el": 1371,
      "Ġ{}": 1372,
      "sub": 1373,
      "Ġcol": 1374,
      "gh": 1375,
      "popcount": 1376,
      "ono": 1377,
      "root": 1378,
      "Ġï¿½ï¿½ï¿½ï¿½": 1379,
      "<<#": 1380,
      "998": 1381,
      "Ġmaxn": 1382,
      "ĠArg": 1383,
      "Ġvll": 1384,
      "value": 1385,
      "=-": 1386,
      "Ġnxt": 1387,
      "Ġtarget": 1388,
      "14159265358": 1389,
      "Ġpoint": 1390,
      "Ġ\":": 1391,
      "rend": 1392,
      "polic": 1393,
      "=='": 1394,
      "Ġlower": 1395,
      "46": 1396,
      "inf": 1397,
      "It": 1398,
      "pt": 1399,
      "oot": 1400,
      "<<\"=\"<<": 1401,
      "Ġpower": 1402,
      "ive": 1403,
      "ĊĠĠĠĠĠĠĠĠĠĠ": 1404,
      "Ġseg": 1405,
      "Ġgetchar": 1406,
      "Ġbe": 1407,
      "Ġleft": 1408,
      "Ġ()": 1409,
      "lli": 1410,
      "Ġright": 1411,
      "ha": 1412,
      "]+=": 1413,
      "read": 1414,
      "lim": 1415,
      "Ġinit": 1416,
      "eric": 1417,
      "]));": 1418,
      "mt": 1419,
      "Ġsqr": 1420,
      "used": 1421,
      "ĠW": 1422,
      "1415926535897": 1423,
      "Ġnew": 1424,
      "99824": 1425,
      "Ġparent": 1426,
      "31": 1427,
      "56": 1428,
      "ĠĊĠĠĠ": 1429,
      "functional": 1430,
      "Ġgr": 1431,
      "lic": 1432,
      "FOR": 1433,
      "ild": 1434,
      "ME": 1435,
      "Size": 1436,
      "================": 1437,
      "9982443": 1438,
      "Ġscan": 1439,
      "14159265358979": 1440,
      "998244353": 1441,
      "ype": 1442,
      "ary": 1443,
      "()-": 1444,
      "Ġforn": 1445,
      "ĠQ": 1446,
      ")))": 1447,
      "policy": 1448,
      "tot": 1449,
      "ĊĉĠĠĠ": 1450,
      "wer": 1451,
      "Ġhe": 1452,
      "iff": 1453,
      "1111": 1454,
      "34": 1455,
      "Ġnull": 1456,
      "Ġless": 1457,
      "Ġpow": 1458,
      "@@@@": 1459,
      "]];": 1460,
      "<<\"=\"<<(": 1461,
      "expr": 1462,
      "Ġind": 1463,
      "Ġreverse": 1464,
      "Ġ...": 1465,
      "mul": 1466,
      "Ġvii": 1467,
      "typeof": 1468,
      "Ġ->": 1469,
      "seg": 1470,
      "ges": 1471,
      "Ġrb": 1472,
      "ĠSZ": 1473,
      "hild": 1474,
      "lf": 1475,
      "ĠĠĠĠĠĠĠĠĠĠĠĠĠĠ": 1476,
      "]].": 1477,
      "Ġusing": 1478,
      "RE": 1479,
      "ero": 1480,
      "Ġused": 1481,
      "ĊĠĠĠĠĉ": 1482,
      "Ġsp": 1483,
      "--------------------------------": 1484,
      "UT": 1485,
      "Ġfact": 1486,
      "Ġresult": 1487,
      "Ġyou": 1488,
      "ublic": 1489,
      "next": 1490,
      "inv": 1491,
      "INT": 1492,
      "ique": 1493,
      "chrono": 1494,
      "[]={": 1495,
      "Ġ>>=": 1496,
      "Ġpf": 1497,
      "ĠIO": 1498,
      "Ġfrom": 1499,
      "nxt": 1500,
      "Ġpop": 1501,
      "numeric": 1502,
      "Ġbuild": 1503,
      "Ġmy": 1504,
      "-'": 1505,
      "low": 1506,
      "Ġroot": 1507,
      "sc": 1508,
      "(\"-": 1509,
      "Ġassert": 1510,
      "com": 1511,
      "]>": 1512,
      "77": 1513,
      "KKKKKKKKKKKKKKKK": 1514,
      "Ġ/*": 1515,
      "right": 1516,
      "199": 1517,
      "point": 1518,
      "qu": 1519,
      "fstream": 1520,
      "Ġtest": 1521,
      "RT": 1522,
      "go": 1523,
      "Ġpriority": 1524,
      "Ġor": 1525,
      "âĸĪâĸĪâĸĪâĸĪ": 1526,
      "ĊĉĉĊĉ": 1527,
      "]<<\"": 1528,
      "start": 1529,
      "1415926535897932": 1530,
      "Ġinv": 1531,
      "ater": 1532,
      "+(": 1533,
      "ĉĉĉ": 1534,
      "flag": 1535,
      "FF": 1536,
      ",;": 1537,
      "]--;": 1538,
      "II": 1539,
      "]))": 1540,
      "link": 1541,
      "check": 1542,
      "Ġfixed": 1543,
      "ob": 1544,
      "Ġ::": 1545,
      "Ġsub": 1546,
      "imes": 1547,
      "Ġsol": 1548,
      "Ġmask": 1549,
      "ove": 1550,
      "lace": 1551,
      "aph": 1552,
      "Ġon": 1553,
      "Matrix": 1554,
      "nullptr": 1555,
      "orm": 1556,
      "uple": 1557,
      "no": 1558,
      "sq": 1559,
      "ĠĠĠĠĠĠĠĠĠĠĠĠĠĠĠĠĠĠĠĠĠĠĠĠĠĠĠĠĠĠĠĠĠĠĠĠĠĠĠĠĠĠĠĠĠĠĠĠĠĠĠĠĠĠĠĠĠĠĠĠĠĠĠĠ": 1560,
      "lement": 1561,
      "%=": 1562,
      "pi": 1563,
      "Ġtrace": 1564,
      "fact": 1565,
      "ular": 1566,
      "ĊĉĠ": 1567,
      "reater": 1568,
      "main": 1569,
      "data": 1570,
      "math": 1571,
      "01": 1572,
      "(*": 1573,
      "ĠMod": 1574,
      "edge": 1575,
      "Ġupper": 1576,
      ")){": 1577,
      "bb": 1578,
      "Ġsqrt": 1579,
      "test": 1580,
      "ah": 1581,
      "Ġrem": 1582,
      "dis": 1583,
      "141592653589793238": 1584,
      "]<": 1585,
      "Ġlcm": 1586,
      "200": 1587,
      "PER": 1588,
      "ail": 1589,
      "ros": 1590,
      "Ġdep": 1591,
      "uff": 1592,
      "MP": 1593,
      "Ġemp": 1594,
      "signed": 1595,
      "Ġdo": 1596,
      "+=(": 1597,
      "Ġat": 1598,
      "prime": 1599,
      ",(": 1600,
      "Mod": 1601,
      "Ġcan": 1602,
      "Ġflag": 1603,
      "Node": 1604,
      "19937": 1605,
      "RO": 1606,
      "Ġvvi": 1607,
      ",+": 1608,
      "REP": 1609,
      "-(": 1610,
      "(\"\\": 1611,
      "puts": 1612,
      "Ġwrite": 1613,
      "Ġdis": 1614,
      "Ġ998244353": 1615,
      "Ġcost": 1616,
      "OCK": 1617,
      "memset": 1618,
      "LOCK": 1619,
      "Ġlow": 1620,
      "Ġmd": 1621,
      "()){": 1622,
      "*=": 1623,
      "gr": 1624,
      "14159265358979323846": 1625,
      "IT": 1626,
      "Ġpref": 1627,
      "Ġpq": 1628,
      "]][": 1629,
      "Ġtypedef": 1630,
      "Ġ31": 1631,
      "dig": 1632,
      "Ġsetprecision": 1633,
      "No": 1634,
      "________________": 1635,
      "ĠDEBUG": 1636,
      "Ġ8": 1637,
      "âĸĴâĸĴâĸĴâĸĴ": 1638,
      "ĊĠĠĠĠĠĠĠĠĠĠĠĠĠĠĠĠ": 1639,
      "unique": 1640,
      "able": 1641,
      "atch": 1642,
      "dge": 1643,
      "'){": 1644,
      "ILE": 1645,
      "Ġms": 1646,
      "swap": 1647,
      "100005": 1648,
      "++--++--++--++--++--++--++--++--": 1649,
      "Ġclock": 1650,
      "Ġprime": 1651,
      "per": 1652,
      "âĸĢâĸĢ": 1653,
      "Ġ20": 1654,
      "LOCKS": 1655,
      "ON": 1656,
      "exp": 1657,
      "yy": 1658,
      "[(": 1659,
      "getchar": 1660,
      "Ġpa": 1661,
      "79": 1662,
      "uint": 1663,
      "48": 1664,
      "Ġordered": 1665,
      "MX": 1666,
      "pa": 1667,
      "public": 1668,
      "ark": 1669,
      "00000": 1670,
      "iii": 1671,
      "Ġuint": 1672,
      "vv": 1673,
      "ĠALL": 1674,
      "oo": 1675,
      "Ġvs": 1676,
      "sin": 1677,
      "rem": 1678,
      "ĊĊĊĠĠĠ": 1679,
      "ill": 1680,
      "~~": 1681,
      "]=(": 1682,
      "loop": 1683,
      "query": 1684,
      "Ġxx": 1685,
      "Ġpt": 1686,
      "Ġup": 1687,
      "******": 1688,
      "ĊĠĠĠĠĠĠĠĠĠĠĠĠĠ": 1689,
      "Point": 1690,
      "]]++;": 1691,
      "&(": 1692,
      "Ġbegin": 1693,
      "19": 1694,
      "100000000": 1695,
      "eger": 1696,
      "Ġque": 1697,
      "Ġmulti": 1698,
      "ited": 1699,
      "Ġ'<<": 1700,
      "be": 1701,
      "tion": 1702,
      "Ġcomment": 1703,
      "Val": 1704,
      "Ġerr": 1705,
      "Ġ),": 1706,
      "500": 1707,
      "avx": 1708,
      "odd": 1709,
      "cost": 1710,
      "lity": 1711,
      "17": 1712,
      "DE": 1713,
      "WK": 1714,
      ",_": 1715,
      "hash": 1716,
      "har": 1717,
      "jj": 1718,
      "ative": 1719,
      ")<<\",": 1720,
      "from": 1721,
      "index": 1722,
      ")));": 1723,
      "vl": 1724,
      "ly": 1725,
      "och": 1726,
      "Ġpw": 1727,
      "ory": 1728,
      "Ofast": 1729,
      "linker": 1730,
      "ave": 1731,
      "complex": 1732,
      "ven": 1733,
      ");++": 1734,
      "Ġver": 1735,
      "dep": 1736,
      "ang": 1737,
      "):": 1738,
      "epoch": 1739,
      "since": 1740,
      "Ġ(((": 1741,
      "curr": 1742,
      "Ġexit": 1743,
      "random": 1744,
      "Ġ\"/": 1745,
      "]),": 1746,
      "23": 1747,
      "req": 1748,
      "////////////////////////////////": 1749,
      "-')": 1750,
      "GGGGGGGG": 1751,
      "wo": 1752,
      "Ġbin": 1753,
      "/**": 1754,
      "sh": 1755,
      "write": 1756,
      "ach": 1757,
      "su": 1758,
      "Ġpp": 1759,
      "Ġdbg": 1760,
      "Ġiter": 1761,
      "arg": 1762,
      "Ġthis": 1763,
      "Ġanswer": 1764,
      "++]": 1765,
      "mark": 1766,
      "Ġ100000": 1767,
      "MatrixSize": 1768,
      "Ġsf": 1769,
      "Ġrall": 1770,
      "utility": 1771,
      "Ġcalc": 1772,
      "100000": 1773,
      ">>(": 1774,
      "]])": 1775,
      "acro": 1776,
      "our": 1777,
      "Ġbest": 1778,
      "ĠIOS": 1779,
      "substr": 1780,
      "),(": 1781,
      "Ġ^=": 1782,
      "59": 1783,
      "Ġ///": 1784,
      "28": 1785,
      "lazy": 1786,
      "Ġtm": 1787,
      "stead": 1788,
      "Ġke": 1789,
      "own": 1790,
      "Ġinput": 1791,
      "Iterator": 1792,
      "heap": 1793,
      "MaxMatrixSize": 1794,
      "âĸĮ": 1795,
      "Ġneed": 1796,
      "AS": 1797,
      "Ġ++;": 1798,
      "Ġstat": 1799,
      "Ġcmp": 1800,
      "Ġno": 1801,
      "Ġdata": 1802,
      "init": 1803,
      "Pos": 1804,
      "ca": 1805,
      "Time": 1806,
      "vel": 1807,
      "array": 1808,
      "ĊĊĊĊĊĊĊĊ": 1809,
      "lower": 1810,
      "Ġprev": 1811,
      "Ġ\")": 1812,
      ".....": 1813,
      "27": 1814,
      "Ġoo": 1815,
      "ĠPoint": 1816,
      "Ġlb": 1817,
      "Ġrhs": 1818,
      "stringstream": 1819,
      "rk": 1820,
      "Ġvl": 1821,
      "constexpr": 1822,
      "ĠInt": 1823,
      "Ġ30": 1824,
      "Ġyy": 1825,
      "Ġlli": 1826,
      "Ġaa": 1827,
      "sim": 1828,
      "60": 1829,
      "vs": 1830,
      "Ġ(*": 1831,
      "te": 1832,
      "Ġrng": 1833,
      "Ġputchar": 1834,
      "++,": 1835,
      "TES": 1836,
      "ross": 1837,
      "AT": 1838,
      "mat": 1839,
      "Char": 1840,
      "Ġ26": 1841,
      "names": 1842,
      "','.','.','.','.": 1843,
      "9999": 1844,
      "__,": 1845,
      "static": 1846,
      "ĊĊĠĠ": 1847,
      "new": 1848,
      "âķĲ": 1849,
      "steady": 1850,
      "ĠMax": 1851,
      "buf": 1852,
      "Ġ\"]": 1853,
      "iv": 1854,
      "Ġlazy": 1855,
      "................................": 1856,
      "co": 1857,
      "___": 1858,
      ")==": 1859,
      "ĠPII": 1860,
      "29": 1861,
      "Ġ'.": 1862,
      "Ġwh": 1863,
      "ms": 1864,
      "Ġtt": 1865,
      "memory": 1866,
      "------": 1867,
      "db": 1868,
      "Ġstatic": 1869,
      "CRT": 1870,
      "less": 1871,
      "emplace": 1872,
      "Case": 1873,
      "Count": 1874,
      "Ġemplace": 1875,
      "Ġtl": 1876,
      "URE": 1877,
      "Ġbig": 1878,
      "###": 1879,
      "Ġindex": 1880,
      "13": 1881,
      "erge": 1882,
      "KKKKKKK": 1883,
      "ĠĠĠĠĠĠĠĠĠĠĠĠĠĠĠĠĠ": 1884,
      "Ġnot": 1885,
      "ĠMP": 1886,
      "hor": 1887,
      "Yes": 1888,
      "Ġistream": 1889,
      "Ġmt": 1890,
      "key": 1891,
      "power": 1892,
      "ĠDB": 1893,
      "','": 1894,
      "Tree": 1895,
      "ays": 1896,
      "ust": 1897,
      "SECURE": 1898,
      "tex": 1899,
      "Ġdel": 1900,
      "\".": 1901,
      "ĠPB": 1902,
      ";.": 1903,
      "ord": 1904,
      "ĊĠĠĠĠĠĠĠĠĠĠĠĠĠĠĠĠĠĠĠĠĠĠĠĠĠĠĠĠĠĠĠ": 1905,
      "200005": 1906,
      "Ġrange": 1907,
      "Ġupd": 1908,
      "mi": 1909,
      "Ġfill": 1910,
      "ĊĠĠĠĠĠĠĠĠĠĠĠĠĠĠ": 1911,
      "Ġgc": 1912,
      "Ġcurr": 1913,
      "Ġrev": 1914,
      "file": 1915,
      "pref": 1916,
      "sol": 1917,
      "Ġan": 1918,
      "Ġfin": 1919,
      "tf": 1920,
      "Type": 1921,
      "Ġtime": 1922,
      "ance": 1923,
      "element": 1924,
      "Ġbuf": 1925,
      "Ġedge": 1926,
      "]]=": 1927,
      "iiii": 1928,
      "ice": 1929,
      "<=(": 1930,
      ">>=": 1931,
      "tuple": 1932,
      "loat": 1933,
      "loops": 1934,
      "(;": 1935,
      "Ġcc": 1936,
      "ĠĊĠĠĠĠĠĠĠ": 1937,
      "Ġnorm": 1938,
      "cr": 1939,
      "Ġby": 1940,
      "Ġsu": 1941,
      "Ġli": 1942,
      "Ġline": 1943,
      "sqrt": 1944,
      "################################": 1945,
      "))%": 1946,
      "AN": 1947,
      "âĸĦâĸĦ": 1948,
      "ĉĊ": 1949,
      "ALL": 1950,
      "nx": 1951,
      "Ġarray": 1952,
      "},{": 1953,
      "ter": 1954,
      "Ġsi": 1955,
      "Ġmark": 1956,
      "%%": 1957,
      "Ġinsert": 1958,
      "Ġexp": 1959,
      "Ġ\"[": 1960,
      "ard": 1961,
      "iend": 1962,
      "popcnt": 1963,
      "rime": 1964,
      "reverse": 1965,
      "Ġmk": 1966,
      "OF": 1967,
      "ĊĊĉĉ": 1968,
      "âĶ": 1969,
      "();}": 1970,
      "ĊĠĠĠĠĠĠĠĠĊĠĠĠĠĠĠĠ": 1971,
      "calc": 1972,
      "digit": 1973,
      "Ġco": 1974,
      "Ġ',": 1975,
      "ĠMX": 1976,
      "roll": 1977,
      "Edge": 1978,
      "tl": 1979,
      "SZ": 1980,
      "Ġps": 1981,
      "Out": 1982,
      "/********************************": 1983,
      "md": 1984,
      "unsigned": 1985,
      ")),": 1986,
      "cp": 1987,
      "Ġrr": 1988,
      "Ġ|=": 1989,
      "1010": 1990,
      "DDD": 1991,
      "Ġfile": 1992,
      "multi": 1993,
      "mmx": 1994,
      "ĠFI": 1995,
      "flush": 1996,
      "ssse": 1997,
      ";;;;;;;;": 1998,
      "unroll": 1999,
      "Ġ(;": 2000,
      "ial": 2001,
      "abm": 2002,
      "IZ": 2003,
      "ift": 2004,
      "GGG": 2005,
      "âĶĢ": 2006,
      "Min": 2007,
      "KE": 2008,
      "40": 2009,
      "pq": 2010,
      "ank": 2011,
      ",,,,,,,,": 2012,
      "arch": 2013,
      "Arr": 2014,
      "ln": 2015,
      "mall": 2016,
      "âķ¬": 2017,
      "FS": 2018,
      "high": 2019,
      "8888888888888888": 2020,
      "])%": 2021,
      "DDDDDDDDDDDD": 2022,
      "57": 2023,
      "]%": 2024,
      "NIN": 2025,
      "br": 2026,
      "best": 2027,
      "ARNIN": 2028,
      "Ġdepth": 2029,
      "ET": 2030,
      "Ġmi": 2031,
      "Ġrand": 2032,
      "WARNIN": 2033,
      "ĊĠĠĠĠĠĠĠĠĠĠĠĠĠĠĠĠĠĠĠĠĠĠĠĠĠĠĠ": 2034,
      "ls": 2035,
      "WARNINGS": 2036,
      "]<<": 2037,
      "TT": 2038,
      "clim": 2039,
      "Integer": 2040,
      "Ġpc": 2041,
      "une": 2042,
      "FILE": 2043,
      "Ġthrow": 2044,
      "Ġdiff": 2045,
      "der": 2046,
      "Ġnumber": 2047,
      "Ġiterator": 2048,
      "ution": 2049,
      "Ġfore": 2050,
      "Ġub": 2051,
      "WWWWWWW": 2052,
      "climits": 2053,
      ">=(": 2054,
      "ĊĠĠĠĠĠĠĠĠĠĠĠĠĠĠĠĠĠ": 2055,
      "St": 2056,
      ")?": 2057,
      "]>=": 2058,
      "=\"": 2059,
      "uthor": 2060,
      "flow": 2061,
      "limits": 2062,
      "fixed": 2063,
      "ra": 2064,
      "OUT": 2065,
      "setprecision": 2066,
      "AST": 2067,
      "\\\\": 2068,
      "Ġrow": 2069,
      "maxN": 2070,
      "Ġbs": 2071,
      "3456": 2072,
      "MMMMMMMMMMMMMMMM": 2073,
      "Ġone": 2074,
      "IZE": 2075,
      "!!": 2076,
      "à§": 2077,
      "Ġnames": 2078,
      "native": 2079,
      "Ġ');": 2080,
      "WWWWWW": 2081,
      "Line": 2082,
      "diff": 2083,
      "EEEEEEEEEEEE": 2084,
      "Ġ.,;": 2085,
      "**************": 2086,
      "Ġstruct": 2087,
      "mm": 2088,
      "â£¿â£¿â£¿â£¿â£¿â£¿â£¿â£¿": 2089,
      "Ġedges": 2090,
      "by": 2091,
      "dx": 2092,
      "prev": 2093,
      "Ġ\"\";": 2094,
      "ĠFor": 2095,
      "EC": 2096,
      "â£¿â£": 2097,
      "tune": 2098,
      "Ġneg": 2099,
      "Ġtotal": 2100,
      "://": 2101,
      "onent": 2102,
      "use": 2103,
      "21": 2104,
      "]<=": 2105,
      "DEBUG": 2106,
      "Ġ32": 2107,
      "Ġgraph": 2108,
      "ĠĠĠĠĠĠĠĠĠĠĠĠĠĠĠĠĠĠĠĠ": 2109,
      "Ġ{-": 2110,
      "KKKKKK": 2111,
      "\"\"": 2112,
      "âĸĲ": 2113,
      "00010": 2114,
      "Ġper": 2115,
      "Ġrt": 2116,
      "Ġzero": 2117,
      "NN": 2118,
      "sible": 2119,
      "*-": 2120,
      "print": 2121,
      "Ġprimes": 2122,
      "<<'\\": 2123,
      "ik": 2124,
      "Ġ(__": 2125,
      "itr": 2126,
      "debug": 2127,
      "Ġare": 2128,
      "Ġ100005": 2129,
      "Ġhigh": 2130,
      "NU": 2131,
      "Ġdeb": 2132,
      "fj": 2133,
      "ctype": 2134,
      "Ġ(\"%": 2135,
      "âķ¬âķ¬": 2136,
      "ĠVI": 2137,
      "rc": 2138,
      "ĠCLOCKS": 2139,
      "ION": 2140,
      "forn": 2141,
      "Ġta": 2142,
      "Ġcomma": 2143,
      "ĠĊĉ": 2144,
      "ĠINT": 2145,
      "ACK": 2146,
      "25": 2147,
      "264": 2148,
      "Ġsync": 2149,
      "Ġ-*-": 2150,
      "â¢Ģ": 2151,
      ",\"": 2152,
      "head": 2153,
      "Ġbb": 2154,
      "101": 2155,
      "89": 2156,
      "111": 2157,
      "ĠInput": 2158,
      "obj": 2159,
      "ONG": 2160,
      ":::": 2161,
      "parent": 2162,
      "()))": 2163,
      "Ġgen": 2164,
      "Ġ~": 2165,
      "Ġal": 2166,
      "Ġhash": 2167,
      "']": 2168,
      ";--": 2169,
      "Ġqueue": 2170,
      "OG": 2171,
      "rint": 2172,
      "Ġ\"%": 2173,
      "47": 2174,
      "Ġï¿½ï¿½ï¿½ï¿½ï¿½ï¿½": 2175,
      "onoid": 2176,
      "build": 2177,
      "(\"\");": 2178,
      ",.": 2179,
      "iter": 2180,
      "deg": 2181,
      "ĊĠĊĠ": 2182,
      "STACK": 2183,
      "Ġbo": 2184,
      "log": 2185,
      "Ġgreater": 2186,
      "Ġ1000000000": 2187,
      "ĠZ": 2188,
      "ask": 2189,
      "result": 2190,
      "PB": 2191,
      "ud": 2192,
      "rb": 2193,
      "Ġ.:": 2194,
      "Ġà¦": 2195,
      "<<-": 2196,
      "105": 2197,
      "Ġ\"(\"": 2198,
      "Ġrd": 2199,
      "Ġoutput": 2200,
      "child": 2201,
      "000000": 2202,
      "!=(": 2203,
      "Ġ'-')": 2204,
      "enter": 2205,
      "'s": 2206,
      "ry": 2207,
      "Ġwith": 2208,
      "big": 2209,
      "cy": 2210,
      "kk": 2211,
      "));}": 2212,
      "Ġmodular": 2213,
      "14159265358979323846264": 2214,
      "WKK": 2215,
      "Ġloop": 2216,
      "ĠPR": 2217,
      "âĸĵ": 2218,
      "fa": 2219,
      "Ġscani": 2220,
      "Ġlim": 2221,
      "49": 2222,
      "AME": 2223,
      "fac": 2224,
      "'||": 2225,
      "ĠNode": 2226,
      "Range": 2227,
      "rs": 2228,
      "@@@@@@@@": 2229,
      "bo": 2230,
      "maxi": 2231,
      "--,": 2232,
      "acos": 2233,
      "Ġel": 2234,
      "Ġcomplex": 2235,
      "['": 2236,
      "Ġmat": 2237,
      "popcountll": 2238,
      "DEEEE": 2239,
      "Ġnormal": 2240,
      "Ġwe": 2241,
      "(#": 2242,
      "ux": 2243,
      "ĊĠĠĠĠĊĠĠĠĠ": 2244,
      "priority": 2245,
      "Value": 2246,
      "ĊĠĠĠĠĉĉ": 2247,
      "(\"%.": 2248,
      "]='": 2249,
      "Ġhell": 2250,
      "67": 2251,
      "action": 2252,
      ")]": 2253,
      "[](": 2254,
      "_|": 2255,
      "Ġoth": 2256,
      "ces": 2257,
      "#####": 2258,
      "Ġsm": 2259,
      "af": 2260,
      ")&": 2261,
      ")<<\"": 2262,
      ",:": 2263,
      "ND": 2264,
      "ny": 2265,
      "Ċĉĉĉĉĉĉ": 2266,
      "po": 2267,
      "]],": 2268,
      "ain": 2269,
      "ĊĊĠĠĠĠĠĠĠĠĠĠĠĠĠĠĠ": 2270,
      "1415926535897932384626433": 2271,
      "}}": 2272,
      "ded": 2273,
      "upper": 2274,
      "Ġ\"-": 2275,
      "WWWWWWWWW": 2276,
      "ĠJ": 2277,
      "Ġvpii": 2278,
      "Ġclr": 2279,
      "Ġdeg": 2280,
      "PII": 2281,
      "ire": 2282,
      "old": 2283,
      "greater": 2284,
      "ors": 2285,
      "Long": 2286,
      "ri": 2287,
      "Ġbfs": 2288,
      "**/": 2289,
      "ĊĠĠĠĠĠĠĠĠĠĠĠĠĠĠĠĠĠĠĠĠĠĠĠĠĠĠĠĠĠĠĠĠĠĠĠĠĠĠĠĠĠĠĠĠĉ": 2290,
      "Ġmaxi": 2291,
      "Ġeb": 2292,
      "Ġext": 2293,
      "tc": 2294,
      "Ġmacro": 2295,
      "ope": 2296,
      "OW": 2297,
      "......": 2298,
      "we": 2299,
      "âłĢ": 2300,
      "âĶĢâĶĢ": 2301,
      "Ġpath": 2302,
      "umber": 2303,
      "_(": 2304,
      "Ġct": 2305,
      "aken": 2306,
      "here": 2307,
      "80": 2308,
      "do": 2309,
      "Ġ`": 2310,
      "ĠĠĠĠĠĠĠĠĠĠĠĠĠĠĠĠĠĠ": 2311,
      "Ġcase": 2312,
      "mon": 2313,
      "ai": 2314,
      "NAME": 2315,
      "Str": 2316,
      "Ġtop": 2317,
      "Input": 2318,
      "ED": 2319,
      "neg": 2320,
      "__;": 2321,
      "blem": 2322,
      "edges": 2323,
      "Ġodd": 2324,
      "ition": 2325,
      "Ġchk": 2326,
      "Ġfriend": 2327,
      "****************************************************************": 2328,
      "ĠPT": 2329,
      "âĸĳâĸĳâĸĳ": 2330,
      "derr": 2331,
      "ĠĠĠĠĠĠĠĠĠĠĠĠĠĠĠĠĠĠĠ": 2332,
      "123": 2333,
      "ho": 2334,
      "visited": 2335,
      "rg": 2336,
      "ant": 2337,
      "000000000": 2338,
      "Ġvc": 2339,
      "();++": 2340,
      "Ġï¿½ï¿½ï¿½ï¿½ï¿½ï¿½ï¿½ï¿½": 2341,
      "sm": 2342,
      "rev": 2343,
      ")((": 2344,
      "/(": 2345,
      "LI": 2346,
      "tm": 2347,
      "rent": 2348,
      "()),": 2349,
      "NOTES": 2350,
      "Ġunordered": 2351,
      "Ġorder": 2352,
      "ara": 2353,
      "qual": 2354,
      "cept": 2355,
      "CT": 2356,
      "Ġpl": 2357,
      "EM": 2358,
      "54": 2359,
      "Ġmerge": 2360,
      "ĊĠĊĠĠĠ": 2361,
      "Ġme": 2362,
      "Ġshift": 2363,
      "âķĲâķ": 2364,
      "&...": 2365,
      "cmp": 2366,
      "Ġ11": 2367,
      "()==": 2368,
      "ĠĠĠĠĠĠĠĠĠĠĠĠĠĠĠĠĠĠĠĠĠĠĠĠĠĠĠĠĠĠĠ": 2369,
      "ies": 2370,
      "pw": 2371,
      "ump": 2372,
      "ĠPrint": 2373,
      "::::::::": 2374,
      "sy": 2375,
      "}\";": 2376,
      ")<<\"\\": 2377,
      "namespace": 2378,
      "bl": 2379,
      "arry": 2380,
      "Ġnl": 2381,
      "Ġbr": 2382,
      "isdigit": 2383,
      "34567": 2384,
      "Ġother": 2385,
      "]]);": 2386,
      "cctype": 2387,
      "Ġ')": 2388,
      "ĠĠĠĠĠĠĠĠĠĠĠĠĠĠĠĠĠĠĠĠĠĠĠĠĠĠĠĠĠĠĠĠĠĠĠĠĠĠĠĠĠĠĠĠĠĠĠĠĠĠĠĠĠĠĠĠĠĠĠĠĠĠĠĠĠĠĠĠĠĠĠĠĠĠĠĠĠĠĠĠĠĠĠĠĠĠĠĠĠĠĠĠĠĠĠĠĠĠĠĠĠĠĠĠĠĠĠĠĠĠĠĠĠĠĠĠĠĠĠĠĠĠĠĠĠĠĠĠ": 2389,
      "ACRO": 2390,
      "fin": 2391,
      "Ġfac": 2392,
      ",,,": 2393,
      "Ġ\"]\";": 2394,
      "888": 2395,
      "ĠFAST": 2396,
      "ek": 2397,
      "Ġhtt": 2398,
      "mag": 2399,
      "Ġsec": 2400,
      "66": 2401,
      "PI": 2402,
      "Ġmodint": 2403,
      "14159265358979323846264338": 2404,
      "my": 2405,
      "Ġfo": 2406,
      "upd": 2407,
      "ĠSQ": 2408,
      "texs": 2409,
      "UN": 2410,
      "ĠÐ": 2411,
      "Ġdig": 2412,
      "Ġ][": 2413,
      "Ġpdd": 2414,
      "1000000007": 2415,
      "Ġmultiset": 2416,
      "â¢¿": 2417,
      "Ġwas": 2418,
      "Ġ>::": 2419,
      "Ġhead": 2420,
      ")>>": 2421,
      "TS": 2422,
      "Ġcross": 2423,
      "Ġ\"[\";": 2424,
      "1005": 2425,
      "ute": 2426,
      "Ġrnd": 2427,
      "path": 2428,
      ";;;": 2429,
      "ĠLINF": 2430,
      "bj": 2431,
      "rest": 2432,
      "oth": 2433,
      "Ġkey": 2434,
      "Iter": 2435,
      "tail": 2436,
      "multiset": 2437,
      "cs": 2438,
      "float": 2439,
      "hite": 2440,
      "Ġ];": 2441,
      "pro": 2442,
      "Ġvisited": 2443,
      "bad": 2444,
      "Ġtc": 2445,
      "ieve": 2446,
      "clz": 2447,
      "........................": 2448,
      "ear": 2449,
      "jk": 2450,
      "Ġmodul": 2451,
      ")<": 2452,
      "ĠVector": 2453,
      "disp": 2454,
      "unc": 2455,
      "imer": 2456,
      "39": 2457,
      "[++": 2458,
      "del": 2459,
      "Ġ12": 2460,
      "Ġlst": 2461,
      "Ġbound": 2462,
      "--------------": 2463,
      "nod": 2464,
      "Ġcont": 2465,
      "Child": 2466,
      "EK": 2467,
      "WWWWW": 2468,
      "ĠLD": 2469,
      "ww": 2470,
      "Ġfn": 2471,
      "Ġlevel": 2472,
      "Ġbinary": 2473,
      "Ġ&_": 2474,
      "Ġ(_": 2475,
      "need": 2476,
      "color": 2477,
      "Ġfabs": 2478,
      "ĠComp": 2479,
      "68": 2480,
      "cpp": 2481,
      "search": 2482,
      "0000000000": 2483,
      "ivate": 2484,
      "61": 2485,
      "wt": 2486,
      "ĠMin": 2487,
      "ĠMonoid": 2488,
      "Ġ\")\";": 2489,
      "ĠĊĠ": 2490,
      "Ġsign": 2491,
      "Ġvar": 2492,
      "exit": 2493,
      "âĸĳâĸĳâĸĳâĸĳâĸĳâĸĳâĸĳâĸĳ": 2494,
      "XX": 2495,
      "raction": 2496,
      "Ġnd": 2497,
      "Ġgood": 2498,
      "Ġloc": 2499,
      "Ġitr": 2500,
      "1000000": 2501,
      "100010": 2502,
      "1415926535897932384626433832": 2503,
      ")+(": 2504,
      "==-": 2505,
      "atcher": 2506,
      "Ġnx": 2507,
      "================================": 2508,
      "'\\": 2509,
      "Ans": 2510,
      "nn": 2511,
      "Ġsd": 2512,
      "Ġri": 2513,
      "Ġthat": 2514,
      "Ġacc": 2515,
      "dispatcher": 2516,
      "case": 2517,
      "ĠMEM": 2518,
      "ASE": 2519,
      "VI": 2520,
      "ĊĠĠĊĠ": 2521,
      "&]": 2522,
      "ĠĠĠĠĠĠĠĠĠĠĠĠĠĠĠĠĠĠĠĠĠ": 2523,
      "(#__": 2524,
      "dy": 2525,
      "Ġfa": 2526,
      "Ġtuple": 2527,
      "Ġ<<\"": 2528,
      "iple": 2529,
      "son": 2530,
      "Ġhave": 2531,
      "ĠDBN": 2532,
      "EEEEEEEEEEEEEEEE": 2533,
      "Ġ});": 2534,
      "20000": 2535,
      "Ġsy": 2536,
      "ASK": 2537,
      "Ġ\"{": 2538,
      "ork": 2539,
      "ource": 2540,
      "ome": 2541,
      "Ġlength": 2542,
      "CLOCKS": 2543,
      "Ġtwo": 2544,
      "ĊĠĉ": 2545,
      "For": 2546,
      "Ġeven": 2547,
      "Ġ].": 2548,
      "Ġ--------------------------------": 2549,
      "Ġtp": 2550,
      "ĠĠĠĠĠĠĠĠĠĠĠĠĠĠĠĠĠĠĠĠĠĠĠĠĠĠĠĠĠĠ": 2551,
      "dbg": 2552,
      "Prime": 2553,
      "ulate": 2554,
      "fore": 2555,
      "Ġlog": 2556,
      "Ġvb": 2557,
      "pha": 2558,
      "erse": 2559,
      "df": 2560,
      "ĠNULL": 2561,
      ";}}": 2562,
      "Sum": 2563,
      "Le": 2564,
      "Ġ1000000": 2565,
      "Ġ200": 2566,
      "1001": 2567,
      "++--++--++--++--++--++--++--++--++--++--++--++--++--++--++--++--": 2568,
      "ew": 2569,
      "Ġcy": 2570,
      "Ġerror": 2571,
      "IME": 2572,
      "comma": 2573,
      "ĊĊĠĠĠĠĠ": 2574,
      "assign": 2575,
      "Ġoff": 2576,
      "cap": 2577,
      "was": 2578,
      "*****": 2579,
      "ðŁ": 2580,
      "()+": 2581,
      "Ġuse": 2582,
      "GGGDDDDDDDDDDDD": 2583,
      "141592653589793238462643383279": 2584,
      "Ġobj": 2585,
      "ĠDI": 2586,
      "depth": 2587,
      ";:": 2588,
      "Ġĉ": 2589,
      "Con": 2590,
      "tu": 2591,
      "************************": 2592,
      "ĠDFS": 2593,
      "Ġ50": 2594,
      "Ġstrlen": 2595,
      "Ðµ": 2596,
      "Ġ15": 2597,
      "ĠOO": 2598,
      ");(": 2599,
      "stdinPos": 2600,
      "69": 2601,
      "ish": 2602,
      "300": 2603,
      "Ġsin": 2604,
      "ĠLong": 2605,
      "ĠLOG": 2606,
      "total": 2607,
      "âłĢâłĢ": 2608,
      "Ġcode": 2609,
      "ĊĠĠĠĉ": 2610,
      "Ġdd": 2611,
      "]:": 2612,
      "[],": 2613,
      "Ġrec": 2614,
      "ĠPLL": 2615,
      "cltype": 2616,
      "Ġvpll": 2617,
      "ĉĉĉĉ": 2618,
      "Ġargc": 2619,
      "'t": 2620,
      "sec": 2621,
      "opy": 2622,
      "ĊĉĉĉĊĉĉ": 2623,
      "),&(": 2624,
      "'&&": 2625,
      "LG": 2626,
      "tp": 2627,
      "stem": 2628,
      "IL": 2629,
      "Ġmini": 2630,
      "ĠGet": 2631,
      "freq": 2632,
      "Array": 2633,
      "stderr": 2634,
      "Ġhere": 2635,
      "Ġ[&]": 2636,
      ")++)": 2637,
      "Ð¾": 2638,
      "\",(": 2639,
      "ĠĠĠĠĠĠĠĠĠĠĠĠĠĠĠĠĠĠĠĠĠĠĠĠĠĠ": 2640,
      "&&(": 2641,
      "CH": 2642,
      "AD": 2643,
      "ĠRE": 2644,
      "Ġmult": 2645,
      "irection": 2646,
      "Ġlg": 2647,
      "Ġost": 2648,
      "NUM": 2649,
      "Ġfst": 2650,
      "egment": 2651,
      "Ġdelta": 2652,
      "++++": 2653,
      "ĠTR": 2654,
      "Ġstringstream": 2655,
      "Ġnodes": 2656,
      "$$": 2657,
      "KKKKKKKKKK": 2658,
      "EEEEEEEEEEE": 2659,
      "ser": 2660,
      "07": 2661,
      "Imp": 2662,
      "fill": 2663,
      "cast": 2664,
      "Ġab": 2665,
      "Ġara": 2666,
      "41": 2667,
      "anc": 2668,
      "Ġqu": 2669,
      "3333": 2670,
      "[{": 2671,
      "Ġcolor": 2672,
      "Ġptr": 2673,
      "Ġtriple": 2674,
      ")[": 2675,
      "ĠAns": 2676,
      "09": 2677,
      "eps": 2678,
      "macro": 2679,
      "Ġpro": 2680,
      "putchar": 2681,
      "Ġdec": 2682,
      "zero": 2683,
      "vll": 2684,
      "]>>": 2685,
      "ä¸": 2686,
      "Ġsk": 2687,
      "Ġforr": 2688,
      "Ġ----------------": 2689,
      "ĠĠĠĠĠĠĠĠĠĠĠĠĠĠĠĠĠĠĠĠĠĠĠĠĠ": 2690,
      "]=-": 2691,
      "ĠEOF": 2692,
      "Ġchild": 2693,
      "Ġmatrix": 2694,
      "â¡¿": 2695,
      "Ġbad": 2696,
      "EED": 2697,
      "63": 2698,
      "MIN": 2699,
      "Ġï¿½ï¿½ï¿½ï¿½ï¿½": 2700,
      "44": 2701,
      "128": 2702,
      "lst": 2703,
      "Ġ\".": 2704,
      "KW": 2705,
      "LGG": 2706,
      "ĠmaxN": 2707,
      "Ġrank": 2708,
      "Ġ___": 2709,
      "Ġ\"<<(": 2710,
      "'+": 2711,
      "me": 2712,
      "sign": 2713,
      "real": 2714,
      "ĠTail": 2715,
      "ĠMatrix": 2716,
      "87": 2717,
      "<='": 2718,
      ".......": 2719,
      "ui": 2720,
      "Ġiii": 2721,
      "mini": 2722,
      "Ġ200005": 2723,
      "ĠMIN": 2724,
      "CTION": 2725,
      "level": 2726,
      "Ġ!(": 2727,
      "[])": 2728,
      "msk": 2729,
      "Ġdif": 2730,
      "Ġspl": 2731,
      "11111111": 2732,
      "Power": 2733,
      "qr": 2734,
      "Ġalloc": 2735,
      "51": 2736,
      "Ex": 2737,
      "Ġ19": 2738,
      "down": 2739,
      "lint": 2740,
      "ĊĠĠĠĠĠĠĠĠĠĠĠĠĠĠĠĠĠĠĠĠ": 2741,
      "primes": 2742,
      "ĠSolve": 2743,
      "â£¯": 2744,
      "ĊĠĠĠĠĠĠĠĠĠĠĠĠĠĠĠĠĠĠĠĠĠĠĠĠĠĠĠĠĠĠĠĠĠĠĠĠĠĠĠĠĠĠĠĠĠĠĠĠ": 2745,
      "Ġ++){": 2746,
      "ĠĠĠĠĠĠĠĠĠĠĠĠĠĠĠĠĠĠĠĠĠĠĠ": 2747,
      "ere": 2748,
      "ij": 2749,
      "ile": 2750,
      "rd": 2751,
      "ĠULL": 2752,
      "ated": 2753,
      "ister": 2754,
      "âĸĪâĸĪâķ": 2755,
      "[\"": 2756,
      "Ġtake": 2757,
      "Ġpd": 2758,
      "ĠAll": 2759,
      "Ġbounds": 2760,
      "dir": 2761,
      "gister": 2762,
      "Ġsgn": 2763,
      "AA": 2764,
      "Ġfprintf": 2765,
      "ĠFORE": 2766,
      "Ġhttps": 2767,
      "inp": 2768,
      "Ġfunction": 2769,
      "Ġinc": 2770,
      "ĠAuthor": 2771,
      "ĠĠĠĠĠĠĠĠĠĠĠĠĠĠĠĠĠĠĠĠĠĠĠĠ": 2772,
      "ĠUn": 2773,
      "Ġmm": 2774,
      "ĠFILE": 2775,
      "ick": 2776,
      "Ġ'.')": 2777,
      "small": 2778,
      "number": 2779,
      "locked": 2780,
      "Ġwill": 2781,
      "'},{": 2782,
      "]-=": 2783,
      "-=(": 2784,
      "cross": 2785,
      "}};": 2786,
      "answer": 2787,
      "Ġ500": 2788,
      "))/": 2789,
      "...);}": 2790,
      "â£·": 2791,
      "â£Ł": 2792,
      "Ġqr": 2793,
      "ĠVA": 2794,
      "Ġyour": 2795,
      "ization": 2796,
      "EEK": 2797,
      "fjt": 2798,
      "SIZE": 2799,
      "Ġfreq": 2800,
      "ef": 2801,
      "eed": 2802,
      "&&...": 2803,
      "()(": 2804,
      "\",&(": 2805,
      "hitespace": 2806,
      "ï¿½ï¿½ï¿½": 2807,
      "fst": 2808,
      "Ġkol": 2809,
      "Ġrest": 2810,
      "Ġboost": 2811,
      "ĠIN": 2812,
      "^=": 2813,
      "_,": 2814,
      "Ġcr": 2815,
      "Ġhas": 2816,
      "ply": 2817,
      "\";}": 2818,
      "200000000": 2819,
      ">());": 2820,
      "ref": 2821,
      "Ġmemo": 2822,
      "Ġ(-": 2823,
      "Ġlca": 2824,
      "+'": 2825,
      "()->": 2826,
      "side": 2827,
      "DEF": 2828,
      "MN": 2829,
      "Mul": 2830,
      "state": 2831,
      "Ġ17": 2832,
      "ev": 2833,
      "mo": 2834,
      "good": 2835,
      "Ġstep": 2836,
      "Ġ\");": 2837,
      "Ġ60": 2838,
      "]/": 2839,
      "bin": 2840,
      "Ġ{{": 2841,
      "Ġppb": 2842,
      "Ġ123": 2843,
      "Ġny": 2844,
      "]=='.": 2845,
      "two": 2846,
      "Ġ16": 2847,
      "ĠDirection": 2848,
      "à§ĩ": 2849,
      "Set": 2850,
      "ĠMACRO": 2851,
      "Ġvalues": 2852,
      "ãĢ": 2853,
      "ify": 2854,
      "ĊĠĠĠĠĠĠĠĠĠĠĠĠĠĠĠĠĠĠĠĠĠĠĠĠĠĠĠĠĠĠĠĠĠĠĠĠĠĠĠĠĠĠĠ": 2855,
      ")>": 2856,
      "[*": 2857,
      "()<<": 2858,
      "valc": 2859,
      "Ġreset": 2860,
      "Ġsep": 2861,
      "____________": 2862,
      "()>": 2863,
      "Ġargv": 2864,
      "Ġ',');": 2865,
      ")=(": 2866,
      "Ġsuf": 2867,
      "vers": 2868,
      "scan": 2869,
      "110": 2870,
      "Ġmove": 2871,
      "////////////////////////////////////////////////////////////////": 2872,
      "nk": 2873,
      "uck": 2874,
      "Ġdir": 2875,
      "Ġflow": 2876,
      "WKKKKK": 2877,
      "Ġfx": 2878,
      "Ġvd": 2879,
      "jji": 2880,
      "ï¼": 2881,
      "Ġpo": 2882,
      "ĠRA": 2883,
      "Ġstream": 2884,
      "Ġnargs": 2885,
      "100100": 2886,
      "sent": 2887,
      "ĠFraction": 2888,
      "Ġsl": 2889,
      ")];": 2890,
      "Ġcap": 2891,
      "Ġelement": 2892,
      "Ġins": 2893,
      "ĠST": 2894,
      "ide": 2895,
      "lb": 2896,
      "Comp": 2897,
      "âĸĪâĸĪâĸĪ": 2898,
      "VEC": 2899,
      "Ġback": 2900,
      "ĠCL": 2901,
      "elper": 2902,
      "dif": 2903,
      "nb": 2904,
      "Ġpublic": 2905,
      "nce": 2906,
      "ĠModular": 2907,
      "2000": 2908,
      "sl": 2909,
      "Ġxy": 2910,
      "dq": 2911,
      "orary": 2912,
      "OL": 2913,
      "PP": 2914,
      "ossible": 2915,
      "FFFF": 2916,
      "UNCTION": 2917,
      ")=": 2918,
      "even": 2919,
      "!=-": 2920,
      ">();": 2921,
      "Ġck": 2922,
      "Ġlist": 2923,
      "Ġ>(": 2924,
      "ĠTT": 2925,
      "IM": 2926,
      "Ġsuff": 2927,
      "Ġ*(": 2928,
      "=((": 2929,
      "Ġscl": 2930,
      "Ġrs": 2931,
      "form": 2932,
      "Ġln": 2933,
      "<<*": 2934,
      "5555": 2935,
      "Ġ--)": 2936,
      "Ġ--;": 2937,
      "Ġdown": 2938,
      "Scan": 2939,
      "Ġcand": 2940,
      "block": 2941,
      "vert": 2942,
      "]&&": 2943,
      "---": 2944,
      "step": 2945,
      "ĊĉĠĠĠĠĠĠĠ": 2946,
      "Ġ[&](": 2947,
      "range": 2948,
      "Ġce": 2949,
      "olution": 2950,
      "USE": 2951,
      "Ġvp": 2952,
      "Ġfori": 2953,
      "Ġris": 2954,
      ":\"": 2955,
      "Ġbl": 2956,
      "ĠSP": 2957,
      "Ġ'?": 2958,
      "â£¿â¡": 2959,
      "buff": 2960,
      "Cnt": 2961,
      "]==-": 2962,
      "Ġ&=": 2963,
      "Start": 2964,
      "Ġsplit": 2965,
      "Ġdone": 2966,
      "Ġshort": 2967,
      "raph": 2968,
      "ĉĊĉ": 2969,
      "ure": 2970,
      "ĠĊĠĠĠĠĠĠĠĠĠĠĠ": 2971,
      "altu": 2972,
      "Ġui": 2973,
      "Pow": 2974,
      "Test": 2975,
      "Ð°": 2976,
      "Ġref": 2977,
      "ĠgetChar": 2978,
      "perm": 2979,
      "String": 2980,
      "']++;": 2981,
      "Ġsa": 2982,
      "]!=-": 2983,
      "ward": 2984,
      "0000000": 2985,
      "Ġfy": 2986,
      "ĠInf": 2987,
      "Ġbigmod": 2988,
      "Ġfto": 2989,
      "Ġmaxim": 2990,
      "1234567": 2991,
      "âĸĢâĸĦ": 2992,
      "Bit": 2993,
      "Vector": 2994,
      "ĊĠĠĠĠĠĠĠĠĠĠĠĠĠĠĠĠĠĠĠĠĠ": 2995,
      "ĊĠĠĠĠĠĠĠĠĠĠĠĠĠĠĠĠĠĠĠĠĠĠĠĠĠĠĠĠĠĠĠĠĠĠĠĠĠĠĠ": 2996,
      "suf": 2997,
      "Ġ\"}\";": 2998,
      "sa": 2999,
      "Ġio": 3000,
      "Ġfd": 3001,
      "stri": 3002,
      ")/(": 3003,
      "ĠreadInt": 3004,
      "_;": 3005,
      "Ġ(~": 3006,
      "Ġtrans": 3007,
      "tint": 3008,
      "SERT": 3009,
      "End": 3010,
      "100001": 3011,
      "qq": 3012,
      "var": 3013,
      "Ġ>;": 3014,
      "Ġte": 3015,
      "Ġev": 3016,
      "Ġkk": 3017,
      "Ġstrchr": 3018,
      "Ġdiv": 3019,
      "IMP": 3020,
      "ĊĊĠĠĠĠ": 3021,
      "Ġ{};": 3022,
      "Ġfflush": 3023,
      "Ġblock": 3024,
      "ircle": 3025,
      "ĠMA": 3026,
      "ACE": 3027,
      "Ġkek": 3028,
      "Ġsieve": 3029,
      "Ġ10000000": 3030,
      "Ġ;}": 3031,
      "Ġpowmod": 3032,
      "âĸĵâĸĵ": 3033,
      "``": 3034,
      "Ġlp": 3035,
      "Ġva": 3036,
      "Ġxxx": 3037,
      "Ġjj": 3038,
      "##~~": 3039,
      "Ġwork": 3040,
      "ĠRe": 3041,
      "ucl": 3042,
      "Ġcarry": 3043,
      "tain": 3044,
      "SU": 3045,
      "tests": 3046,
      "%%%%": 3047,
      "Ġus": 3048,
      "Ġsrand": 3049,
      "ĊĠĠĉ": 3050,
      "Ġerase": 3051,
      "âĢ": 3052,
      "Ġford": 3053,
      "ingle": 3054,
      "Ġ'*": 3055,
      "table": 3056,
      "Ġdq": 3057,
      "Th": 3058,
      "lvl": 3059,
      "Ġlol": 3060,
      "tri": 3061,
      "'},{'.": 3062,
      "Ġmodulus": 3063,
      "inc": 3064,
      "ctz": 3065,
      "have": 3066,
      "AB": 3067,
      "]<<'": 3068,
      "lc": 3069,
      "entr": 3070,
      "itt": 3071,
      "unlocked": 3072,
      "]]--;": 3073,
      "Ġforeach": 3074,
      "To": 3075,
      "jti": 3076,
      "Ġimp": 3077,
      "WWK": 3078,
      "WWKK": 3079,
      "KKKKW": 3080,
      "##_": 3081,
      "ia": 3082,
      "lg": 3083,
      "++]=": 3084,
      "Ġbits": 3085,
      "ĠFF": 3086,
      "trie": 3087,
      "âĸĳâĸĳâĸĳâĸĳâĸĳ": 3088,
      "]!='": 3089,
      "ðŁĴ": 3090,
      "cxx": 3091,
      "ya": 3092,
      "ðŁĴ©": 3093,
      "='": 3094,
      "Whitespace": 3095,
      "Ġdr": 3096,
      "FUNCTION": 3097,
      "srand": 3098,
      "hich": 3099,
      "Inverse": 3100,
      "Ùİ": 3101,
      "Ġnn": 3102,
      "Ġdot": 3103,
      ";(": 3104,
      "rec": 3105,
      "''": 3106,
      ",...)": 3107,
      "matrix": 3108,
      "register": 3109,
      "Helper": 3110,
      "ĠĊĉĉ": 3111,
      "Ġmon": 3112,
      "Ġrc": 3113,
      "Ġwin": 3114,
      "vals": 3115,
      "graph": 3116,
      "Ġtin": 3117,
      "ĊĠĊ": 3118,
      "close": 3119,
      "lca": 3120,
      "ĠĠĠĊĠĠĠ": 3121,
      "Ġrg": 3122,
      "________________________________": 3123,
      "ĠTime": 3124,
      "owel": 3125,
      "ĠLLONG": 3126,
      "200000": 3127,
      "]?": 3128,
      "uk": 3129,
      "}//": 3130,
      "Ġna": 3131,
      "Ġve": 3132,
      "exponent": 3133,
      "ãģ": 3134,
      "<<\"[": 3135,
      "Ġprefix": 3136,
      "Ġvertexs": 3137,
      "tic": 3138,
      "erence": 3139,
      "ÑĤ": 3140,
      "++];": 3141,
      "Ġgrid": 3142,
      "DB": 3143,
      "ebug": 3144,
      "ĠSIZE": 3145,
      "DL": 3146,
      "mk": 3147,
      "Ġcs": 3148,
      "Ġls": 3149,
      "Ġaux": 3150,
      "Ġrun": 3151,
      "ID": 3152,
      "ĠFast": 3153,
      "-----": 3154,
      "imag": 3155,
      "Ġsmall": 3156,
      "Ġover": 3157,
      "Ġeprintf": 3158,
      "Ġ'#": 3159,
      "Ġchr": 3160,
      "valid": 3161,
      "228": 3162,
      "done": 3163,
      "=\"\";": 3164,
      "ðŁĴ©ðŁĴ©": 3165,
      "<_": 3166,
      "ĠĊĠĠ": 3167,
      "store": 3168,
      "Ġsout": 3169,
      "Ġprv": 3170,
      "]*(": 3171,
      "nom": 3172,
      "â£»": 3173,
      "â£½": 3174,
      ";;;;;;": 3175,
      "Ġthan": 3176,
      "ru": 3177,
      "Ġfaltu": 3178,
      "Ġ'\"": 3179,
      "Ġwr": 3180,
      ">='": 3181,
      "(++": 3182,
      "UL": 3183,
      "Ġmii": 3184,
      "apsed": 3185,
      "()));": 3186,
      "Re": 3187,
      "lp": 3188,
      "ĊĉĉĊ": 3189,
      "Ġchange": 3190,
      "otate": 3191,
      "oraryNode": 3192,
      "Ġwhat": 3193,
      "rng": 3194,
      "<<\"-": 3195,
      "ers": 3196,
      "Ġdsu": 3197,
      "))*": 3198,
      ",__": 3199,
      "^(": 3200,
      "uf": 3201,
      "defor": 3202,
      "GGGGGGGGGGGGGGGG": 3203,
      "deforces": 3204,
      ")<(": 3205,
      "KKKKKKKKKKKKKKK": 3206,
      "WWWWWWWWWWW": 3207,
      "DDDDDDDDDDD": 3208,
      "EEEK": 3209,
      "ASSERT": 3210,
      "EMP": 3211,
      "cb": 3212,
      "nl": 3213,
      "nr": 3214,
      "uu": 3215,
      "];}": 3216,
      "ĠNumber": 3217,
      "Ġcenter": 3218,
      "Ġfoo": 3219,
      "Ġ>,": 3220,
      "ĠThe": 3221,
      "ĠModInt": 3222,
      ")-(": 3223,
      "dot": 3224,
      "kol": 3225,
      "Ġlvl": 3226,
      "Ġtail": 3227,
      ">>;": 3228,
      "Ġstack": 3229,
      "distance": 3230,
      "]]==": 3231,
      "Ġask": 3232,
      "Ġbeg": 3233,
      "Ġopt": 3234,
      "eing": 3235,
      "arge": 3236,
      "à¦¾": 3237,
      "ĠTRACE": 3238,
      "ARY": 3239,
      "div": 3240,
      "/************************************************": 3241,
      "SS": 3242,
      "Ġsiz": 3243,
      "ĠUN": 3244,
      "cpy": 3245,
      "move": 3246,
      "Ġtests": 3247,
      "Ġmultiply": 3248,
      "%(": 3249,
      "ĊĠĠĠĠĉĉĉ": 3250,
      "Ġfloat": 3251,
      ":..": 3252,
      "EN": 3253,
      "Ġcopy": 3254,
      "angle": 3255,
      "Pro": 3256,
      "ey": 3257,
      "ov": 3258,
      "oup": 3259,
      "ĠBig": 3260,
      "Ġpat": 3261,
      "<<\",": 3262,
      "Ġstate": 3263,
      "ĠDP": 3264,
      "ĠEX": 3265,
      "MAT": 3266,
      "nect": 3267,
      "***": 3268,
      "Ġpiii": 3269,
      "Ġfiles": 3270,
      "âķ¬âķ¬âķ¬âķ¬": 3271,
      "PT": 3272,
      "Ġiiii": 3273,
      "ifstream": 3274,
      "argv": 3275,
      "IntegerRange": 3276,
      "98": 3277,
      "Add": 3278,
      "Ġpli": 3279,
      "Ġwhich": 3280,
      "Ġ(!(": 3281,
      "ts": 3282,
      "Ġ();": 3283,
      "ROW": 3284,
      "âĸĢâĸĢâĸĢâĸĢ": 3285,
      "Ġrandom": 3286,
      "\"[": 3287,
      "FL": 3288,
      "Se": 3289,
      "utation": 3290,
      "****************************************": 3291,
      "99999999": 3292,
      "Ġmodnum": 3293,
      "::.": 3294,
      "Ġinfo": 3295,
      "ĠGCD": 3296,
      "Ġprecalc": 3297,
      "Data": 3298,
      "ĠĠĠĠĠĠĠĠĠĠĠĠĠĠĠĠĠĠĠĠĠĠĠĠĠĠĠĠ": 3299,
      "undef": 3300,
      "Ġcomb": 3301,
      "PUT": 3302,
      "Ġ2000000000": 3303,
      "ĠFORD": 3304,
      "Impossible": 3305,
      "hell": 3306,
      "ba": 3307,
      "gg": 3308,
      "tti": 3309,
      "vii": 3310,
      "Ġlhs": 3311,
      "Ġfir": 3312,
      "Ġso": 3313,
      "ffff": 3314,
      "ĊĠĠĠĠĠĠĠĠĠĠĠĠĊĠĠĠĠĠĠĠĠĠĠĠ": 3315,
      "Ġsolution": 3316,
      "dec": 3317,
      "Ġones": 3318,
      "\"]": 3319,
      "Dist": 3320,
      "Number": 3321,
      "ĠIt": 3322,
      "Ġfactor": 3323,
      "TASK": 3324,
      "nax": 3325,
      "][(": 3326,
      "ĊĠĠĠĠĠĠĠĠĠĠĠĠĠĠĠĠĠĠ": 3327,
      "ress": 3328,
      "]]]]": 3329,
      "cx": 3330,
      "la": 3331,
      "alpha": 3332,
      "umulate": 3333,
      "EEEEEE": 3334,
      "Ġminim": 3335,
      "oose": 3336,
      "**************/": 3337,
      "Ġfound": 3338,
      "EEEEE": 3339,
      "Ġvalid": 3340,
      "ĠisPrime": 3341,
      "Ġpoints": 3342,
      "LD": 3343,
      "==(": 3344,
      "Ġdivi": 3345,
      "plus": 3346,
      "=*": 3347,
      "OME": 3348,
      "505": 3349,
      "ersect": 3350,
      "400": 3351,
      ">'": 3352,
      "merge": 3353,
      "ways": 3354,
      "wr": 3355,
      "Ġisp": 3356,
      "Left": 3357,
      "<'": 3358,
      "Ġdor": 3359,
      "MMM": 3360,
      "ĠIter": 3361,
      "eb": 3362,
      "lft": 3363,
      "Ġgot": 3364,
      "ĠSQR": 3365,
      "256": 3366,
      "=_": 3367,
      "Ġï¿½ï¿½ï¿½ï¿½ï¿½ï¿½ï¿½": 3368,
      ">(),": 3369,
      "mint": 3370,
      "fter": 3371,
      "bt": 3372,
      "lol": 3373,
      "}*/": 3374,
      "\"),": 3375,
      "Ġconstexpr": 3376,
      "Ġcurrent": 3377,
      "loc": 3378,
      "error": 3379,
      "nodes": 3380,
      ":::::": 3381,
      "('\\": 3382,
      "ĠEND": 3383,
      "):(": 3384,
      "Ġlc": 3385,
      "5005": 3386,
      "','.','.','.','.','.','.','.','.": 3387,
      "eks": 3388,
      "pc": 3389,
      "Ġwhere": 3390,
      "ĠSt": 3391,
      "Ġvals": 3392,
      "Ġdistance": 3393,
      "Len": 3394,
      "stra": 3395,
      "Ġyes": 3396,
      "Ġcn": 3397,
      "ĠRep": 3398,
      "Ġchrono": 3399,
      "Ar": 3400,
      "VER": 3401,
      "ĠName": 3402,
      "45": 3403,
      "Read": 3404,
      "Ġfs": 3405,
      ">>>": 3406,
      "ĠEnd": 3407,
      "(&": 3408,
      "ipper": 3409,
      "Ġ@": 3410,
      ");++(": 3411,
      "(')": 3412,
      "[_": 3413,
      "og": 3414,
      "Ġmaxx": 3415,
      ",,,,,,": 3416,
      "pause": 3417,
      "Id": 3418,
      "ader": 3419,
      "ĠĠĠĠĠĠĠĠĠĠĠĠĠĠĠĠĠĠĠĠĠĠĠĠĠĠĠĠĠ": 3420,
      "invd": 3421,
      "ĊĉĠĠ": 3422,
      "prod": 3423,
      "Ġqq": 3424,
      "|(": 3425,
      "Ñģ": 3426,
      "Ġ[](": 3427,
      ");--": 3428,
      "])+": 3429,
      ">()": 3430,
      "CA": 3431,
      "IG": 3432,
      "bution": 3433,
      "â£¿â£¿â£¿â£¿â£¿â£¿": 3434,
      "/**************": 3435,
      "EG": 3436,
      "fabs": 3437,
      "olower": 3438,
      "uffer": 3439,
      "1000005": 3440,
      "src": 3441,
      "Ġ**************/": 3442,
      "Ġ<<(": 3443,
      "prot": 3444,
      "=='-')": 3445,
      "sx": 3446,
      "Ġopen": 3447,
      "ions": 3448,
      "Ġ~(": 3449,
      "decltype": 3450,
      "INES": 3451,
      "######": 3452,
      "MATH": 3453,
      "ĊĉĉĠĠĠ": 3454,
      "acti": 3455,
      "Ġ\"!": 3456,
      "lear": 3457,
      "~~~~": 3458,
      "ĠCLR": 3459,
      "siz": 3460,
      "Ġbug": 3461,
      "ĊĠĠĠĠĠĠĠĠĠĠĠĠĠĠĠĠĠĠĠĠĠĠĠĠĠĠĠĠĠ": 3462,
      "DEFINES": 3463,
      "One": 3464,
      "[__": 3465,
      "//*": 3466,
      "Ġ\"#": 3467,
      "(){}": 3468,
      "fir": 3469,
      "war": 3470,
      "00001": 3471,
      "Ġinp": 3472,
      "@@@@@@@@@@@@@@@@": 3473,
      "Ġ\"{\";": 3474,
      "Ġlink": 3475,
      "Ġlld": 3476,
      "haust": 3477,
      "Ġwho": 3478,
      "problem": 3479,
      "center": 3480,
      "ql": 3481,
      "wa": 3482,
      "ueries": 3483,
      "Ġscn": 3484,
      "Ġdiag": 3485,
      "Ġfunc": 3486,
      "ould": 3487,
      "fn": 3488,
      "ger": 3489,
      "inter": 3490,
      "rect": 3491,
      "Ġql": 3492,
      "ceil": 3493,
      "Ġcounter": 3494,
      "bbbb": 3495,
      "DK": 3496,
      "the": 3497,
      "Ġist": 3498,
      "ĠGET": 3499,
      "hausted": 3500,
      "Double": 3501,
      "bas": 3502,
      "Ġmas": 3503,
      "(\"/": 3504,
      "WWWWWK": 3505,
      ",,,,,,,": 3506,
      "WWWKK": 3507,
      "WWWKKK": 3508,
      "Ġshow": 3509,
      "Ġ...:.": 3510,
      "âĸĴâĸĴâĸĴâĸĴâĸĴâĸĴ": 3511,
      "na": 3512,
      "private": 3513,
      "Ġncr": 3514,
      "ĊĠĉĉ": 3515,
      "prv": 3516,
      "ORT": 3517,
      "stribution": 3518,
      "__);": 3519,
      "*=(": 3520,
      "Ġsnd": 3521,
      "Ġ++__": 3522,
      "++;}": 3523,
      "Ġgoa": 3524,
      "Ġarea": 3525,
      "1234": 3526,
      "ield": 3527,
      "prefix": 3528,
      "bal": 3529,
      "),_": 3530,
      "ffl": 3531,
      "protector": 3532,
      "&-": 3533,
      "BS": 3534,
      "(!(": 3535,
      "ecial": 3536,
      "ĊĊĉĉĉ": 3537,
      "Ġlf": 3538,
      "ended": 3539,
      "Ġ\"[\"": 3540,
      "system": 3541,
      "72": 3542,
      "DEB": 3543,
      "OO": 3544,
      "nm": 3545,
      "vc": 3546,
      "lete": 3547,
      "(((": 3548,
      "Ġ1000000000000000000": 3549,
      "ĠHead": 3550,
      "Ġgener": 3551,
      "'},{'.','.','.','.','.','.','.','.','.": 3552,
      "IntegerIterator": 3553,
      "Ð½": 3554,
      "Ġni": 3555,
      "Ġ18": 3556,
      "Ġtaken": 3557,
      "akh": 3558,
      "||(": 3559,
      "Ġreal": 3560,
      "Ġprivate": 3561,
      "ĠNIL": 3562,
      "ĠRFOR": 3563,
      "[--": 3564,
      "çļ": 3565,
      "Ġnr": 3566,
      "lect": 3567,
      "alf": 3568,
      "Ġ29": 3569,
      "Ġpri": 3570,
      "ĠtemporaryNode": 3571,
      "Ġmonth": 3572,
      "çļĦ": 3573,
      ")!=": 3574,
      "Ġsim": 3575,
      "IMPL": 3576,
      "BC": 3577,
      "Ġcp": 3578,
      "ĠmodMul": 3579,
      "Ġ1000000009": 3580,
      "setf": 3581,
      "ĠOUT": 3582,
      "::::::": 3583,
      ":::::::": 3584,
      "Ġ----------------------------------------------": 3585,
      "iform": 3586,
      "ĠSet": 3587,
      "647": 3588,
      "geeks": 3589,
      "ĊĊĊĊĊ": 3590,
      "plic": 3591,
      "bigmod": 3592,
      "Ġam": 3593,
      "Ġng": 3594,
      "lev": 3595,
      "age": 3596,
      "âłĽ": 3597,
      "90": 3598,
      "Ġty": 3599,
      "Ġ25": 3600,
      "maxx": 3601,
      "Ġuni": 3602,
      "distribution": 3603,
      "ĊĊĊĊĊĊĊĊĊĊĊĊĊĊĊĊ": 3604,
      "Buffer": 3605,
      "win": 3606,
      "org": 3607,
      "Ġpld": 3608,
      "â£¾": 3609,
      "very": 3610,
      "azu": 3611,
      "2005": 3612,
      "ĠAllah": 3613,
      "Hash": 3614,
      "suff": 3615,
      "Ġer": 3616,
      "==\"": 3617,
      "off": 3618,
      "ĠCode": 3619,
      "\",\"<<": 3620,
      "Ġexponent": 3621,
      "Ġceil": 3622,
      "(*(": 3623,
      "day": 3624,
      "oin": 3625,
      "ĠFirst": 3626,
      "Args": 3627,
      ":\\": 3628,
      "hing": 3629,
      "ĠNO": 3630,
      "lt": 3631,
      "nw": 3632,
      "snd": 3633,
      "})": 3634,
      "Ġmsk": 3635,
      "Ġbp": 3636,
      "ĠSH": 3637,
      "ĠCon": 3638,
      "Ġ-->": 3639,
      "Ġbuff": 3640,
      "65": 3641,
      "has": 3642,
      "mult": 3643,
      "ĠAdd": 3644,
      "/__": 3645,
      "FN": 3646,
      "Ġdef": 3647,
      "Ġï¿½": 3648,
      "ument": 3649,
      ",,,,,,,,,,,,,,,,": 3650,
      ")?(": 3651,
      "35": 3652,
      "<<\"]": 3653,
      "Ġ{+": 3654,
      "Ġtable": 3655,
      "ĊĠĠĠĠĠĠĠĠĠĠĠĠĠĠĠĠĠĠĠĠĠĠĠĠĠĠĠĠĠĠĠĠĠĠĠ": 3656,
      "70": 3657,
      "}});": 3658,
      "Ġts": 3659,
      "Ġbinpow": 3660,
      "':": 3661,
      "DP": 3662,
      "EL": 3663,
      "Ġremove": 3664,
      "Ġaccumulate": 3665,
      "Ġnw": 3666,
      "Ġtrie": 3667,
      "Ġord": 3668,
      "âĸĦâĸĦâĸĦâĸĦ": 3669,
      "KEE": 3670,
      "Ġra": 3671,
      "ofstream": 3672,
      "ukazu": 3673,
      "iw": 3674,
      "ĠØ": 3675,
      "Ċĉĉĉĉĉĉĉ": 3676,
      "Ġsolver": 3677,
      "Ġtransform": 3678,
      "Ġdeque": 3679,
      "Ġvvll": 3680,
      ">{": 3681,
      "acc": 3682,
      "1024": 3683,
      "âłĺ": 3684,
      "By": 3685,
      "Ġim": 3686,
      "ĊĠĠĠĠĠĠĠĠĠĠĠĠĠĠĠĠĠĠĠĠĠĠĠĠĠĠĠĠĠĠĠĠ": 3687,
      "Ġnullptr": 3688,
      "entroid": 3689,
      "DEE": 3690,
      "DEEE": 3691,
      "Oper": 3692,
      "PC": 3693,
      "WKKKK": 3694,
      "()]": 3695,
      "ĠTargs": 3696,
      "Ġmodify": 3697,
      "Ġtri": 3698,
      "WWWWWWWWWWWW": 3699,
      "âĸĦâĸĢ": 3700,
      "93": 3701,
      "ĠPQ": 3702,
      "ĠIT": 3703,
      "CHAR": 3704,
      "Ġ--------------------": 3705,
      "yes": 3706,
      "seq": 3707,
      "Ġsame": 3708,
      "ĠTree": 3709,
      "MS": 3710,
      "]});": 3711,
      "va": 3712,
      "Ġcum": 3713,
      "enti": 3714,
      "modular": 3715,
      "Ġsegment": 3716,
      ")&&": 3717,
      "And": 3718,
      "ner": 3719,
      "Ġ#__": 3720,
      "ĠLine": 3721,
      "ĠGod": 3722,
      "readType": 3723,
      "âĸĪâĸĪâĸĪâĸĪâĸĪâĸĪâĸĪâĸĪ": 3724,
      "Ġbigint": 3725,
      "other": 3726,
      "300005": 3727,
      "beg": 3728,
      "__(": 3729,
      "337": 3730,
      "TESTS": 3731,
      ")][": 3732,
      "eld": 3733,
      "Ġmint": 3734,
      "Ġ|_|": 3735,
      "dsu": 3736,
      "Ġelapsed": 3737,
      "##~~##~~": 3738,
      "Ġ('": 3739,
      "Ġcall": 3740,
      "Ġllong": 3741,
      "ĠreadChar": 3742,
      "codeforces": 3743,
      "â¢¸": 3744,
      "FILENAME": 3745,
      "1415926535897932384626433832795": 3746,
      "62": 3747,
      ";//": 3748,
      "mq": 3749,
      "oi": 3750,
      "Ġfft": 3751,
      "Ġinverse": 3752,
      "Ġ48": 3753,
      "argc": 3754,
      "mode": 3755,
      "ĠDEB": 3756,
      "Ġatan": 3757,
      "grid": 3758,
      "ĠmodInverse": 3759,
      "ĠDice": 3760,
      "Ġdivis": 3761,
      "boost": 3762,
      "gt": 3763,
      "ple": 3764,
      "ĠTIME": 3765,
      "take": 3766,
      "ĠĠĠĠĠĠĠĠĠĠĠĠĠĠĠĠĠĠĠĠĠĠĠĠĠĠĠĠĠĠĠĠĠĠĠĠĠĠĠĠĠĠĠĠĠĠĠĠĠĠĠĠĠĠĠĠĠĠĠĠĠĠĠĠĠĠĠĠĠĠĠĠĠĠĠĠĠĠĠĠĠĠĠĠĠĠĠĠĠĠĠĠĠĠĠĠĠĠĠĠĠĠĠĠĠĠĠĠĠĠĠĠĠĠĠĠĠĠĠĠĠĠĠĠĠĠĠĠĠĠĠĠĠĠĠĠĠĠĠĠĠĠĠĠĠĠĠĠĠĠĠĠĠĠĠĠĠĠĠĠĠĠĠĠĠĠĠĠĠĠĠĠĠĠĠĠĠĠĠĠĠĠĠĠĠĠĠĠĠĠĠĠĠĠĠĠĠĠĠĠĠĠĠĠĠĠĠĠĠĠĠĠĠĠĠĠĠĠĠĠĠĠĠĠĠĠĠĠĠĠĠĠĠĠĠĠĠĠĠĠĠĠĠĠĠĠĠĠĠĠĠĠĠĠĠĠ": 3767,
      "ÐĲ": 3768,
      "Ġ....": 3769,
      "(\".": 3770,
      "Ġlimit": 3771,
      "ĠREV": 3772,
      "]=='.')": 3773,
      "';}": 3774,
      "Tr": 3775,
      "ĊĉĠĠĠĠ": 3776,
      "ĠSegment": 3777,
      "8888888": 3778,
      "Ġlocal": 3779,
      "//}": 3780,
      "Ġdim": 3781,
      "Ġ300": 3782,
      "\":\"": 3783,
      "Idx": 3784,
      "tx": 3785,
      "Ġvpi": 3786,
      "Ġday": 3787,
      "âķĲâķ¦": 3788,
      "âķĲâķ©": 3789,
      "ren": 3790,
      ">>>>": 3791,
      "versed": 3792,
      "vertexs": 3793,
      "Ġ62": 3794,
      "âķĲâķĲ": 3795,
      "eap": 3796,
      ";};": 3797,
      "AND": 3798,
      "Ġskip": 3799,
      "147": 3800,
      "Des": 3801,
      "Ej": 3802,
      "Ġ2000": 3803,
      "Ġostringstream": 3804,
      "997": 3805,
      "ĠreadType": 3806,
      "Ġflush": 3807,
      "MMMMMMMMMMMMMMMMMMMMMMMMMMMMMMMM": 3808,
      ";\\": 3809,
      "Segment": 3810,
      "ĠROF": 3811,
      ".........": 3812,
      "ĠUpdate": 3813,
      "uffle": 3814,
      "ĠDBG": 3815,
      "permutation": 3816,
      ",;;": 3817,
      "hod": 3818,
      ")<=": 3819,
      "ĠCom": 3820,
      "illah": 3821,
      "510": 3822,
      "ĠÃ": 3823,
      "Ġact": 3824,
      "ĠdPower": 3825,
      "Ġxs": 3826,
      "loor": 3827,
      "2222": 3828,
      "################################################################": 3829,
      "Use": 3830,
      "Ġlft": 3831,
      "Ġpil": 3832,
      "strlen": 3833,
      "Ġgetline": 3834,
      "memo": 3835,
      "'];": 3836,
      "Right": 3837,
      "Ġns": 3838,
      "ĠTES": 3839,
      "Ġwt": 3840,
      "])-": 3841,
      "88888": 3842,
      "heck": 3843,
      ")//": 3844,
      "Solve": 3845,
      "px": 3846,
      "Ġ<<=": 3847,
      "ĠSET": 3848,
      "Ġpresent": 3849,
      "app": 3850,
      "Ġang": 3851,
      "Di": 3852,
      "tj": 3853,
      "arn": 3854,
      "Ġho": 3855,
      "Ġdbl": 3856,
      "factor": 3857,
      "Ġchkmax": 3858,
      "IE": 3859,
      "eq": 3860,
      "ĊĉĊĉ": 3861,
      "onenti": 3862,
      "Ġ++_": 3863,
      "888888": 3864,
      "Num": 3865,
      "UE": 3866,
      "night": 3867,
      "ostringstream": 3868,
      "same": 3869,
      "Ġsx": 3870,
      "+=\"": 3871,
      "ORARY": 3872,
      "EMPORARY": 3873,
      "Pr": 3874,
      "nost": 3875,
      "vvi": 3876,
      "ĠnValue": 3877,
      "ĠfastIO": 3878,
      "sqr": 3879,
      "'))": 3880,
      "AM": 3881,
      "rhs": 3882,
      "Ġ\"\"": 3883,
      "fflush": 3884,
      "Ð¸": 3885,
      "ÑĢ": 3886,
      "Ġlint": 3887,
      "Of": 3888,
      "ys": 3889,
      "Ġero": 3890,
      "Ġdc": 3891,
      "ĠMS": 3892,
      "change": 3893,
      "Ġstk": 3894,
      "resolution": 3895,
      "Contain": 3896,
      "gc": 3897,
      "Ġro": 3898,
      "ĠSL": 3899,
      "EEEEEEE": 3900,
      "Ġempty": 3901,
      ")>=": 3902,
      "288": 3903,
      "WKKKKKKKK": 3904,
      "author": 3905,
      "Ġaaa": 3906,
      "++);": 3907,
      "WWKKK": 3908,
      "ĊĊĊĊĠĠĠ": 3909,
      "EEEEEEEEEE": 3910,
      "Ġ.:.": 3911,
      "WWWWWWWWWW": 3912,
      "DDDDDDDDDD": 3913,
      "Ġ...,.": 3914,
      "KKKKKKKKKKKKKKKKKKKKKKKK": 3915,
      "Ġonly": 3916,
      "tfLGG": 3917,
      "403": 3918,
      "â¢Ģâ¢Ģ": 3919,
      "serve": 3920,
      "//*//*": 3921,
      "da": 3922,
      "ei": 3923,
      "xy": 3924,
      "Ġpol": 3925,
      "Ġenable": 3926,
      "Ġdiagnost": 3927,
      "Ġdiagnostic": 3928,
      "DI": 3929,
      "Ġvvl": 3930,
      "Ġ100100": 3931,
      "cepted": 3932,
      "++++++++": 3933,
      "ml": 3934,
      "Ġfix": 3935,
      "Ġtimer": 3936,
      "Ġ200000": 3937,
      "200010": 3938,
      "Mode": 3939,
      "PLL": 3940,
      "np": 3941,
      "not": 3942,
      "Ġnod": 3943,
      "conj": 3944,
      "ĠSS": 3945,
      "Ġ\\\\": 3946,
      "14159265359": 3947,
      "Ġlet": 3948,
      "idul": 3949,
      "ĠprContain": 3950,
      "ĠCO": 3951,
      "ĠPRINT": 3952,
      "eded": 3953,
      "(\"<<": 3954,
      "ĠPro": 3955,
      "âķĲâķ¦âķĲâķ©": 3956,
      "ĊĠĠĠĉĉ": 3957,
      "Ġlnum": 3958,
      "ocess": 3959,
      "(_)": 3960,
      "ĊĠĠĠĠĊĠĠĠĠĊĠĠĠĠĊĠĠĠĠ": 3961,
      "warukazu": 3962,
      "'},{'.','.','.','.','.','.','.','.','.'},{'.','.','.','.','.','.','.','.','.": 3963,
      "found": 3964,
      "sd": 3965,
      "ithub": 3966,
      "ERO": 3967,
      "*)": 3968,
      "carry": 3969,
      "Ġ'-'": 3970,
      "Ġprec": 3971,
      "Ġchkmin": 3972,
      "ONLINE": 3973,
      "ise": 3974,
      "Ġclear": 3975,
      "Ġtout": 3976,
      "Ġini": 3977,
      "Ġchoose": 3978,
      "abc": 3979,
      ")].": 3980,
      "AH": 3981,
      "Ġ**": 3982,
      "Ġcal": 3983,
      "Ġap": 3984,
      "){}": 3985,
      "ĠAl": 3986,
      "Index": 3987,
      "âĸĪâĸĪâķĳ": 3988,
      "Ġĉĉ": 3989,
      "ĠFIN": 3990,
      "Ġexhausted": 3991,
      "ations": 3992,
      "CC": 3993,
      "who": 3994,
      "Ġnp": 3995,
      "Ġdud": 3996,
      "Ġansw": 3997,
      "Ġargument": 3998,
      "MXN": 3999,
      "Ġ14": 4000,
      "+='": 4001,
      "âł¹": 4002,
      "limit": 4003,
      "483": 4004,
      "Ġvertex": 4005,
      "ĠFILL": 4006,
      "Exp": 4007,
      "cum": 4008,
      "match": 4009,
      "Ġfen": 4010,
      "ĠSORT": 4011,
      "Ġ'?')": 4012,
      "Al": 4013,
      "CM": 4014,
      "ĠBIT": 4015,
      "(~": 4016,
      "Ġds": 4017,
      "Ġjt": 4018,
      "Ġrge": 4019,
      "Ġprod": 4020,
      "Ġsystem": 4021,
      "14159265358979323846264338327950": 4022,
      "LOG": 4023,
      "#######": 4024,
      "Ġ100010": 4025,
      "score": 4026,
      "maining": 4027,
      "Arrays": 4028,
      "Path": 4029,
      "Ð»": 4030,
      "rease": 4031,
      "ĠGraph": 4032,
      "ally": 4033,
      ";;;;;;;": 4034,
      "Ġnumbers": 4035,
      "Last": 4036,
      "github": 4037,
      "Ġay": 4038,
      "Ġmll": 4039,
      "ĠCON": 4040,
      "Ġview": 4041,
      "hh": 4042,
      "lhs": 4043,
      "reate": 4044,
      "Ġrepd": 4045,
      "))))": 4046,
      "friend": 4047,
      "fun": 4048,
      "Ġ'('": 4049,
      "Ġchmin": 4050,
      "Ġ1000005": 4051,
      "]->": 4052,
      "inverse": 4053,
      "Ġ\"\")": 4054,
      "Ġeach": 4055,
      "((*": 4056,
      "ĠEdge": 4057,
      "-');": 4058,
      "Head": 4059,
      "Ġcx": 4060,
      "Ġcor": 4061,
      "Ġ*__": 4062,
      "Init": 4063,
      "ĠxyPoint": 4064,
      "=%": 4065,
      "]%=": 4066,
      "ao": 4067,
      "Ġĉĉĉ": 4068,
      "<<__": 4069,
      "ĠTs": 4070,
      "kek": 4071,
      "ĠBU": 4072,
      "active": 4073,
      "Res": 4074,
      "py": 4075,
      "Ġ&(": 4076,
      "Maxn": 4077,
      "################################################": 4078,
      "ersection": 4079,
      "versedIntegerRange": 4080,
      "Single": 4081,
      "Ġinter": 4082,
      "Ġresp": 4083,
      "chk": 4084,
      "Ġdecltype": 4085,
      "1828": 4086,
      "ĠInteger": 4087,
      "Ġhoge": 4088,
      "Equal": 4089,
      "over": 4090,
      "Ġsw": 4091,
      "Ġsfl": 4092,
      "Ġ40": 4093,
      "ATE": 4094,
      "Pair": 4095,
      "ins": 4096,
      "Ġsb": 4097,
      "Ġeq": 4098,
      "Ġ/\\": 4099,
      "current": 4100,
      "Ġreplace": 4101,
      "VAR": 4102,
      "run": 4103,
      "Ġchmax": 4104,
      "height": 4105,
      "Ġsource": 4106,
      "Ġtimes": 4107,
      "Ġ\\|": 4108,
      "tolower": 4109,
      "Ġ(#": 4110,
      "Ġtim": 4111,
      "Ġtag": 4112,
      "let": 4113,
      "ĠTH": 4114,
      "Ġequal": 4115,
      ")).": 4116,
      "â¢»": 4117,
      "=='\\": 4118,
      "onentiation": 4119,
      "'][": 4120,
      "fp": 4121,
      "Ġ..": 4122,
      "defined": 4123,
      "Ġprop": 4124,
      "ĠPi": 4125,
      "Ġisprime": 4126,
      "86": 4127,
      "RI": 4128,
      "ÙĦ": 4129,
      "Ġ64": 4130,
      "ĠĠĊĠĠĠ": 4131,
      "Ġpy": 4132,
      "ĠII": 4133,
      "ĠBASE": 4134,
      "888888888888888888888888": 4135,
      "Sub": 4136,
      "bfs": 4137,
      "Ġ...)": 4138,
      "Ġpx": 4139,
      "mas": 4140,
      "Ġlev": 4141,
      "delta": 4142,
      "Find": 4143,
      "vp": 4144,
      "Ġ):": 4145,
      "â£Ĩ": 4146,
      "Ġsorted": 4147,
      "ĊĠĠĠĠĠĠĠĠĊĠĠĠ": 4148,
      "Ġnever": 4149,
      "â£¿â£¿â£¿â£¿â£¿â£¿â£¿â£¿â£¿â£¿â£¿â£¿â£¿â£¿â£¿â£¿": 4150,
      "[]=": 4151,
      "zz": 4152,
      "Ġmset": 4153,
      "Ġfail": 4154,
      "Ġsigned": 4155,
      "EDD": 4156,
      "IR": 4157,
      "WEEEEEEEEEEEE": 4158,
      "KKE": 4159,
      "KKW": 4160,
      "WWKKKKK": 4161,
      "Ġ256": 4162,
      "Ġprim": 4163,
      "<<\")": 4164,
      "Ġ.::.": 4165,
      "WWWK": 4166,
      "Ġshould": 4167,
      "tfGGGDDDDDDDDDDDD": 4168,
      "Ġ.:;": 4169,
      "fo": 4170,
      "Ġ23": 4171,
      "Ġthr": 4172,
      ",`": 4173,
      "home": 4174,
      "nu": 4175,
      "ini": 4176,
      "lem": 4177,
      "....:": 4178,
      "Ġ%.": 4179,
      "ĠDebug": 4180,
      "1000001": 4181,
      "divi": 4182,
      "âĶĢâĶĢâĶĢâĶĢ": 4183,
      "GL": 4184,
      "svalc": 4185,
      "xs": 4186,
      "Ġmo": 4187,
      "Ġdt": 4188,
      "Ġprep": 4189,
      "203": 4190,
      "aaaa": 4191,
      "subtree": 4192,
      "rightChild": 4193,
      "78": 4194,
      "Col": 4195,
      "]^": 4196,
      "ka": 4197,
      "norm": 4198,
      "rank": 4199,
      "vb": 4200,
      "Ġfout": 4201,
      "ĠField": 4202,
      "ĠPF": 4203,
      "5000": 4204,
      "call": 4205,
      "ved": 4206,
      "Ġï¿½ï¿½": 4207,
      "seeing": 4208,
      "arp": 4209,
      "Ġreq": 4210,
      "Ġge": 4211,
      "Ġostr": 4212,
      "Ġzipper": 4213,
      "Ġany": 4214,
      "Ġrtn": 4215,
      "14159265358979323846264338327950288": 4216,
      "Ġmatch": 4217,
      "------------------------": 4218,
      "Ġscore": 4219,
      "Ġcols": 4220,
      "Ġsfll": 4221,
      "200001": 4222,
      "147483": 4223,
      "Ġmodinv": 4224,
      "ĠCH": 4225,
      "36": 4226,
      "TN": 4227,
      "func": 4228,
      "Ġistringstream": 4229,
      "Ġpal": 4230,
      "llint": 4231,
      "//~": 4232,
      "Ġforit": 4233,
      "ĠFT": 4234,
      "ĠNL": 4235,
      "field": 4236,
      "area": 4237,
      "ĠĠĠĠĠĠĠĠĠĠĠĠĠĠĠĠĠĠĠĠĠĠ": 4238,
      "Ġgi": 4239,
      "Ġnumeric": 4240,
      "leftChild": 4241,
      "Ġcases": 4242,
      "OU": 4243,
      "Ġrel": 4244,
      "Ġways": 4245,
      "minus": 4246,
      "10000000": 4247,
      "1000000000": 4248,
      "InputIterator": 4249,
      "CD": 4250,
      "code": 4251,
      "taken": 4252,
      "Ġft": 4253,
      "Ġbal": 4254,
      "!='": 4255,
      "]);}": 4256,
      "_____": 4257,
      "ents": 4258,
      "'));": 4259,
      "Arg": 4260,
      "cu": 4261,
      "td": 4262,
      "stk": 4263,
      "Ġlps": 4264,
      "segment": 4265,
      "dbl": 4266,
      "Ġ****************": 4267,
      "reserve": 4268,
      "Ġ(&": 4269,
      "Ġpe": 4270,
      "Ġbet": 4271,
      "Ġ-(": 4272,
      "__<<\":": 4273,
      "ĠFind": 4274,
      "load": 4275,
      "Ġlbnd": 4276,
      "uclide": 4277,
      "imp": 4278,
      "ose": 4279,
      "*****/": 4280,
      "Ġuid": 4281,
      "Ġuti": 4282,
      "Ġubnd": 4283,
      "42": 4284,
      ";)": 4285,
      "]&": 4286,
      "Ġsrt": 4287,
      "Ġ')';": 4288,
      "+\"": 4289,
      "Ġpob": 4290,
      "ĠTimer": 4291,
      "Ġpossible": 4292,
      "à¦¿": 4293,
      "ĠRAIter": 4294,
      "?-": 4295,
      "FI": 4296,
      "Ġ**/": 4297,
      "Ġbind": 4298,
      "<<\",\"<<": 4299,
      "Ġrepr": 4300,
      "<<\"(\"<<": 4301,
      "Ġconnect": 4302,
      "Ġfastio": 4303,
      "NNNN": 4304,
      "Ġallocate": 4305,
      "?\"": 4306,
      "Op": 4307,
      "Sz": 4308,
      "The": 4309,
      "Vs": 4310,
      "bi": 4311,
      "ĠĊĠĠĠĠĠ": 4312,
      "Ġ[]": 4313,
      "Ġcd": 4314,
      "ĠLB": 4315,
      "âłī": 4316,
      "14159265": 4317,
      "Ġmodulo": 4318,
      "buffer": 4319,
      "147483647": 4320,
      ",'": 4321,
      "Div": 4322,
      "Ġsll": 4323,
      "Ġtb": 4324,
      "Ġtrav": 4325,
      "Ġ',',": 4326,
      "Ġdigit": 4327,
      ",:.": 4328,
      "500005": 4329,
      "â£¤": 4330,
      "ĠRREP": 4331,
      "============": 4332,
      "ahman": 4333,
      "ÐĲÐ": 4334,
      ":/": 4335,
      "_)": 4336,
      "dr": 4337,
      "ĠTN": 4338,
      "Ġvisit": 4339,
      "Ġdefined": 4340,
      "[]={-": 4341,
      "âĸĴâĸĴâĸĴâĸĴâĸĴâĸĴâĸĴâĸĴ": 4342,
      ")++": 4343,
      "hen": 4344,
      "Ġpairt": 4345,
      "â£¶": 4346,
      "Ġldb": 4347,
      ")+'": 4348,
      "\"\"\"\"": 4349,
      "plicit": 4350,
      "ĠTESTS": 4351,
      "52": 4352,
      "source": 4353,
      "tar": 4354,
      "Ġold": 4355,
      "ĠIs": 4356,
      "ĠFORN": 4357,
      "Ġheight": 4358,
      "ja": 4359,
      "ki": 4360,
      "rnd": 4361,
      "reated": 4362,
      "..........": 4363,
      "counter": 4364,
      "Ġ42": 4365,
      "upid": 4366,
      "Ġmsg": 4367,
      "afe": 4368,
      "www": 4369,
      "Ġproblem": 4370,
      "âķĲâķ¦âķĲâķ©âķĲâķ¦âķĲâķ©": 4371,
      "IC": 4372,
      "ject": 4373,
      "ords": 4374,
      "Ġla": 4375,
      "Ġda": 4376,
      "ert": 4377,
      ".\\": 4378,
      "Ġax": 4379,
      "Ġha": 4380,
      "ĠRest": 4381,
      "Ġ\";__": 4382,
      "ĠOf": 4383,
      "Ġoptimization": 4384,
      "SET": 4385,
      "Ġends": 4386,
      "â¡ĩ": 4387,
      "Ġperm": 4388,
      "\">": 4389,
      "DFS": 4390,
      "Table": 4391,
      "cn": 4392,
      "Ġapp": 4393,
      "()<": 4394,
      "##########": 4395,
      "Ġsci": 4396,
      "MaxN": 4397,
      ")|": 4398,
      "jt": 4399,
      "ÙĲ": 4400,
      "DDDDD": 4401,
      "]]){": 4402,
      "ï¿½ï¿½ï¿½ï¿½ï¿½ï¿½ï¿½ï¿½": 4403,
      "ĊĊĊĊĊĊ": 4404,
      "MACRO": 4405,
      "rx": 4406,
      "Ġ------": 4407,
      "//.": 4408,
      "Ġti": 4409,
      "Ġ20000": 4410,
      "])){": 4411,
      "103": 4412,
      "({{": 4413,
      "sive": 4414,
      "Ġspecial": 4415,
      "gram": 4416,
      "123456789": 4417,
      ":\",": 4418,
      "Sh": 4419,
      "equal": 4420,
      "got": 4421,
      "ktop": 4422,
      "Ġanc": 4423,
      "itch": 4424,
      "())-": 4425,
      "999": 4426,
      "ĊĠĠĠĠĠĠĠĠĠĠĠĠĠĠĠĠĠĠĠĠĠĠĠĠĠĠĠĠĠĠĠĠĠĠĠĠĠĠĠĠĠĠĠĠĠĠĠ": 4427,
      "cccc": 4428,
      "Desktop": 4429,
      "First": 4430,
      "aux": 4431,
      "ni": 4432,
      "qry": 4433,
      "ĠĠĠĠĊĠĠĠ": 4434,
      "Ġminn": 4435,
      "ï¼ģ": 4436,
      "Gi": 4437,
      "bx": 4438,
      "lz": 4439,
      "ug": 4440,
      "Ġjud": 4441,
      "000000000000000000": 4442,
      "BIT": 4443,
      "GNU": 4444,
      "way": 4445,
      "Ġafter": 4446,
      "Ġfb": 4447,
      "ĠRes": 4448,
      "fh": 4449,
      "alk": 4450,
      "pped": 4451,
      "ĠOut": 4452,
      "andard": 4453,
      "Ġ.,": 4454,
      "Ġlead": 4455,
      "Ġsha": 4456,
      "Ġunion": 4457,
      "fix": 4458,
      "pf": 4459,
      "rope": 4460,
      "Ġmode": 4461,
      "],&": 4462,
      "Ġhow": 4463,
      "ACH": 4464,
      "Ġ'.'": 4465,
      "Monoid": 4466,
      "wik": 4467,
      "|=": 4468,
      "Ġml": 4469,
      "Ġ22": 4470,
      "maxl": 4471,
      "ĠDist": 4472,
      "âł»": 4473,
      "ĠHOME": 4474,
      "Ġdivs": 4475,
      "7772": 4476,
      "Ġ(~(": 4477,
      "uv": 4478,
      "ĊĠĠĠĠĊĠĠĠĠĊĠĠĠ": 4479,
      "Ġvld": 4480,
      "itf": 4481,
      "Ġ&...": 4482,
      "])*": 4483,
      "Ġmemcpy": 4484,
      "Ġheap": 4485,
      "digits": 4486,
      ")&&(": 4487,
      "TIME": 4488,
      "cut": 4489,
      "ÙĴ": 4490,
      "Ġï¿½ï¿½ï¿½": 4491,
      "Ġlz": 4492,
      "KKWWWW": 4493,
      "Ġllinf": 4494,
      "GGDDDDDDDDDDD": 4495,
      "Ġ100001": 4496,
      "WWWWWWWWWWWWWWWW": 4497,
      "âł¿": 4498,
      "Ġunique": 4499,
      "Ġ.:,:": 4500,
      "71": 4501,
      "Flow": 4502,
      "dg": 4503,
      "ĊĠĠĠĊĠĠ": 4504,
      "modul": 4505,
      "0001": 4506,
      "ĠGcd": 4507,
      "]+(": 4508,
      "iev": 4509,
      "à¦°": 4510,
      "Ð¾Ð": 4511,
      "FT": 4512,
      "Rep": 4513,
      "Ġnb": 4514,
      "Ġprob": 4515,
      "ĠprintSingle": 4516,
      "Ġ'.';": 4517,
      "Ġwhen": 4518,
      "3456789": 4519,
      "RR": 4520,
      "ell": 4521,
      "fd": 4522,
      "gen": 4523,
      "Ġ13": 4524,
      "poss": 4525,
      "visit": 4526,
      "978": 4527,
      "Ġrows": 4528,
      "Users": 4529,
      "ĠRD": 4530,
      "remove": 4531,
      "Ġpwr": 4532,
      "Ġmkp": 4533,
      "âłĢâłĢâłĢâłĢ": 4534,
      "']=": 4535,
      "Ġendif": 4536,
      "oupper": 4537,
      "Ġbot": 4538,
      "Ġyear": 4539,
      "lip": 4540,
      "ANG": 4541,
      "jkstra": 4542,
      "dle": 4543,
      "Ġimag": 4544,
      "Ġevery": 4545,
      "Ġremaining": 4546,
      "tices": 4547,
      "ĠMD": 4548,
      "ĠVs": 4549,
      "ĠVVI": 4550,
      "<<\"[\";": 4551,
      "ĠCONT": 4552,
      "777216": 4553,
      ":%": 4554,
      "PRO": 4555,
      "Query": 4556,
      "_.": 4557,
      "fail": 4558,
      "ones": 4559,
      "()&&": 4560,
      ".............": 4561,
      "_______": 4562,
      "ĠCP": 4563,
      "getline": 4564,
      "Ġclk": 4565,
      "('-');": 4566,
      "ãĢĲ": 4567,
      "ãĢĳ": 4568,
      "GNUC": 4569,
      "=__": 4570,
      "Ġcb": 4571,
      "itive": 4572,
      ">>{": 4573,
      "Ġ63": 4574,
      "quare": 4575,
      "short": 4576,
      "Ġimie": 4577,
      "Get": 4578,
      "]<<\"\\": 4579,
      "ius": 4580,
      "year": 4581,
      "ĠJUDGE": 4582,
      "Ġav": 4583,
      "Ġ111": 4584,
      "Ġ21": 4585,
      "igh": 4586,
      "Ġstupid": 4587,
      "ï¼Į": 4588,
      "82": 4589,
      "rom": 4590,
      "Ġca": 4591,
      "eros": 4592,
      "Ġresize": 4593,
      "ĠPower": 4594,
      "ĠBS": 4595,
      "ĊĉĠĉ": 4596,
      "'].": 4597,
      "HT": 4598,
      "ham": 4599,
      "ky": 4600,
      "xb": 4601,
      "zi": 4602,
      "Ġ<>": 4603,
      "Ġass": 4604,
      "ence": 4605,
      "fori": 4606,
      "]]+": 4607,
      "sf": 4608,
      "Ġ));": 4609,
      "Ġpointer": 4610,
      "â£¿â£·": 4611,
      "arning": 4612,
      "isp": 4613,
      "111000": 4614,
      "Ġseen": 4615,
      "]=='*": 4616,
      "Ġextended": 4617,
      "Ġsuffix": 4618,
      "Ġoverflow": 4619,
      "æķ": 4620,
      "Ġlt": 4621,
      "Ġlarge": 4622,
      "Ġdj": 4623,
      "ĊĠĠĠĠĠĠĠĠĠĠĠĠĠĠĠĠĠĠĠĠĠĠ": 4624,
      "Ġunite": 4625,
      "Ġ\":\"": 4626,
      "Ġspeed": 4627,
      "ĠSHOW": 4628,
      "(--": 4629,
      ",*": 4630,
      "133": 4631,
      "ee": 4632,
      "iable": 4633,
      "mitr": 4634,
      "ĠĊĠĠĠĠ": 4635,
      "seen": 4636,
      "Ġpart": 4637,
      "ache": 4638,
      "optim": 4639,
      "ĠTo": 4640,
      "Ġys": 4641,
      "Ġ105": 4642,
      "aze": 4643,
      "Ġscc": 4644,
      "5001": 4645,
      "»¿": 4646,
      "ï»¿": 4647,
      "Ġstre": 4648,
      "Ġseq": 4649,
      "TEST": 4650,
      "binary": 4651,
      "ĠOutput": 4652,
      "QUE": 4653,
      "oun": 4654,
      "urs": 4655,
      "Ġdon": 4656,
      "ĠAN": 4657,
      "ĠAc": 4658,
      "indx": 4659,
      "Ġelements": 4660,
      "Ġ****************************************************************": 4661,
      "Ġfloor": 4662,
      "ough": 4663,
      "ĠRI": 4664,
      "shift": 4665,
      "]<='": 4666,
      "Ġï¿½ï¿½ï¿½ï¿½ï¿½ï¿½ï¿½ï¿½ï¿½": 4667,
      "lx": 4668,
      "{{": 4669,
      "ĠOF": 4670,
      "__________": 4671,
      "info": 4672,
      "Ġfinish": 4673,
      "Ġcycle": 4674,
      "Ġ'*')": 4675,
      "Ġgenerated": 4676,
      "bte": 4677,
      "rp": 4678,
      "toupper": 4679,
      "Ġ'+": 4680,
      "agate": 4681,
      "Ġcompare": 4682,
      "ĠCompare": 4683,
      "uclid": 4684,
      "OM": 4685,
      "dj": 4686,
      "vx": 4687,
      "standard": 4688,
      "Ġsrc": 4689,
      "ĠTr": 4690,
      "Ġwa": 4691,
      "ĠMore": 4692,
      "ĠPOW": 4693,
      "cket": 4694,
      "æķ°": 4695,
      "94": 4696,
      ":...": 4697,
      "eam": 4698,
      "Ãł": 4699,
      "Ġphi": 4700,
      "tern": 4701,
      "5477": 4702,
      ")>::": 4703,
      "81": 4704,
      "All": 4705,
      "Alex": 4706,
      "sw": 4707,
      "ĠĠĊ": 4708,
      "Ġvr": 4709,
      "Ġwarning": 4710,
      "Ġqueries": 4711,
      "Ġstm": 4712,
      "};//": 4713,
      "ĠAccepted": 4714,
      ".\"": 4715,
      "73": 4716,
      "DEP": 4717,
      "Graph": 4718,
      "TO": 4719,
      "pat": 4720,
      "xa": 4721,
      "Ġson": 4722,
      "Ġturn": 4723,
      "ĠCheck": 4724,
      "5807": 4725,
      "âĸĪâĸĪâĸĪâĸĪâĸĪ": 4726,
      "ucky": 4727,
      "product": 4728,
      "Exponentiation": 4729,
      "499": 4730,
      "BLE": 4731,
      "tK": 4732,
      "templ": 4733,
      "æľ": 4734,
      "Ġ'_": 4735,
      "omet": 4736,
      "âĸĴâĸĦ": 4737,
      "22337": 4738,
      "141592653589793": 4739,
      "685477": 4740,
      "203685477": 4741,
      "22337203685477": 4742,
      "Dmitr": 4743,
      "JHelper": 4744,
      "TH": 4745,
      "vt": 4746,
      "word": 4747,
      "eni": 4748,
      "tii": 4749,
      "Ġ24": 4750,
      "Ġbitset": 4751,
      "ĠJHelper": 4752,
      "eyDmitr": 4753,
      "AlexeyDmitr": 4754,
      "AlexeyDmitriev": 4755,
      "turn": 4756,
      "Ġmsi": 4757,
      "Ġxr": 4758,
      "Ġrrep": 4759,
      "Ġ'(')": 4760,
      "])/": 4761,
      "ĠSize": 4762,
      ";;;;;": 4763,
      "à¦¨": 4764,
      "rows": 4765,
      "ahidul": 4766,
      "disable": 4767,
      "expo": 4768,
      "]>='": 4769,
      "Than": 4770,
      "cat": 4771,
      "jd": 4772,
      "tv": 4773,
      "Ġlinf": 4774,
      "Ġ}*/": 4775,
      "tient": 4776,
      "Ġway": 4777,
      "ĠSum": 4778,
      "fff": 4779,
      "Ġlook": 4780,
      "Ġ1005": 4781,
      "ĠInputIterator": 4782,
      "cycle": 4783,
      "4197": 4784,
      "DBG": 4785,
      "ĠskipWhitespace": 4786,
      "Word": 4787,
      "Ġ************************": 4788,
      "Ġpfl": 4789,
      "Ġdump": 4790,
      "ĠFR": 4791,
      "iss": 4792,
      "Ġgetint": 4793,
      "aves": 4794,
      "SH": 4795,
      "wick": 4796,
      "Ġ))": 4797,
      "isWhitespace": 4798,
      "ĠSeg": 4799,
      "Ġitn": 4800,
      "ĊĉĉĉĉĊĉĉĉ": 4801,
      "!!!": 4802,
      "141592653589793238462643383279502884197": 4803,
      "223372036854775807": 4804,
      ")^": 4805,
      "ian": 4806,
      "ken": 4807,
      "Ġfe": 4808,
      "Ġjoin": 4809,
      "Ġ28": 4810,
      "Ġ|\\": 4811,
      "Ġrepi": 4812,
      "Ġ\\/": 4813,
      "FFER": 4814,
      "ITE": 4815,
      ")<=(": 4816,
      "vy": 4817,
      "Ġnc": 4818,
      "ous": 4819,
      "uler": 4820,
      "ĠINFLL": 4821,
      "MMMMM": 4822,
      "ĠOp": 4823,
      "DataEnd": 4824,
      "bc": 4825,
      "cstd": 4826,
      "tk": 4827,
      "forward": 4828,
      "------------------------------": 4829,
      "Ġinitial": 4830,
      "iiiiiiii": 4831,
      "LONG": 4832,
      "Ġumap": 4833,
      "Ġspace": 4834,
      "brur": 4835,
      "Ġhello": 4836,
      "slope": 4837,
      "ĠCommon": 4838,
      "&(-": 4839,
      "PR": 4840,
      "Root": 4841,
      "han": 4842,
      "half": 4843,
      "Ġ<(": 4844,
      "atan": 4845,
      "ĠmodPow": 4846,
      "180": 4847,
      "Ġ1000001": 4848,
      "Ġpoww": 4849,
      "solver": 4850,
      "Ġside": 4851,
      "Dice": 4852,
      "bg": 4853,
      "qs": 4854,
      "Ġumax": 4855,
      "Ġstore": 4856,
      "âĸĳâĸĳâĸĮ": 4857,
      "pdd": 4858,
      "Ġ100000000000000000": 4859,
      "////////////": 4860,
      "ayer": 4861,
      "ants": 4862,
      "Impl": 4863,
      "ðŁĴ©ðŁĴ©ðŁĴ©ðŁĴ©": 4864,
      "PRE": 4865,
      "sCount": 4866,
      "è¿": 4867,
      "Ġ.....": 4868,
      "Ġ*****": 4869,
      "reader": 4870,
      "ĠnC": 4871,
      "ather": 4872,
      "aaa": 4873,
      "Ġdoes": 4874,
      "initial": 4875,
      "..................................": 4876,
      "Ġweight": 4877,
      "Ġhttp": 4878,
      "ï»¿#": 4879,
      ":.....": 4880,
      "KWWWWWW": 4881,
      "LGGGDDDDDDDDDDDD": 4882,
      "POW": 4883,
      "()%": 4884,
      "Ġ\"?": 4885,
      "WWKKKK": 4886,
      "Ġwatch": 4887,
      "LLGGDDDDDDDDDDD": 4888,
      "Ġocc": 4889,
      "EEEED": 4890,
      "0000000000000000": 4891,
      "DDDDDD": 4892,
      "KKKKKKKKKKK": 4893,
      "ĠVL": 4894,
      "ĠreadArray": 4895,
      "2010": 4896,
      ";;;;;;;;;;;;;;;;": 4897,
      "WWWWWWWKKKKK": 4898,
      "hat": 4899,
      "vowel": 4900,
      "ĠUB": 4901,
      "..........................": 4902,
      "versity": 4903,
      "SA": 4904,
      "Ġfp": 4905,
      "Ġrv": 4906,
      "===": 4907,
      "Ġyn": 4908,
      "Ġgl": 4909,
      "Ġunz": 4910,
      "ANS": 4911,
      "eight": 4912,
      "oll": 4913,
      "den": 4914,
      "Ġ{\"": 4915,
      "Ġfil": 4916,
      "Ġbi": 4917,
      "****/": 4918,
      "ĊĊĊĠĠĠĠĠĠĠ": 4919,
      "Ġumin": 4920,
      "Ġqry": 4921,
      "Ġ#\"": 4922,
      "unused": 4923,
      "ĠLS": 4924,
      "LIB": 4925,
      "PPL": 4926,
      "sdbg": 4927,
      "Ġlin": 4928,
      "amp": 4929,
      "iful": 4930,
      "ĠDi": 4931,
      "Ġexplicit": 4932,
      "----------------------------------------------------------------": 4933,
      "******/": 4934,
      "Ġnothing": 4935,
      "Ġrelax": 4936,
      "Circle": 4937,
      "nv": 4938,
      "pnt": 4939,
      "Ġmu": 4940,
      "Ġpnt": 4941,
      "Ġrit": 4942,
      "Ġ200010": 4943,
      "thing": 4944,
      "ĠFORR": 4945,
      "ERE": 4946,
      "Ġpowm": 4947,
      "Ġorig": 4948,
      "hoge": 4949,
      "ored": 4950,
      "pv": 4951,
      "ĠĊĉĉĉ": 4952,
      "Ġpu": 4953,
      "Ġdf": 4954,
      "tiTest": 4955,
      "ĠStr": 4956,
      "ĠRead": 4957,
      "ĠLG": 4958,
      "timer": 4959,
      "ĠreadImpl": 4960,
      "ĠArr": 4961,
      "(_,": 4962,
      "ĠinitArrays": 4963,
      "Ġsubm": 4964,
      "numbers": 4965,
      "ĠSegmentTree": 4966,
      "GCD": 4967,
      "Ġtx": 4968,
      "Ġllu": 4969,
      "Ġgg": 4970,
      "ĠAR": 4971,
      "Ġ5000": 4972,
      "ĠXXX": 4973,
      "Ġvvii": 4974,
      "cyc": 4975,
      "$$$$": 4976,
      "ĠEndl": 4977,
      "Ġpoly": 4978,
      ";_": 4979,
      "EOF": 4980,
      "so": 4981,
      "}]": 4982,
      "ĠtStart": 4983,
      "idth": 4984,
      "ĊĠĠĠĠĠĊĠĠĠ": 4985,
      "\"<<__": 4986,
      "ĊĠĠĠĠĠĠĠĠĠĠĠĠĠĠĠĠĠĠĠĠĠĠĠĠĠĠĠĠĠĠĠĠĠĠĠĠĠĠĠĠ": 4987,
      "Inv": 4988,
      "Ġfactd": 4989,
      "IGHT": 4990,
      "\"+": 4991,
      "Stop": 4992,
      "each": 4993,
      "fc": 4994,
      "Ġcos": 4995,
      "clr": 4996,
      "ita": 4997,
      "ings": 4998,
      "Ġ201": 4999,
      "ĠDL": 5000,
      "ĠData": 5001,
      "ĠMXN": 5002,
      "raw": 5003,
      "à§į": 5004,
      "Ġdigits": 5005,
      "AK": 5006,
      "Fraction": 5007,
      "fre": 5008,
      "cand": 5009,
      "Ġtry": 5010,
      "valarray": 5011,
      "vertex": 5012,
      "123456": 5013,
      "33333333": 5014,
      "Search": 5015,
      "ĠCOMP": 5016,
      ")]);": 5017,
      "Bits": 5018,
      "DS": 5019,
      "Team": 5020,
      "lin": 5021,
      "dev": 5022,
      "++]);": 5023,
      "ĊĉĉĠ": 5024,
      "Ġ33": 5025,
      "ĠLcm": 5026,
      "Ġdeep": 5027,
      "divs": 5028,
      "Ġbitmaxl": 5029,
      "ĠUni": 5030,
      "83": 5031,
      "={": 5032,
      "gon": 5033,
      "nValue": 5034,
      "Â¦": 5035,
      "Ġ##": 5036,
      "Ġign": 5037,
      "Ġlcp": 5038,
      "Ġfio": 5039,
      "leaf": 5040,
      "Ġ&);": 5041,
      "buw": 5042,
      "ilon": 5043,
      "â£¿â£¿â£¿": 5044,
      "MMMMMM": 5045,
      "ĠInit": 5046,
      "%%%%%%%%": 5047,
      "At": 5048,
      "fvalc": 5049,
      "ream": 5050,
      "])*(": 5051,
      "chain": 5052,
      ">=_": 5053,
      "Ġepsilon": 5054,
      "Ġ(\".": 5055,
      "Ġextgcd": 5056,
      "decay": 5057,
      "hull": 5058,
      "sv": 5059,
      "rection": 5060,
      "000001": 5061,
      "ĠApp": 5062,
      "ĠPL": 5063,
      "getnum": 5064,
      "\"){": 5065,
      ")>(": 5066,
      "OK": 5067,
      "Timer": 5068,
      "ib": 5069,
      "Ġputi": 5070,
      "Ġvt": 5071,
      "Ġbx": 5072,
      "spl": 5073,
      "Ġlowbit": 5074,
      "shuffle": 5075,
      "ä»": 5076,
      "detail": 5077,
      "Ġ\"+": 5078,
      "ĠTEMPORARY": 5079,
      "Ġ'||": 5080,
      "Ġuli": 5081,
      "ĠPRO": 5082,
      "Ġitem": 5083,
      "âĸĪâĸĪâĸĪâĸĪâĸĪâĸĪâĸĪ": 5084,
      "Ġmaximum": 5085,
      "Ġsmallest": 5086,
      "Ġbuffer": 5087,
      "npos": 5088,
      "wb": 5089,
      "Ø±": 5090,
      "Ġmore": 5091,
      "Ġrx": 5092,
      "him": 5093,
      "ĠtoInt": 5094,
      "ĠLLD": 5095,
      "IOS": 5096,
      "values": 5097,
      "ĠUniversity": 5098,
      "Debug": 5099,
      "Ki": 5100,
      "OS": 5101,
      "ĊĠĠĠĊĠĠĠ": 5102,
      "self": 5103,
      "Ġfun": 5104,
      "Ġpv": 5105,
      "Ġ2147483647": 5106,
      "ism": 5107,
      "102": 5108,
      "ĠDA": 5109,
      "ModInt": 5110,
      "ikaze": 5111,
      "ĠPrints": 5112,
      "ä¸Ģ": 5113,
      "95": 5114,
      ":;": 5115,
      "bute": 5116,
      "fb": 5117,
      "kikaze": 5118,
      "tsc": 5119,
      "ĊĠĠĠĠĠĠĠĠĠĠĠĠĠĠĠĠĠĠĠĠĠĠĠĠĠ": 5120,
      "uniform": 5121,
      "Ġinfll": 5122,
      "321": 5123,
      "Ġcompute": 5124,
      "Ġcoef": 5125,
      "ï¼ģï¼ģ": 5126,
      "');}": 5127,
      ")--)": 5128,
      ":\\\\": 5129,
      ";,": 5130,
      "Part": 5131,
      "denom": 5132,
      "Ġrn": 5133,
      "condition": 5134,
      "Ġprin": 5135,
      "Ġposition": 5136,
      "divis": 5137,
      "ĠscanI": 5138,
      "ĠscanL": 5139,
      "REC": 5140,
      "Ġpts": 5141,
      "......:": 5142,
      "jkl": 5143,
      "Ġ{{{": 5144,
      "writer": 5145,
      "ismillah": 5146,
      "'re": 5147,
      "GD": 5148,
      "cas": 5149,
      "mr": 5150,
      "å°": 5151,
      "Ġort": 5152,
      "ĊĉĊĉĊ": 5153,
      "Ġsit": 5154,
      "Ġ\"=": 5155,
      "erc": 5156,
      "ids": 5157,
      "sets": 5158,
      "ĠFA": 5159,
      "---------": 5160,
      "...(": 5161,
      "tra": 5162,
      "ĠVV": 5163,
      "Ġnegative": 5164,
      "#.": 5165,
      "300000": 5166,
      "Seg": 5167,
      "target": 5168,
      "osite": 5169,
      "<<\"{": 5170,
      "Ġcontainer": 5171,
      "ĠPA": 5172,
      "ĊĠĠĉĉ": 5173,
      "sorted": 5174,
      "âłĻ": 5175,
      "ĠHash": 5176,
      "elp": 5177,
      "policies": 5178,
      "\"))": 5179,
      "åĪ": 5180,
      "Ġuf": 5181,
      "ĠFJ": 5182,
      "ĊĠĠĠĠĠĠĠĠĠĠĠĠĠĠĠĠĠĠĠĠĠĠĠĠĠĠĠĠĠĠĠĠĠĠĠĠĠĠĠĠĠĠĠĠĉĉ": 5183,
      "Ġroots": 5184,
      "'ll": 5185,
      ")>>(": 5186,
      "3000": 5187,
      "Vowel": 5188,
      "ding": 5189,
      "ired": 5190,
      "wy": 5191,
      "ï¹": 5192,
      "Ġcu": 5193,
      "Ġpairs": 5194,
      "ĠPER": 5195,
      "Ġstderr": 5196,
      "ĠCh": 5197,
      "Ġtoo": 5198,
      "Ġmulmod": 5199,
      "ngine": 5200,
      "Ext": 5201,
      "Or": 5202,
      "dst": 5203,
      "fen": 5204,
      "jump": 5205,
      "ses": 5206,
      "ODE": 5207,
      "Ġdelete": 5208,
      "Ġclz": 5209,
      "\"<<#": 5210,
      "oney": 5211,
      "addEdge": 5212,
      "1111111111111111": 5213,
      "overflow": 5214,
      "/=(": 5215,
      "/************************": 5216,
      "Taken": 5217,
      "nex": 5218,
      "Ð¡": 5219,
      "åĲ": 5220,
      "Ġpss": 5221,
      "cles": 5222,
      "eractive": 5223,
      "ĠTC": 5224,
      "asdf": 5225,
      "Ġzip": 5226,
      "ĠĠĠĠĠĠĠĠĠĠĠĠĠĠĠĠĠĠĠĠĠĠĠĠĠĠĠĠĠĠĠĠĠĠĠĠĠĠĠĠĠĠ": 5227,
      "150": 5228,
      "â¡Ħ": 5229,
      "âĸĮâĸĮ": 5230,
      "___(": 5231,
      "]++,": 5232,
      "_[": 5233,
      "nTime": 5234,
      "Ġinteger": 5235,
      "Ġ*_": 5236,
      "anges": 5237,
      "forgeeks": 5238,
      "imum": 5239,
      "1011": 5240,
      "Ġ_.": 5241,
      "trace": 5242,
      "estor": 5243,
      "#########": 5244,
      "pts": 5245,
      "ĠMAIN": 5246,
      "ĠApply": 5247,
      "Gcd": 5248,
      "On": 5249,
      "TY": 5250,
      "WIN": 5251,
      "}),": 5252,
      "ĉĊĉĉ": 5253,
      "001": 5254,
      "()];": 5255,
      "Ġtab": 5256,
      "Ġ'{": 5257,
      "ĠĠĠĠĠĠĠĠĠĠĠĠĠĠĠĠĠĠĠĠĠĠĠĠĠĠĠ": 5258,
      "ĠMDL": 5259,
      "ĠLCM": 5260,
      "Ġgets": 5261,
      "++--++": 5262,
      "Ġthere": 5263,
      "OUTC": 5264,
      "++--++--++--++--++--++--++--++--++--++--++--++--++--++--++--++--++--++--++--++--++--++--++--++--++--++--++--++--++--++--++--++--": 5265,
      "geeksforgeeks": 5266,
      ")||(": 5267,
      "CL": 5268,
      "ule": 5269,
      "ĉĠ": 5270,
      "Ġmust": 5271,
      "Ġnu": 5272,
      "uration": 5273,
      "Ġdl": 5274,
      "Ġrotate": 5275,
      "Ġyyy": 5276,
      "Ġwant": 5277,
      "ĠMove": 5278,
      "])==": 5279,
      "minn": 5280,
      "Ġviii": 5281,
      "points": 5282,
      "___/": 5283,
      "Ġ'\"'": 5284,
      "erciful": 5285,
      "FR": 5286,
      "ze": 5287,
      "ĠDD": 5288,
      "Ġcub": 5289,
      "Ġmag": 5290,
      "))-": 5291,
      "prim": 5292,
      "<=_": 5293,
      "eratorMonoid": 5294,
      "ĠLONG": 5295,
      "\"<<(": 5296,
      "ĠEx": 5297,
      "Ġmapa": 5298,
      "âĸĳâĸĳâĸĳâĸĳâĸĳâĸĳâĸĳ": 5299,
      "â¡Ī": 5300,
      "ĠwriteChar": 5301,
      "LIM": 5302,
      "Ġdecrease": 5303,
      "Ġreflect": 5304,
      "tribute": 5305,
      "DEPREC": 5306,
      "kv": 5307,
      "Ġpot": 5308,
      "attribute": 5309,
      "ĊĠĊĠĠĠĠĠĠĠ": 5310,
      "Ġrmq": 5311,
      "Ġword": 5312,
      "Ġ|__": 5313,
      "Ġ300005": 5314,
      "Ġldouble": 5315,
      "times": 5316,
      "present": 5317,
      "Ġnums": 5318,
      "ĠQuery": 5319,
      "ĠUnique": 5320,
      "ĠSPEED": 5321,
      "LOCAL": 5322,
      "With": 5323,
      "bakh": 5324,
      "Ġmrand": 5325,
      "Ġconvert": 5326,
      "ĠFord": 5327,
      "ĠABC": 5328,
      "quest": 5329,
      "100500": 5330,
      "ĠaddEdge": 5331,
      "....................": 5332,
      "poly": 5333,
      ";;;;;;;;;": 5334,
      "Ġangle": 5335,
      "255": 5336,
      "Map": 5337,
      "large": 5338,
      "rat": 5339,
      "inic": 5340,
      "--.": 5341,
      "Ġrf": 5342,
      "Ġprocess": 5343,
      "trans": 5344,
      "ĠstdinBuffer": 5345,
      "occ": 5346,
      "205": 5347,
      "ĊĠĠĠĠĠĠĊĠĠĠĠĠ": 5348,
      "stdinBuffer": 5349,
      "111111": 5350,
      "UTION": 5351,
      "Output": 5352,
      "ĠFIX": 5353,
      "ĠUnion": 5354,
      "bot": 5355,
      "fup": 5356,
      "ko": 5357,
      "nmax": 5358,
      "Ùĳ": 5359,
      "ĠEE": 5360,
      "Ġsome": 5361,
      "Ġifstream": 5362,
      "Ġhelp": 5363,
      "ĠIF": 5364,
      "âłĪ": 5365,
      "Ġsubtree": 5366,
      "sieve": 5367,
      "inary": 5368,
      "Ġsmax": 5369,
      "Ġintersection": 5370,
      "Ġvit": 5371,
      "ĠMN": 5372,
      "ĠNN": 5373,
      "pointer": 5374,
      "Cost": 5375,
      "Par": 5376,
      "Square": 5377,
      "lcm": 5378,
      "nep": 5379,
      "dent": 5380,
      "seed": 5381,
      "Ġsr": 5382,
      "osition": 5383,
      "ntime": 5384,
      "ĠMul": 5385,
      "ODO": 5386,
      "Ġhh": 5387,
      "Ġuniform": 5388,
      "yyo": 5389,
      "Ġalpha": 5390,
      "Project": 5391,
      "ĠANS": 5392,
      "WEE": 5393,
      "ox": 5394,
      "sha": 5395,
      "za": 5396,
      "Ùħ": 5397,
      "ĠĊĠĠĠĠĠĠĠĠĠĠĠĠĠĠĠ": 5398,
      "Ġdays": 5399,
      "__<<\"": 5400,
      "))&": 5401,
      "ĠDF": 5402,
      "ĠOI": 5403,
      "Ġneeded": 5404,
      "Ġlike": 5405,
      "Ei": 5406,
      "EKE": 5407,
      "END": 5408,
      "GEE": 5409,
      "KD": 5410,
      "WKKKKKKKKKKKKKKKK": 5411,
      "dat": 5412,
      "work": 5413,
      "delim": 5414,
      "Ġmf": 5415,
      "ĠfDEEEE": 5416,
      "Ġintersect": 5417,
      "..;": 5418,
      "cont": 5419,
      "ends": 5420,
      "KKWWW": 5421,
      "DDf": 5422,
      "ING": 5423,
      "WWWWWKK": 5424,
      "ĠCount": 5425,
      "KKKKKKKKKKKK": 5426,
      "EEEEEEEEE": 5427,
      "flg": 5428,
      "WWWWWWWWKKKKK": 5429,
      "DDDDDDDDDDDDDDDD": 5430,
      "âłģ": 5431,
      "KKKKKWWKKKKK": 5432,
      "Ġinvfact": 5433,
      "jjt": 5434,
      "KKKKKKKWKK": 5435,
      "WWWWWWWKKKKKK": 5436,
      "EEEEEEEEEEEEEEE": 5437,
      "Ġelif": 5438,
      "ween": 5439,
      "Ġï¿½ï¿½ï¿½ï¿½ï¿½ï¿½ï¿½ï¿½ï¿½ï¿½": 5440,
      "WWWWWKKKKK": 5441,
      "LGGDDDDDDDDDDDD": 5442,
      ",,,,,,,;;;;": 5443,
      "Ġ....::::": 5444,
      "tjLLGGDDDDDDDDDDD": 5445,
      "ĠProblem": 5446,
      "Be": 5447,
      "Two": 5448,
      "qrt": 5449,
      "sn": 5450,
      "tw": 5451,
      ");//": 5452,
      "Ġlson": 5453,
      "--(": 5454,
      "Ġba": 5455,
      "Ġrson": 5456,
      "...........": 5457,
      "nums": 5458,
      "ĠMEMS": 5459,
      "ĊĠĠĠĠĠĠĠĠĠĠĠĠĠĠĠĠĠĠĠĠĠĠĠĠĠĠĠĠĠĠĠĠĠĠĠĠĠĠĠĠĠĠĠĠĠĠĠĠĉ": 5460,
      "<<\")\";": 5461,
      "_##": 5462,
      "cluding": 5463,
      "eration": 5464,
      "forr": 5465,
      "Ġ////": 5466,
      "Ġhs": 5467,
      "ĠINFL": 5468,
      "âķĲâķĿ": 5469,
      "ĠLOGN": 5470,
      "Ġmaximize": 5471,
      "+\".": 5472,
      "Buf": 5473,
      "Gen": 5474,
      "Mat": 5475,
      "UM": 5476,
      "ZERO": 5477,
      "full": 5478,
      "item": 5479,
      "Ġqpow": 5480,
      "----------": 5481,
      "Ġsteps": 5482,
      "ART": 5483,
      "ĠVP": 5484,
      "...................": 5485,
      "ostm": 5486,
      "avy": 5487,
      "ĊĠĠĠĠĠĠĠĠĠĠĠĠĠĠĠĠĊĠĠĠĠĠĠĠĠĠĠĠĠĠĠĠ": 5488,
      ",{": 5489,
      "Un": 5490,
      "foo": 5491,
      "jud": 5492,
      "lr": 5493,
      "lcp": 5494,
      "align": 5495,
      "ĠMat": 5496,
      "ĠFL": 5497,
      "Ġqs": 5498,
      "modify": 5499,
      "ĠCASE": 5500,
      "]={};": 5501,
      "ĠIncluding": 5502,
      "200100": 5503,
      "writeChar": 5504,
      "Ġ'#')": 5505,
      ")],": 5506,
      "MA": 5507,
      "Sort": 5508,
      "ault": 5509,
      "xr": 5510,
      "§ÙĦ": 5511,
      "Ã¥": 5512,
      "Ġvx": 5513,
      "Ġrad": 5514,
      "ĠTODO": 5515,
      "ĠLCA": 5516,
      "Ġisin": 5517,
      "2020": 5518,
      "Ġvertices": 5519,
      "ĠUNI": 5520,
      "ĠØ§ÙĦ": 5521,
      "[-": 5522,
      "ph": 5523,
      "scc": 5524,
      "wd": 5525,
      "ĊĊĠĠĠĠĠĠĠĠĠĠĠĠĠĠĠĠĠĠĠ": 5526,
      "ĊĊĠĠĠĠĠĠ": 5527,
      "Ġnax": 5528,
      "ird": 5529,
      "Ġrecur": 5530,
      "Ġrepp": 5531,
      "utu": 5532,
      "))==": 5533,
      "eta": 5534,
      "modint": 5535,
      "Ġseeing": 5536,
      "]=='#": 5537,
      "ĠENDL": 5538,
      "zipped": 5539,
      "'])": 5540,
      "<>": 5541,
      "FAST": 5542,
      "IS": 5543,
      "List": 5544,
      "ci": 5545,
      "ele": 5546,
      "lag": 5547,
      "stdex": 5548,
      "Ġbas": 5549,
      "__),": 5550,
      "opcr": 5551,
      "Ġgive": 5552,
      "Ġprnt": 5553,
      "Ġprln": 5554,
      "Ġldbl": 5555,
      "Ġshahidul": 5556,
      "Ġmoves": 5557,
      "Ġcombine": 5558,
      "ĠIterator": 5559,
      "stdexcept": 5560,
      "opcrof": 5561,
      "577": 5562,
      "EX": 5563,
      "Fact": 5564,
      "Li": 5565,
      "Name": 5566,
      "aei": 5567,
      "fmt": 5568,
      "oice": 5569,
      "ĠmodInt": 5570,
      "Ġallr": 5571,
      "Ġleaf": 5572,
      "âķļ": 5573,
      "âĸĢâĸĴ": 5574,
      ":.:.": 5575,
      "ĊĠĠĠĠĠĠĠĠĠĠĠĠĠĠĠĠĉ": 5576,
      "multiprecision": 5577,
      "Ġ'\"';": 5578,
      "Ġmagic": 5579,
      "-';": 5580,
      "~(": 5581,
      "inside": 5582,
      "Ġato": 5583,
      "Ġ}}}": 5584,
      "oups": 5585,
      "Ġbc": 5586,
      "ĊĠĠĠĠĠĠĠĠĠĠĠĠĠĠĠĠĠĠĠĠĠĠĠĠ": 5587,
      "Ġ==>": 5588,
      "Ġ27": 5589,
      "Ġuset": 5590,
      "Ġgetbit": 5591,
      "andom": 5592,
      ".................": 5593,
      "à¦Ł": 5594,
      "tical": 5595,
      "Ġminimize": 5596,
      "ĠĠĠĠĠĠĠĠĠĠĠĠĠĠĠĠĠĠĠĠĠĠĠĠĠĠĠĠĠĠĠĠĠĠĠĠĠĠĠĠĠĠĠĠĠĠĠĠĠĠĠĠĠĠĠĠĠĠĠĠĠĠĠĠĠĠĠĠĠĠĠĠĠĠĠĠĠĠĠĠĠĠĠĠĠĠĠĠĠĠĠĠĠĠĠĠĠĠĠĠĠĠĠĠĠĠĠĠĠĠĠĠĠĠĠĠĠĠĠĠĠĠĠĠĠĠĠĠĠĠĠĠĠĠĠĠĠĠĠĠĠĠĠĠĠĠĠĠĠĠĠĠĠĠĠĠĠĠĠĠĠĠĠĠĠĠĠĠĠĠĠĠĠĠĠĠĠĠĠĠĠĠĠĠĠĠĠĠĠĠĠĠĠĠĠĠĠĠĠĠĠĠĠĠĠĠĠĠĠĠĠĠĠĠĠĠĠĠĠĠĠĠĠĠĠĠĠĠĠĠĠĠĠĠĠĠĠĠĠĠĠĠĠĠĠĠĠĠĠĠĠĠĠĠĠĠĠĠĠĠĠĠĠĠĠĠĠĠĠĠĠĠĠĠĠĠĠĠĠĠĠĠĠĠĠĠĠĠĠĠĠĠĠĠĠĠĠĠĠĠĠĠĠĠĠĠĠĠĠĠĠĠĠĠĠĠĠĠĠĠĠĠĠĠĠĠĠĠĠĠĠĠĠĠĠĠĠĠĠĠĠĠĠĠĠĠĠĠĠĠĠĠĠĠĠĠĠĠĠĠĠĠĠĠĠĠĠĠĠĠĠĠĠĠĠĠĠĠĠĠĠĠĠĠĠĠĠĠĠĠĠĠĠĠĠĠĠĠĠĠĠĠĠĠĠĠĠĠĠĠĠĠĠĠĠĠĠĠĠĠĠĠĠĠĠĠĠĠĠĠĠĠĠĠĠĠĠĠĠĠĠĠĠĠĠĠĠĠĠĠĠĠĠĠĠĠĠĠĠĠĠĠĠĠĠĠĠĠĠĠĠĠĠĠĠĠĠĠĠĠĠĠĠĠĠĠĠĠĠĠĠĠĠĠĠĠĠĠĠĠĠĠĠĠĠĠĠĠĠĠĠĠ": 5597,
      "Ġshared": 5598,
      "ĠArray": 5599,
      ";*/": 5600,
      "]};": 5601,
      "cos": 5602,
      "iq": 5603,
      "pot": 5604,
      "tb": 5605,
      "task": 5606,
      "xD": 5607,
      "Ġ],": 5608,
      "Ġent": 5609,
      "Ġten": 5610,
      "(),::": 5611,
      "â¡·": 5612,
      "ĠInputIter": 5613,
      "ĠcrossOper": 5614,
      "floatfield": 5615,
      "ĠStart": 5616,
      "basic": 5617,
      "ByOne": 5618,
      "traits": 5619,
      "#.#.": 5620,
      "ĠdecreaseByOne": 5621,
      "\"};": 5622,
      "500000": 5623,
      "??": 5624,
      "NC": 5625,
      "fu": 5626,
      "sb": 5627,
      "tem": 5628,
      "Ðº": 5629,
      "ĊĉĠĠĠĠĠĠĠĠĠĠĠ": 5630,
      "Ġprl": 5631,
      "//////": 5632,
      "ĠBit": 5633,
      "ESS": 5634,
      "Ġiss": 5635,
      "/****************************************": 5636,
      "Ġdivisor": 5637,
      "Ġignored": 5638,
      "Lower": 5639,
      "`.": 5640,
      "ful": 5641,
      "rary": 5642,
      "Ġsay": 5643,
      "Ġ&,": 5644,
      "che": 5645,
      "};///": 5646,
      "aki": 5647,
      "Ġsearch": 5648,
      "]=='?": 5649,
      "('-'": 5650,
      "Ġpopcnt": 5651,
      "Replace": 5652,
      "75": 5653,
      "Dig": 5654,
      "Lazy": 5655,
      "where": 5656,
      "yk": 5657,
      "Ġpass": 5658,
      "Ġvy": 5659,
      "(),\"": 5660,
      "ĠNot": 5661,
      "Ġseive": 5662,
      "ĠgcdExt": 5663,
      "rgt": 5664,
      "Ġshortest": 5665,
      "Operation": 5666,
      "('-'),": 5667,
      "459": 5668,
      "ause": 5669,
      "dump": 5670,
      "Ġpull": 5671,
      "Ġrfile": 5672,
      "Ġwfile": 5673,
      "âĸĳâĸĲ": 5674,
      "_________,": 5675,
      "â¡Ģ": 5676,
      "ĠcountBits": 5677,
      "Ġgroup": 5678,
      "ahmanir": 5679,
      "ĠOperatorMonoid": 5680,
      ")||": 5681,
      "Code": 5682,
      "fLL": 5683,
      "rv": 5684,
      "sr": 5685,
      "Ġfread": 5686,
      "Ġsmin": 5687,
      "Ġjump": 5688,
      "Ġred": 5689,
      "Ġmems": 5690,
      "Ġrepe": 5691,
      "ĠLLINF": 5692,
      "ĠreadDouble": 5693,
      "....................................": 5694,
      "clzll": 5695,
      "âĸĳâĸĳâĸĳâĸĳâĸĳâĸĳâĸĳâĸĳâĸĳâĸĳâĸĳâĸĳâĸĳâĸĳâĸĳâĸĳ": 5696,
      "btempl": 5697,
      "4996": 5698,
      "sCounter": 5699,
      "96": 5700,
      "ake": 5701,
      "jan": 5702,
      "Ġnex": 5703,
      "Ġknow": 5704,
      "abel": 5705,
      "501": 5706,
      "readInt": 5707,
      "ASH": 5708,
      "AAAA": 5709,
      "AY": 5710,
      "rotate": 5711,
      "uy": 5712,
      "inator": 5713,
      "Ġbut": 5714,
      "__,_": 5715,
      "ĠMM": 5716,
      "ĠSC": 5717,
      "ĠOK": 5718,
      "Ġgoal": 5719,
      "5010": 5720,
      "198": 5721,
      "iiiiii": 5722,
      "âĸĲâĸĳâĸĳâĸĳ": 5723,
      "weight": 5724,
      "256000000": 5725,
      ")<<(": 5726,
      "centroid": 5727,
      "ĠYES": 5728,
      "Ġfre": 5729,
      "Ġph": 5730,
      "007": 5731,
      "__|": 5732,
      "Ġww": 5733,
      "ĠFargs": 5734,
      "Ġfib": 5735,
      "ccc": 5736,
      "Ġstarts": 5737,
      "READ": 5738,
      "TTY": 5739,
      "ThxD": 5740,
      "ĠNumberIterator": 5741,
      "@@@@@@@@@@@@@@@@@@@@@@@@@@@@@@@@": 5742,
      "################################################################################################################": 5743,
      "PRETTY": 5744,
      "ThxDem": 5745,
      "033": 5746,
      "udge": 5747,
      "Ġmost": 5748,
      "Ġsfi": 5749,
      "Ġ<<'\\": 5750,
      "//++--++--++--++--++--++--++--++--++--++--++--++--++--++--++--++--++--++--++--++--++--++--++--++--++--++--++--++--++--++--++--++--": 5751,
      "Ġboth": 5752,
      "ched": 5753,
      "INPUT": 5754,
      "ĠSF": 5755,
      "ĠPow": 5756,
      "lose": 5757,
      "Ġsee": 5758,
      "++--++--++--++": 5759,
      "Ġ\",\"": 5760,
      "++--++--++--++--++--++--++--++": 5761,
      "++--++--++--++--++--++--++--++--++--++--++--++--++--++--++--++": 5762,
      "msg": 5763,
      "âĸĪâĸĪâķĹ": 5764,
      "ismillahir": 5765,
      "ĠFIXED": 5766,
      "//++--++--++--++--++--++--++--++--++--++--++--++--++--++--++--++--++--++--++--++--++--++--++--++--++--++--++--++--++--++--++--++--++--++--++--++--++--++--++--++--++--++--++--++--++--++--++--++": 5767,
      "'),": 5768,
      "91": 5769,
      "wh": 5770,
      "yb": 5771,
      "ÐĶ": 5772,
      "Ġdst": 5773,
      "Ġinside": 5774,
      "prop": 5775,
      "ĠAbs": 5776,
      "â£§": 5777,
      "Ġhull": 5778,
      "Ġmpow": 5779,
      "Ġaddmod": 5780,
      "1000010": 5781,
      "Ġlef": 5782,
      "compute": 5783,
      "Ġdirection": 5784,
      "Ġbefore": 5785,
      "Ġdisc": 5786,
      "team": 5787,
      ")])": 5788,
      "71828": 5789,
      "Ġafor": 5790,
      "pri": 5791,
      "ĠNo": 5792,
      "ĠSOL": 5793,
      "Ġpbds": 5794,
      "Ġisdigit": 5795,
      "Ġvvvi": 5796,
      "2001": 5797,
      "***************": 5798,
      "Ġblack": 5799,
      "Ã¥Ã": 5800,
      "duration": 5801,
      "uc": 5802,
      "Ġod": 5803,
      "Ġil": 5804,
      "Ġfpow": 5805,
      "Ġbt": 5806,
      "lease": 5807,
      "ĠTASK": 5808,
      "ates": 5809,
      "Ġgt": 5810,
      "Ġindist": 5811,
      "ĠAkikaze": 5812,
      "Ġits": 5813,
      "ĠIS": 5814,
      "Ġposs": 5815,
      "ĠOM": 5816,
      "Ġdbgs": 5817,
      "Ġprintarray": 5818,
      "IIII": 5819,
      "Ġextra": 5820,
      "efine": 5821,
      "<<\"]\";": 5822,
      "ANDOM": 5823,
      "ĠBUFFER": 5824,
      "'-'": 5825,
      "Sp": 5826,
      "_^": 5827,
      "mb": 5828,
      "Ġiend": 5829,
      "ife": 5830,
      "ĊĉĉĉĊĉ": 5831,
      "Ġ|/": 5832,
      "()):": 5833,
      "ĠgetF": 5834,
      "Ġprints": 5835,
      "+=((": 5836,
      "âĸĴâĸĴâĸĴâĸĴâĸĴ": 5837,
      "izations": 5838,
      "Ġreference": 5839,
      "ĠFastRead": 5840,
      ")>=(": 5841,
      "rig": 5842,
      "ual": 5843,
      "xc": 5844,
      "ãĤ": 5845,
      "rege": 5846,
      "Ġai": 5847,
      "Ġ},": 5848,
      "Ġtd": 5849,
      "Ġjust": 5850,
      "â£¦": 5851,
      "127": 5852,
      "Ġ1000010": 5853,
      "ĊĠĠĠĠĠĠĠĠĠĠĠĠĠĠĠĠĠĠĠĠĠĠĠĠĠĠĠĠĠĠ": 5854,
      "dddd": 5855,
      "Ġindexed": 5856,
      "Ġscll": 5857,
      "problemset": 5858,
      "MSC": 5859,
      "modulo": 5860,
      "regex": 5861,
      ")]=": 5862,
      "Cy": 5863,
      "De": 5864,
      "tut": 5865,
      "uild": 5866,
      "ĠâĢ": 5867,
      "()!=": 5868,
      "izer": 5869,
      "______": 5870,
      "___________": 5871,
      "Ġexist": 5872,
      "Ġcommon": 5873,
      "Ġbitcount": 5874,
      "555": 5875,
      "__,__": 5876,
      "totalCount": 5877,
      "UR": 5878,
      "Upper": 5879,
      "bur": 5880,
      "queries": 5881,
      "Ġnm": 5882,
      "Ġ110": 5883,
      "Ġsafe": 5884,
      "Ġes": 5885,
      "vex": 5886,
      "imie": 5887,
      "counts": 5888,
      "ĊĠĠĠĠĠĠĠĠĠĠĠĠĠĠĠĠĠĠĠĠĠĠĠĠĠĠĠĠĠĠĠĠĠĠĠĠĠĠĠĠĠĠĠĠĊĠĠĠĠĠĠĠĠĠĠĠĠĠĠĠĠĠĠĠĠĠĠĠĠĠĠĠĠĠĠĠĠĠĠĠĠĠĠĠĠĠĠĠ": 5889,
      "1415926536": 5890,
      "Ġevents": 5891,
      "âĸĳâĸĳâĸĳâĸĳâĸĳâĸĲ": 5892,
      "'-": 5893,
      "LANG": 5894,
      "intersect": 5895,
      "Ġifndef": 5896,
      "__((": 5897,
      "ĠNum": 5898,
      "]-(": 5899,
      "ĠsetIn": 5900,
      "ĠsetOut": 5901,
      "Ġbitnum": 5902,
      "FFFFFFFF": 5903,
      "wardIterator": 5904,
      "Ġdivisors": 5905,
      "DEPRECATE": 5906,
      "CO": 5907,
      "RITE": 5908,
      "`,,": 5909,
      "Ġpsum": 5910,
      "Ġpsi": 5911,
      "()/": 5912,
      "Ġtv": 5913,
      "possible": 5914,
      "]]]": 5915,
      "Ġ1010": 5916,
      "Ġsetbit": 5917,
      "â¢¾": 5918,
      "Ġindx": 5919,
      "ä¸ª": 5920,
      "âĸĪâĸĪâķĶ": 5921,
      "Ġdivide": 5922,
      "//*//*//*//*": 5923,
      "abcdef": 5924,
      "__,_|": 5925,
      "'m": 5926,
      "AZ": 5927,
      "Less": 5928,
      "]||": 5929,
      "cal": 5930,
      "è¡": 5931,
      "Ġsg": 5932,
      "Ġtar": 5933,
      "Ġ\";}": 5934,
      "ane": 5935,
      "Ġanss": 5936,
      "edg": 5937,
      "ĠFW": 5938,
      "ĠAND": 5939,
      "...,": 5940,
      "Ġhor": 5941,
      "ĠIf": 5942,
      "ĠreadN": 5943,
      "ĊĊĊĊĊĊĊ": 5944,
      "-'){": 5945,
      "Ġonbit": 5946,
      "Ch": 5947,
      "Row": 5948,
      "ghi": 5949,
      "save": 5950,
      "Ð£": 5951,
      "åı": 5952,
      "inite": 5953,
      "Ġlr": 5954,
      "Ġmis": 5955,
      "Ġfree": 5956,
      "Ġpqueue": 5957,
      "Ġvout": 5958,
      "Ġtask": 5959,
      "Ġrll": 5960,
      "ĠDS": 5961,
      "Ġ101": 5962,
      "ĠVEC": 5963,
      "201": 5964,
      "functions": 5965,
      "program": 5966,
      "Ġchildren": 5967,
      "1024000000": 5968,
      "xyz": 5969,
      "Ġ'{';": 5970,
      ")->": 5971,
      "LES": 5972,
      "SN": 5973,
      "lv": 5974,
      "part": 5975,
      "Ã®": 5976,
      "å¤": 5977,
      "Ġreturns": 5978,
      "ĠTask": 5979,
      "Ġ227": 5980,
      "ĠFRE": 5981,
      "Ġmodpow": 5982,
      "Ġot": 5983,
      "ĠRa": 5984,
      "ĠRed": 5985,
      "werty": 5986,
      "ĠReversedIntegerRange": 5987,
      "plusplus": 5988,
      "ĠIntegerRange": 5989,
      "device": 5990,
      "Rest": 5991,
      "rl": 5992,
      "Ġ(_|": 5993,
      "Ġplace": 5994,
      "()).": 5995,
      "lef": 5996,
      "ĠMp": 5997,
      "ĉĉĊ": 5998,
      "ĠGNU": 5999,
      "ĠBinary": 6000,
      "Ġ10000000000000000": 6001,
      "except": 6002,
      "ostate": 6003,
      "MEM": 6004,
      "ĠÐ¿": 6005,
      "Ġ\"{\"": 6006,
      "Ġoffset": 6007,
      "qrst": 6008,
      "uvw": 6009,
      "Ġ'+')": 6010,
      "\":": 6011,
      "Greater": 6012,
      "Nmax": 6013,
      "ji": 6014,
      "äº": 6015,
      "åĩ": 6016,
      "Ġiceil": 6017,
      "Ġtw": 6018,
      "opqrst": 6019,
      "]=++": 6020,
      "eturn": 6021,
      "...>": 6022,
      "Ġ_`": 6023,
      "Ġ((*": 6024,
      "ĠtoString": 6025,
      "ĊĠĠĠĠĠĠĠĠĠĠĠĠĠĠĠĠĠĠĠĠĠĠĠĠĠĠĠĠĠĠĠĠĠĠĠĠĠĠĠĠĠĠĠĠĠĠĠĠĠĠĠĠĠĠĠĠĠĠĠĠĠĠĠĠĠĠĠĠĠĠĠĠĠĠĠĠ": 6026,
      "mnopqrst": 6027,
      "Ġnoexcept": 6028,
      "ReversedIntegerRange": 6029,
      "âĸĦâĸĢâĸĴâĸĴ": 6030,
      "jklmnopqrst": 6031,
      "Ð¡Ð": 6032,
      "abcdefghi": 6033,
      "abcdefghijklmnopqrst": 6034,
      "76": 6035,
      "85": 6036,
      "BG": 6037,
      "iG": 6038,
      "pe": 6039,
      "rad": 6040,
      "---'": 6041,
      "<<((": 6042,
      "Ġxb": 6043,
      "ĊĠĉĉĉ": 6044,
      "Ġeuclide": 6045,
      "Ġul": 6046,
      "))+": 6047,
      ")),(": 6048,
      "ĠADD": 6049,
      "â£ł": 6050,
      "ĠLe": 6051,
      "ĠstdinPos": 6052,
      "ĠstdinDataEnd": 6053,
      "ĠON": 6054,
      ")){}};": 6055,
      "finish": 6056,
      "Ġteam": 6057,
      "ittle": 6058,
      "ÙİÙĳ": 6059,
      "Ġpropagate": 6060,
      "ĠTimerStart": 6061,
      "uvwxyz": 6062,
      "!(": 6063,
      "Diff": 6064,
      "Mask": 6065,
      "dedge": 6066,
      "Ġcpp": 6067,
      "llow": 6068,
      "mail": 6069,
      "Ġremax": 6070,
      "Ġ':": 6071,
      "ĠDSU": 6072,
      "allah": 6073,
      "Ġfrr": 6074,
      "leftCount": 6075,
      "Ġexpo": 6076,
      "Stack": 6077,
      "============================================": 6078,
      "Ġ<<\"\\": 6079,
      "tKarp": 6080,
      "opcroftKarp": 6081,
      "#################################################################################################################": 6082,
      "abcdefghijklmnopqrstuvwxyz": 6083,
      ")};": 6084,
      "215": 6085,
      "sg": 6086,
      "llong": 6087,
      "Ġbar": 6088,
      "acity": 6089,
      "irl": 6090,
      "Ġrsz": 6091,
      "------------": 6092,
      "Ġ____;": 6093,
      "Ġminus": 6094,
      "Ġ77": 6095,
      "({-": 6096,
      "Ġalgorithm": 6097,
      "Ġalways": 6098,
      "black": 6099,
      "pleTest": 6100,
      "Ġthrust": 6101,
      "!\\": 6102,
      "File": 6103,
      "NT": 6104,
      "pn": 6105,
      "und": 6106,
      "vf": 6107,
      "åĽ": 6108,
      "Ġya": 6109,
      "....,": 6110,
      "DDi": 6111,
      "ĠBR": 6112,
      "Ġmxs": 6113,
      "ĠreadLong": 6114,
      "Ġofstream": 6115,
      "Ġfaster": 6116,
      "200200": 6117,
      "ĠFASTIO": 6118,
      "Force": 6119,
      "Ġabc": 6120,
      "[_]": 6121,
      "':'": 6122,
      "initializer": 6123,
      ":,": 6124,
      "BU": 6125,
      "DEEEEEEEEEEEE": 6126,
      "GWWWKK": 6127,
      "KG": 6128,
      "KWW": 6129,
      "KEEEEEEEE": 6130,
      "LGGGG": 6131,
      "PE": 6132,
      "WEEEEEEEE": 6133,
      "WEEE": 6134,
      "WKKK": 6135,
      "WKKKKKKK": 6136,
      "mix": 6137,
      "tor": 6138,
      "tGG": 6139,
      "xf": 6140,
      "infile": 6141,
      "Ġ180": 6142,
      "outfile": 6143,
      "Ġtie": 6144,
      "KKG": 6145,
      "KKi": 6146,
      "WWEEEEEEEEEEE": 6147,
      "EEL": 6148,
      "EEf": 6149,
      "odo": 6150,
      "Ġko": 6151,
      "Ġwor": 6152,
      "blems": 6153,
      "DDWWKK": 6154,
      "EEEEED": 6155,
      "...*/": 6156,
      "WWWWK": 6157,
      "Ġchain": 6158,
      "trol": 6159,
      "/*...": 6160,
      "EEEEEEEEEK": 6161,
      ",,,,,;": 6162,
      "DGf": 6163,
      "EEEWEEEEEEEEEEEE": 6164,
      "KKKWWW": 6165,
      "KKKKKWWWWWWWWW": 6166,
      "KKKKKWKKKKK": 6167,
      "Ġ...,:": 6168,
      "[]={+": 6169,
      "KKKKKKKKKKKKKKKKKKKKKKKKKK": 6170,
      "KKKKKKKKKKKKKKKKKKKKKKKKKKKKKKK": 6171,
      "beki": 6172,
      ".................................": 6173,
      "DDDDDDDDDDDDDDD": 6174,
      "WWWWWWWKKKK": 6175,
      "WWWWWWKKKKK": 6176,
      ":::..": 6177,
      "Ġ.:,;": 6178,
      "DEEEEE": 6179,
      "DEEEEKKKKKKKKKK": 6180,
      ",,,:.": 6181,
      "EEEEEEEEEEEEEEEEE": 6182,
      "ijLGGGDDDDDDDDDDDD": 6183,
      "rdv": 6184,
      "GGGGGGGGGGGGGGGGGGGGGGGG": 6185,
      "EEEEEEDDf": 6186,
      "DEEEKKKKKKKK": 6187,
      "Ġ.:.,:": 6188,
      "itfGGGDDDDDDDDDDDD": 6189,
      "Ġ.....:::..": 6190,
      "ĠMultiTest": 6191,
      "ĠOImode": 6192,
      "Down": 6193,
      "rmq": 6194,
      "det": 6195,
      "Ġlx": 6196,
      "setfill": 6197,
      "ĠSFL": 6198,
      "ĠPFL": 6199,
      "Ġitos": 6200,
      "ĠHeap": 6201,
      "Ġcomponent": 6202,
      "Ġ987": 6203,
      "1693": 6204,
      "......................................": 6205,
      "300010": 6206,
      "MI": 6207,
      "VE": 6208,
      "fll": 6209,
      "ood": 6210,
      "Ġ'/": 6211,
      ">>&": 6212,
      "ulation": 6213,
      "Ġ#%": 6214,
      "unite": 6215,
      "mapa": 6216,
      "(-(": 6217,
      "place": 6218,
      "Ġ1001": 6219,
      "ĠdoReplace": 6220,
      "negative": 6221,
      ".............................": 6222,
      "Short": 6223,
      "pleTestMode": 6224,
      "Author": 6225,
      "If": 6226,
      "ade": 6227,
      "dul": 6228,
      "host": 6229,
      "Ġinclu": 6230,
      "ĠĊĊ": 6231,
      "Ġfwrite": 6232,
      "Ġele": 6233,
      "asd": 6234,
      "pairs": 6235,
      "ĠSort": 6236,
      "ĠBe": 6237,
      "]]-": 6238,
      "Ġsubmod": 6239,
      "ĠREAD": 6240,
      "Ġfunctions": 6241,
      "Ġbetween": 6242,
      "hamdul": 6243,
      "1415926535897932384626433832795028841971693": 6244,
      "hamdulillah": 6245,
      "141592653589793238462643383279502884197169399": 6246,
      "84": 6247,
      "BR": 6248,
      "eve": 6249,
      "ftree": 6250,
      "falign": 6251,
      "qx": 6252,
      "sDEB": 6253,
      "Ã²": 6254,
      "Ùı": 6255,
      "rea": 6256,
      "Ġsave": 6257,
      "Ġban": 6258,
      "ali": 6259,
      "Ġrp": 6260,
      "Ġrnk": 6261,
      "ĠABS": 6262,
      "â£Ģ": 6263,
      "Ġ36": 6264,
      "fsched": 6265,
      "());}": 6266,
      "]]>": 6267,
      "Ġzz": 6268,
      ")(__": 6269,
      "==========": 6270,
      "bbb": 6271,
      "PowerOf": 6272,
      "______________": 6273,
      "PowerOfTwo": 6274,
      "fe": 6275,
      "ks": 6276,
      "merciful": 6277,
      "xpo": 6278,
      "Ġ****************************************": 6279,
      "Ġ997": 6280,
      "()*": 6281,
      "ople": 6282,
      "ĠSp": 6283,
      "ignore": 6284,
      "mxN": 6285,
      "Ġpowermat": 6286,
      "Ġmyrand": 6287,
      "ModMatrix": 6288,
      "Ġfinal": 6289,
      "ĠZERO": 6290,
      "âĸĵâĸĵâĸĵâĸĵ": 6291,
      "âķ¬âķ¬âķ¬âķ¬âķ¬âķ¬âķ¬âķ¬": 6292,
      "divider": 6293,
      "\").": 6294,
      "'==": 6295,
      "2000000": 6296,
      "Ġfort": 6297,
      "connect": 6298,
      "(\"{": 6299,
      "Ġrot": 6300,
      "ĊĊĊĠ": 6301,
      "ĠDOU": 6302,
      "ĠCreated": 6303,
      "âĸĳâĸĳâĸĪ": 6304,
      "]+=(": 6305,
      "ï¿½ï¿½ï¿½ï¿½ï¿½ï¿½ï¿½": 6306,
      "tab": 6307,
      "Ġscf": 6308,
      "ĠMaxn": 6309,
      "55555555": 6310,
      "DBN": 6311,
      "TASKNAME": 6312,
      "Ġamount": 6313,
      "ĠDOUBLE": 6314,
      "]--,": 6315,
      "after": 6316,
      "copy": 6317,
      "fout": 6318,
      "istringstream": 6319,
      "nik": 6320,
      "inal": 6321,
      "Ġwalk": 6322,
      "isalpha": 6323,
      "Ġhalf": 6324,
      "uli": 6325,
      "Ġstop": 6326,
      "Ġ(\"-": 6327,
      "ĠnextInt": 6328,
      "cale": 6329,
      "Ġthrough": 6330,
      "AP": 6331,
      "Not": 6332,
      "Tt": 6333,
      "fma": 6334,
      "mv": 6335,
      "rnk": 6336,
      "Ġcreate": 6337,
      "Ġrl": 6338,
      "opt": 6339,
      "LLL": 6340,
      "ices": 6341,
      "position": 6342,
      "locale": 6343,
      "ĠBy": 6344,
      "â£¿â£¿â£·": 6345,
      "&&!": 6346,
      "ĠisSquare": 6347,
      "Ġ47": 6348,
      "Ġ400": 6349,
      "Ġfraction": 6350,
      "uper": 6351,
      "â¢¯": 6352,
      "MMMMMMMMM": 6353,
      "Ġ\"]:\",": 6354,
      "ECT": 6355,
      "â£¿â£½": 6356,
      "â£¿â£Ĩ": 6357,
      "(\"\");}": 6358,
      "âĸĳâĸĳâĸĳâĸĢ": 6359,
      "Second": 6360,
      "]]]]]]]]": 6361,
      "â£Ĩâł¹": 6362,
      "âłīâłī": 6363,
      "wiki": 6364,
      "LowerCase": 6365,
      "Pref": 6366,
      "_\\": 6367,
      "wise": 6368,
      "Ġlife": 6369,
      "enwick": 6370,
      "Ġtut": 6371,
      "eral": 6372,
      "arth": 6373,
      "ĠType": 6374,
      "oss": 6375,
      "Ġremin": 6376,
      "Ġyb": 6377,
      "etch": 6378,
      "/*!": 6379,
      "333": 6380,
      "InOut": 6381,
      "goal": 6382,
      "])));": 6383,
      "group": 6384,
      "ĠMaxN": 6385,
      "Ġlines": 6386,
      "/********************************************************": 6387,
      "ĠForwardIterator": 6388,
      "Ġboard": 6389,
      "Ġnormalize": 6390,
      "Ġckmax": 6391,
      "Ġimplement": 6392,
      "ĠrandomInteger": 6393,
      "split": 6394,
      "718281828": 6395,
      "._": 6396,
      "74": 6397,
      "Vec": 6398,
      "YNC": 6399,
      "brr": 6400,
      "cplusplus": 6401,
      "dh": 6402,
      "dt": 6403,
      "dim": 6404,
      "fopen": 6405,
      "rall": 6406,
      "srt": 6407,
      "Ġcm": 6408,
      "Ġmst": 6409,
      "retty": 6410,
      "ats": 6411,
      "Ġmay": 6412,
      "Ġga": 6413,
      "ĠLE": 6414,
      "fft": 6415,
      "ĠsetIO": 6416,
      "Ġmxn": 6417,
      "Ġassum": 6418,
      "Ġ9223372036854775807": 6419,
      "Ġ'#';": 6420,
      "ĠBigmod": 6421,
      "ĠPowerMod": 6422,
      "UpperCase": 6423,
      "}\");": 6424,
      "steps": 6425,
      "orig": 6426,
      "Ġly": 6427,
      "Ġflip": 6428,
      "Ġnj": 6429,
      "Ġdv": 6430,
      "Ġrequ": 6431,
      "Ġgp": 6432,
      "...));": 6433,
      "Ġhand": 6434,
      "/////////": 6435,
      "ĠFORd": 6436,
      "âĸĴâĸĲ": 6437,
      "Ġfru": 6438,
      "ĠreadInteger": 6439,
      "ĠEQ": 6440,
      "STR": 6441,
      "37510": 6442,
      "Ġprintv": 6443,
      "OUTPUT": 6444,
      "Ġioi": 6445,
      "Ġrgt": 6446,
      "ĠmultiplyMod": 6447,
      "Ġminimum": 6448,
      "Ġgoto": 6449,
      "12345": 6450,
      "ĠFTB": 6451,
      "questions": 6452,
      "14159265358979323846264338327950288419716939937510": 6453,
      "Ahead": 6454,
      "Heap": 6455,
      "TR": 6456,
      "text": 6457,
      "tnm": 6458,
      "Ñĩ": 6459,
      "çĤ": 6460,
      "ĠâĸĪâĸĪâķĳ": 6461,
      ");*/": 6462,
      "Ġlv": 6463,
      "Ġmstream": 6464,
      "Ġvli": 6465,
      "Ġtk": 6466,
      "Ġbf": 6467,
      "Ġyo": 6468,
      "ĠMap": 6469,
      "process": 6470,
      "isPrime": 6471,
      "109": 6472,
      "ofile": 6473,
      "gets": 6474,
      "than": 6475,
      "parator": 6476,
      "Ġcounts": 6477,
      "degree": 6478,
      "Ġ123456789": 6479,
      "ĠFOREACH": 6480,
      "ĠFAIL": 6481,
      "çĤ¹": 6482,
      ".)": 6483,
      "GLI": 6484,
      "Update": 6485,
      "ÑĮ": 6486,
      "Ġ99999999": 6487,
      "Ġctr": 6488,
      "Ġnv": 6489,
      "***/": 6490,
      "Ġvpl": 6491,
      "ĊĠĠĠĠĠĠĠĠĠĠĠĠĠĠĠĠĠĠĠĠĠĠĠĠĠĠ": 6492,
      "Ġuu": 6493,
      "ĠLast": 6494,
      "resh": 6495,
      "Ġmiddle": 6496,
      "888888888": 6497,
      "Ġzeroes": 6498,
      "children": 6499,
      "==================================": 6500,
      "Ġoffbit": 6501,
      "Complex": 6502,
      "blocks": 6503,
      "ĠFastIO": 6504,
      "ĠBigMod": 6505,
      "ÑģÑĤ": 6506,
      "Ġ|_|\\": 6507,
      "]=='*')": 6508,
      ")]++;": 6509,
      "/****************": 6510,
      "Bl": 6511,
      "Up": 6512,
      "oy": 6513,
      "xi": 6514,
      "|=(": 6515,
      "Ñĥ": 6516,
      "stants": 6517,
      "][__": 6518,
      "leyk": 6519,
      "Ġ*)": 6520,
      "ueue": 6521,
      "â£Ħ": 6522,
      "...............": 6523,
      "aster": 6524,
      "ĠBFS": 6525,
      ")%(": 6526,
      "',');": 6527,
      "ĠMAXK": 6528,
      "10005": 6529,
      "âĸĳâĸĳâĸĳâĸĳâĸĲ": 6530,
      "14159265358979323": 6531,
      "ĠwriteWord": 6532,
      "2353": 6533,
      "Ġctz": 6534,
      "eedForce": 6535,
      "Ġckmin": 6536,
      "Ġhaleyk": 6537,
      "03": 6538,
      "210": 6539,
      "Next": 6540,
      "PS": 6541,
      "_);": 6542,
      "ua": 6543,
      "Ġ97": 6544,
      "sta": 6545,
      "rement": 6546,
      "Ġ(){": 6547,
      "acent": 6548,
      "ctr": 6549,
      "Ġregister": 6550,
      "Ġgre": 6551,
      "ethod": 6552,
      "Ġden": 6553,
      "Ġfastpower": 6554,
      "@@@@@@": 6555,
      "Ġmarked": 6556,
      "Ġfactorize": 6557,
      "BCXX": 6558,
      "omething": 6559,
      "GLIBCXX": 6560,
      "664": 6561,
      "TEMPORARY": 6562,
      "Yn": 6563,
      "]}": 6564,
      "bX": 6565,
      "gi": 6566,
      "land": 6567,
      "rin": 6568,
      "round": 6569,
      "ķÐ": 6570,
      "Ġccc": 6571,
      "Ġmed": 6572,
      "Ġfather": 6573,
      "Ġsink": 6574,
      "Ġxor": 6575,
      "Ġmaxt": 6576,
      "ĊĠĠĠĠĠĊĠĠĠĠ": 6577,
      "ĠCC": 6578,
      "extra": 6579,
      "ĠVal": 6580,
      "ĠreadAhead": 6581,
      "hah": 6582,
      "Ġwriteln": 6583,
      "-------": 6584,
      "},{-": 6585,
      "ÐµÐ½": 6586,
      "Ġtakemod": 6587,
      "âłĽâłĽ": 6588,
      "Ġlocalhost": 6589,
      "SegmentTree": 6590,
      "++++++++++++++++": 6591,
      "ĠIntegerIterator": 6592,
      "Ġeverything": 6593,
      "iables": 6594,
      "eturns": 6595,
      "420": 6596,
      "654": 6597,
      "FIN": 6598,
      "Function": 6599,
      "My": 6600,
      "eff": 6601,
      "lop": 6602,
      "vpii": 6603,
      "white": 6604,
      "xor": 6605,
      "ĠĊĊĠĠĠ": 6606,
      "Ġ********************************": 6607,
      "inity": 6608,
      "Ġnil": 6609,
      "Ġsig": 6610,
      "()<=": 6611,
      "ample": 6612,
      "mple": 6613,
      "Ġry": 6614,
      "Ġrig": 6615,
      "Ġekv": 6616,
      "Ġ'[": 6617,
      "],-": 6618,
      "))!=": 6619,
      "Ġ&&...": 6620,
      "Ġ/:/": 6621,
      "ĠAIM": 6622,
      "107": 6623,
      "ĠPos": 6624,
      "Ġ_____": 6625,
      "ĠDC": 6626,
      "Ġzet": 6627,
      "Ġ\\__": 6628,
      "Ġthen": 6629,
      "Ġfactors": 6630,
      "âĸĢâĸĢâĸĢ": 6631,
      "*******/": 6632,
      "Ġstructure": 6633,
      "poz": 6634,
      "final": 6635,
      "_______________": 6636,
      "Ġ'#'": 6637,
      "Ġstackoverflow": 6638,
      "Ġconnections": 6639,
      "isprime": 6640,
      "Zero": 6641,
      "free": 6642,
      "join": 6643,
      "oz": 6644,
      "single": 6645,
      "only": 6646,
      "Ġcnk": 6647,
      "Ġbra": 6648,
      "Ġ\"=\"": 6649,
      "();(": 6650,
      "ĠisPowerOfTwo": 6651,
      "<<(#": 6652,
      "âłĩ": 6653,
      "1415926535": 6654,
      "aryanc": 6655,
      "reference": 6656,
      "Ġbacks": 6657,
      "/*************************************************/": 6658,
      "ĠEXIT": 6659,
      "Ġprimos": 6660,
      "TYPE": 6661,
      "Ġinclusive": 6662,
      "Eof": 6663,
      "ELE": 6664,
      "MQ": 6665,
      "jf": 6666,
      "oa": 6667,
      "Ðĵ": 6668,
      "ØŃ": 6669,
      "ĉĠĠ": 6670,
      "Ġamax": 6671,
      "Ġamin": 6672,
      "Ġfnd": 6673,
      "Ġfup": 6674,
      "..,": 6675,
      "ido": 6676,
      "000000001": 6677,
      "Ġzeros": 6678,
      "]=='(')": 6679,
      "Ġbox": 6680,
      "ĉĉĉĉĉĉĉĉ": 6681,
      "////////////////////////////////////////////////////////////////////////////////////////////////": 6682,
      "Ġ'*'": 6683,
      "ĠTHE": 6684,
      "__<<\":\"<<__": 6685,
      "Ġassign": 6686,
      "360": 6687,
      "EQ": 6688,
      "blog": 6689,
      "gain": 6690,
      "med": 6691,
      "Ġ());": 6692,
      "onal": 6693,
      "Ġamt": 6694,
      "Ġsomething": 6695,
      "Ġtint": 6696,
      "Ġman": 6697,
      ":::.": 6698,
      "Ġkill": 6699,
      "setw": 6700,
      "ĠMMM": 6701,
      "ĠMAT": 6702,
      "ĠMain": 6703,
      "asg": 6704,
      "...:": 6705,
      "______,": 6706,
      ",,;": 6707,
      "ĠBG": 6708,
      "summ": 6709,
      "ĊĠĠĠĠĠĠĠĠĠĠĠĠĠĠĠĠĠĠĠĠĠĠĠĠĠĠĠĠĠĠĠĠĠ": 6710,
      "1415926535898": 6711,
      "6666": 6712,
      "...............................": 6713,
      "00000001": 6714,
      ",,,,,,,,,,,,,,,,,,,,,,,,": 6715,
      ".........:": 6716,
      "<<\"{\";": 6717,
      "30000": 6718,
      ":-": 6719,
      ">)": 6720,
      "CK": 6721,
      "CON": 6722,
      "CPPL": 6723,
      "SOL": 6724,
      "ban": 6725,
      "cst": 6726,
      "chi": 6727,
      "lat": 6728,
      "zet": 6729,
      "Ġplld": 6730,
      "Ġsii": 6731,
      "Ġrk": 6732,
      "ĠNX": 6733,
      "Ġ____": 6734,
      "')*": 6735,
      "Ġtoken": 6736,
      "Ġinfi": 6737,
      "@@@": 6738,
      "xxx": 6739,
      "Ġcompress": 6740,
      "<<\":\"": 6741,
      "Ġcountbit": 6742,
      "quence": 6743,
      "ĠSPCPPL": 6744,
      "Ġ1000000021": 6745,
      "åĽŀ": 6746,
      "0123456789": 6747,
      "GET": 6748,
      "JK": 6749,
      "]^=": 6750,
      "_/": 6751,
      "}\"<<": 6752,
      "Ġ88": 6753,
      "constant": 6754,
      "Ġee": 6755,
      "Ġelem": 6756,
      "Ġkb": 6757,
      "Ġcontain": 6758,
      "ĠAL": 6759,
      "-------------": 6760,
      "Ġstar": 6761,
      "cntr": 6762,
      "ĠgetSum": 6763,
      "]]!=": 6764,
      "ĠINFINT": 6765,
      "ĠVAR": 6766,
      "10010": 6767,
      "cell": 6768,
      "â¢¹": 6769,
      "Ġsegtree": 6770,
      "rightCount": 6771,
      "ĠwriteInt": 6772,
      "Ġdegree": 6773,
      "âĢĻ": 6774,
      ",',');": 6775,
      "/|": 6776,
      "214": 6777,
      "MDL": 6778,
      "^^": 6779,
      "lucky": 6780,
      "ĊĉĠĠĠĠĠ": 6781,
      "()>=": 6782,
      "Ġvil": 6783,
      "//{": 6784,
      "erm": 6785,
      "Ġxl": 6786,
      "Ġreach": 6787,
      "isy": 6788,
      "ĠPr": 6789,
      "ARE": 6790,
      "Ġplll": 6791,
      "2097": 6792,
      "dict": 6793,
      "16777216": 6794,
      "readN": 6795,
      "Ġnormmod": 6796,
      "Ġtaj": 6797,
      "efines": 6798,
      "&)": 6799,
      "<>,": 6800,
      "xl": 6801,
      "åħ": 6802,
      "ĊĊĠĠĠĠĠĠĠĠĠĠ": 6803,
      "Ġ9999": 6804,
      "Ġ\"'": 6805,
      "tial": 6806,
      "Ġ'>": 6807,
      "(\"%\"": 6808,
      "ĠMY": 6809,
      "Ġhare": 6810,
      "Ġmakeit": 6811,
      "ĠLang": 6812,
      "totient": 6813,
      "viky": 6814,
      "Ġcome": 6815,
      "composite": 6816,
      "Ġvvb": 6817,
      "Ġedg": 6818,
      "1415926535897932384626": 6819,
      "271": 6820,
      "/******************************************************/": 6821,
      "è¿Ķ": 6822,
      "ĠnCr": 6823,
      "]=='?')": 6824,
      "*=-": 6825,
      "600": 6826,
      "GR": 6827,
      "core": 6828,
      "tom": 6829,
      "Ø³": 6830,
      "dem": 6831,
      "Ġ=>": 6832,
      "Ġslld": 6833,
      "Ġbec": 6834,
      "Ġbrr": 6835,
      "aca": 6836,
      "ypot": 6837,
      "Ġmany": 6838,
      "olog": 6839,
      "spf": 6840,
      "DDE": 6841,
      "Ġmaxc": 6842,
      "ĠSI": 6843,
      "ĠRES": 6844,
      "ĉĉĊĉ": 6845,
      "ĠCSE": 6846,
      "Ġsorta": 6847,
      "Ġpositive": 6848,
      "ĠreadString": 6849,
      "Ġleast": 6850,
      "Ġvvpii": 6851,
      "Possible": 6852,
      "Ġcoll": 6853,
      "Ġdifference": 6854,
      "cases": 6855,
      "Ġproblems": 6856,
      "'},{'.','.','.','.','.','.','.','.','.'},{'.','.','.','.','.','.','.','.','.'},{'.','.','.','.','.','.','.','.','.'},{'.','.','.','.','.','.','.','.','.": 6857,
      "Ã®Ã": 6858,
      ",``": 6859,
      ">\"": 6860,
      "cf": 6861,
      "fname": 6862,
      "gmail": 6863,
      "jl": 6864,
      "pal": 6865,
      "pli": 6866,
      "ssert": 6867,
      "vd": 6868,
      "vr": 6869,
      "stop": 6870,
      "ites": 6871,
      "Ġdad": 6872,
      "endido": 6873,
      "]=\"": 6874,
      "Ġ)\\": 6875,
      "ĠLIE": 6876,
      "Ġsums": 6877,
      "Ġ55": 6878,
      "â¢·": 6879,
      "START": 6880,
      "powmod": 6881,
      "roots": 6882,
      "2002": 6883,
      "before": 6884,
      "itten": 6885,
      "â£»â£¿â£¿": 6886,
      "ENT": 6887,
      "suffix": 6888,
      "eighted": 6889,
      "â¡Īâ¢¿": 6890,
      "ĠgcdExtendido": 6891,
      "ĠBinaryOperation": 6892,
      ")!=(": 6893,
      "08": 6894,
      "GIC": 6895,
      "YY": 6896,
      "You": 6897,
      "iN": 6898,
      "las": 6899,
      "nj": 6900,
      "ption": 6901,
      "xff": 6902,
      "}));": 6903,
      "ĠĠĊĠ": 6904,
      "reap": 6905,
      "Ġcps": 6906,
      "Ġali": 6907,
      "Ġaug": 6908,
      "Ġmb": 6909,
      "Ġnt": 6910,
      "()<<\"\\": 6911,
      "--'": 6912,
      "///*": 6913,
      "Ġround": 6914,
      "hip": 6915,
      "))){": 6916,
      "Ġgll": 6917,
      "])//": 6918,
      "answ": 6919,
      "help": 6920,
      "alloc": 6921,
      "Ġclone": 6922,
      "ception": 6923,
      "ĠInteractive": 6924,
      "Ġwhite": 6925,
      "ĠForE": 6926,
      "board": 6927,
      "Ġ`\"": 6928,
      ":::::::::": 6929,
      "Ġgenerate": 6930,
      "ĠARY": 6931,
      "aeiou": 6932,
      ".:": 6933,
      "En": 6934,
      "Parent": 6935,
      "cv": 6936,
      "Ġci": 6937,
      "Ġcar": 6938,
      "Ġsv": 6939,
      "Ġsff": 6940,
      "--->": 6941,
      "Ġey": 6942,
      "ĠyLast": 6943,
      "seconds": 6944,
      "lines": 6945,
      "ĠSA": 6946,
      "ĠSolution": 6947,
      "Ġ_|": 6948,
      "64000000": 6949,
      "ĠBang": 6950,
      "Ġarri": 6951,
      "atri": 6952,
      "à¦²": 6953,
      "Ġ9000000000000000000": 6954,
      "ĠWRITE": 6955,
      "ĠPRId": 6956,
      "â¡¿âł": 6957,
      "ULO": 6958,
      "(==": 6959,
      "?(": 6960,
      "AV": 6961,
      "Dis": 6962,
      "TOR": 6963,
      "fil": 6964,
      "gap": 6965,
      "rsz": 6966,
      "sgn": 6967,
      "vot": 6968,
      "Ġcentroid": 6969,
      "Ġcpresent": 6970,
      "Ġintt": 6971,
      "-->": 6972,
      "Ġtu": 6973,
      "Ġdat": 6974,
      "ering": 6975,
      "idge": 6976,
      "__))": 6977,
      "Ġllint": 6978,
      "Ġeuler": 6979,
      "))<": 6980,
      "ĠNUM": 6981,
      "based": 6982,
      "Ġht": 6983,
      "Ġham": 6984,
      "ĠDE": 6985,
      "1100": 6986,
      "ĠHERE": 6987,
      "lice": 6988,
      "------------------------------------": 6989,
      "ĠtotalCount": 6990,
      "dfn": 6991,
      "Ġ5005": 6992,
      "Digit": 6993,
      "(==)": 6994,
      "&=": 6995,
      "OP": 6996,
      "Rd": 6997,
      "Write": 6998,
      "cess": 6999,
      "vir": 7000,
      "Ġformat": 7001,
      "era": 7002,
      "Ġrw": 7003,
      "asing": 7004,
      "Ġconv": 7005,
      "edia": 7006,
      "ĠRALL": 7007,
      "ipedia": 7008,
      "977": 7009,
      "aba": 7010,
      "à¦®": 7011,
      "Ġ((((": 7012,
      "3005": 7013,
      "!='-')": 7014,
      "Ġ-------": 7015,
      "denominator": 7016,
      "Ġtajir": 7017,
      "è¿ĶåĽŀ": 7018,
      "']--;": 7019,
      "Cur": 7020,
      "Is": 7021,
      "_-": 7022,
      "etic": 7023,
      "vect": 7024,
      "vpll": 7025,
      "zx": 7026,
      "Ø¨": 7027,
      "Ġtour": 7028,
      "Ġtolower": 7029,
      "Ġ\"}": 7030,
      "umn": 7031,
      "ĠPll": 7032,
      "Ġtra": 7033,
      "Ġhar": 7034,
      "Ġcntr": 7035,
      "union": 7036,
      "ĠBUG": 7037,
      "ithmetic": 7038,
      "ĠOFF": 7039,
      "Ġ1000111000": 7040,
      "âĸĳâĸĳâĸĳâĸĳâĸĮ": 7041,
      "Ġvvpll": 7042,
      "hsh": 7043,
      "389": 7044,
      "Ġppf": 7045,
      "Ġ'?'": 7046,
      "divide": 7047,
      "wikipedia": 7048,
      "optimizations": 7049,
      "Ġpolygon": 7050,
      "asdfasdf": 7051,
      "Cycle": 7052,
      "(!=": 7053,
      "500010": 7054,
      "Fr": 7055,
      "LCA": 7056,
      "May": 7057,
      "])))": 7058,
      "king": 7059,
      "knight": 7060,
      "xp": 7061,
      "¦Ĭ": 7062,
      "ĠĠĠĊĠĠĠĠĠĠĠ": 7063,
      "Ġclose": 7064,
      "()<<\"": 7065,
      "//--------------------------------": 7066,
      "Ġlongest": 7067,
      "ĠTL": 7068,
      "Ġ//~": 7069,
      "Ġ).": 7070,
      "ĠVPII": 7071,
      "Ġsetw": 7072,
      "1003": 7073,
      "','.','": 7074,
      "ĊĠĊĠĊĠĊĠ": 7075,
      "posed": 7076,
      "Ġcyc": 7077,
      "ðŁ¦Ĭ": 7078,
      "ĠAlhamdulillah": 7079,
      "Ġcorrect": 7080,
      "uclidean": 7081,
      "(!=)": 7082,
      "Var": 7083,
      "cW": 7084,
      "hy": 7085,
      "tI": 7086,
      "Ġcut": 7087,
      "ĊĉĉĠĠĠĠ": 7088,
      "Ġbg": 7089,
      "ances": 7090,
      "ĠSc": 7091,
      "Ġ300000": 7092,
      "uni": 7093,
      "Ġdeq": 7094,
      "ĠMAXM": 7095,
      "Ġ.'": 7096,
      "305": 7097,
      "Ġorg": 7098,
      "293": 7099,
      "Ġlsb": 7100,
      "<<\",\";": 7101,
      "fffffff": 7102,
      "interval": 7103,
      "OOP": 7104,
      "##~~##~~##~~##~~": 7105,
      "Ð£Ð¡Ð": 7106,
      "Break": 7107,
      "GT": 7108,
      "New": 7109,
      "_<": 7110,
      "fG": 7111,
      "æĹ": 7112,
      "Ġour": 7113,
      "Ġâķļ": 7114,
      "Ġpn": 7115,
      "Ġkhod": 7116,
      "asu": 7117,
      "]).": 7118,
      "Ġcond": 7119,
      "ĠAA": 7120,
      "ĠCU": 7121,
      "ĠCODE": 7122,
      "âĸĪâĸĮ": 7123,
      "88888888888": 7124,
      "à§ĭ": 7125,
      "~~~~~~~~": 7126,
      "dau": 7127,
      "045": 7128,
      "Dec": 7129,
      "Gf": 7130,
      "SP": 7131,
      "ZZ": 7132,
      "ea": 7133,
      "elem": 7134,
      "pas": 7135,
      "æĺ": 7136,
      "Ġcas": 7137,
      "Ġcache": 7138,
      "Ġfetch": 7139,
      "(\"?": 7140,
      "Ġrch": 7141,
      "Ġ']": 7142,
      "unk": 7143,
      "âĸĳâĸĦâĸĢ": 7144,
      "bucket": 7145,
      "ĠDFOR": 7146,
      "ĠCac": 7147,
      "ĠgetMax": 7148,
      "iln": 7149,
      "Ġsortd": 7150,
      "Ġ409": 7151,
      "ĊĠĠĠĠĠĠĠĠĊĠĠĠĠĠĠĠĠ": 7152,
      "ĠEngine": 7153,
      "âĸĴâĸĴâĸĴâĸĦ": 7154,
      "library": 7155,
      "//////////////////////": 7156,
      "ĠfastInOut": 7157,
      "222": 7158,
      "Ġbeli": 7159,
      "&(~(": 7160,
      "!!!!": 7161,
      "ĊĠĠĠĠĊĠĠĠĠĊĠĠĠĠĊĠĠĠĠĊĠĠĠĠĊĠĠĠĠĊĠĠĠĠĊĠĠĠĠ": 7162,
      "ĠTimerStop": 7163,
      "jumps": 7164,
      "trolIO": 7165,
      "ĠEngineering": 7166,
      "&>::": 7167,
      ")\\": 7168,
      "_];": 7169,
      "lh": 7170,
      "Ð¼": 7171,
      "Ġ=================": 7172,
      "Ġlop": 7173,
      "Ġscd": 7174,
      "ĠtG": 7175,
      "::..": 7176,
      "Ġequ": 7177,
      "WWEE": 7178,
      "LLAH": 7179,
      "â£¼": 7180,
      ";}};": 7181,
      "Ġcntbit": 7182,
      "ĠCalc": 7183,
      "love": 7184,
      "Ġsorting": 7185,
      "ĠisLe": 7186,
      "Ġ\\_|": 7187,
      "vious": 7188,
      "582097": 7189,
      "â¢ł": 7190,
      "ĠWA": 7191,
      "Ġï¿½ï¿½ï¿½ï¿½ï¿½ï¿½ï¿½ï¿½ï¿½ï¿½ï¿½ï¿½": 7192,
      "â£¿â¡ĩ": 7193,
      "Ġfdto": 7194,
      "Ġimpl": 7195,
      "moves": 7196,
      "BufSize": 7197,
      "Ġcppstr": 7198,
      "14159265358979323846264338327950288419716939937510582097": 7199,
      "'ve": 7200,
      "(...);": 7201,
      ".;": 7202,
      "Df": 7203,
      "GB": 7204,
      "bar": 7205,
      "cor": 7206,
      "car": 7207,
      "her": 7208,
      "whitespace": 7209,
      "ĊĠĠĠĠĠĠĠĊĠĠĠĠĠĠĠ": 7210,
      "ĊĉĉĠĠ": 7211,
      "Ġblo": 7212,
      "les": 7213,
      "Ġ'<": 7214,
      "Ġ'-';": 7215,
      "Ġ200001": 7216,
      "Ġ++(": 7217,
      "...;": 7218,
      "Ġ30000": 7219,
      "Ġstay": 7220,
      "Ġstuff": 7221,
      "Ġmpp": 7222,
      "Ġgetnum": 7223,
      "Ġdes": 7224,
      "Ġsizes": 7225,
      "vertical": 7226,
      "Ġreps": 7227,
      ")('": 7228,
      "=========": 7229,
      ".....,": 7230,
      "ATCH": 7231,
      "ĠbufSize": 7232,
      "KEK": 7233,
      "Ġà¦Ĩ": 7234,
      "4944": 7235,
      "ĠbinarySearch": 7236,
      "reflect": 7237,
      "sdk": 7238,
      "Ġunzipper": 7239,
      "141592653589793238462643383279502884197169399375105820974944": 7240,
      "*((": 7241,
      "50000": 7242,
      ":.............": 7243,
      ":.................................": 7244,
      ";................................": 7245,
      ";,.": 7246,
      "DKK": 7247,
      "DEEEEEEEEEEE": 7248,
      "GDDD": 7249,
      "KEEE": 7250,
      "KDEEE": 7251,
      "NAN": 7252,
      "UU": 7253,
      "WKKKKKK": 7254,
      "fD": 7255,
      "iDD": 7256,
      "kl": 7257,
      "qe": 7258,
      "Ðŀ": 7259,
      "çĽ": 7260,
      "stan": 7261,
      "ĠfRead": 7262,
      "ĠfWrite": 7263,
      "cloc": 7264,
      "Ġvint": 7265,
      "Ġbst": 7266,
      "ĊĠĠĠĠĠĠĠĠĠĠĠĠĊĠĠĠĠĠĠĠ": 7267,
      "KKEK": 7268,
      "::,": 7269,
      "::,,,,,,,;;;;": 7270,
      "WWKKKKKKKKKKKKKKKK": 7271,
      "WWKE": 7272,
      "WWEEEEEEE": 7273,
      "EEKK": 7274,
      "EEDDDD": 7275,
      "EEKKWWWW": 7276,
      "DDL": 7277,
      "DDDG": 7278,
      "Ġ:,;;": 7279,
      "ĠPO": 7280,
      "EEEEEED": 7281,
      "WWWWKKKKKKKWKK": 7282,
      "=(__": 7283,
      "Ġhsh": 7284,
      "ĠCont": 7285,
      "ĠCTr": 7286,
      "DDDDDDD": 7287,
      "Ġisvowel": 7288,
      "ĠOP": 7289,
      "Ġ\",++": 7290,
      "Ġ.;": 7291,
      "Ġ.:::": 7292,
      "WWWWWWWWWWWWWW": 7293,
      "WWWWWWWWWWK": 7294,
      "GGGGDDDDDDDDDDD": 7295,
      "GGGGGL": 7296,
      "DDDDDDDDD": 7297,
      "WWWKKKKKKKKKK": 7298,
      "WWWKKKKKKKKKKKKKKK": 7299,
      "///////////////////": 7300,
      "KKKWWWWWWWW": 7301,
      "KKKWWK": 7302,
      "invfact": 7303,
      "KKKKKKKKKKKKKKKKW": 7304,
      "KKKKKKKKKKKKKKKKWKKKKKKKK": 7305,
      "DEi": 7306,
      "WKE": 7307,
      "ivo": 7308,
      "tfGGGGDDDDDDDDDDD": 7309,
      "Stamp": 7310,
      "WWWWWWKKKKKK": 7311,
      "EEEEEEEEEEEEE": 7312,
      ",\"/": 7313,
      "WKKWK": 7314,
      "WWWWWWWWWGWWWKK": 7315,
      "......,": 7316,
      "......;": 7317,
      "EDi": 7318,
      "KWEK": 7319,
      "ijLG": 7320,
      "'},{'": 7321,
      "WKKKKKi": 7322,
      "Ġpattern": 7323,
      "ĠEXP": 7324,
      "DEEKKK": 7325,
      "Ġactive": 7326,
      "Pairs": 7327,
      "111000111": 7328,
      "æľī": 7329,
      "ĠfDEEEEEE": 7330,
      "WWWWWWWWKKKKKi": 7331,
      "WWWWWKKKKKWWWWWWWWWWWW": 7332,
      "Ġ....::::..": 7333,
      "SortComp": 7334,
      "è¡¨": 7335,
      "GGGGGGGGGGGGGGGGGGGGGGGGGG": 7336,
      "Shortest": 7337,
      "Ġ.:::;:": 7338,
      "02": 7339,
      "Field": 7340,
      "Inc": 7341,
      "Mx": 7342,
      "Returns": 7343,
      "gl": 7344,
      "Ġ####": 7345,
      "resp": 7346,
      "Ġ(&...": 7347,
      "ĠrFOR": 7348,
      "Ġever": 7349,
      "Ġ'}": 7350,
      "asy": 7351,
      "imal": 7352,
      "Ġminheap": 7353,
      "Ġsumm": 7354,
      "hest": 7355,
      "Ġfront": 7356,
      "ecution": 7357,
      "ĠYou": 7358,
      "vvl": 7359,
      "Ġ1000003": 7360,
      "................................................................": 7361,
      "calculate": 7362,
      "VECTOR": 7363,
      "'},{'.','": 7364,
      "âĸĳâĸĳâĸĳâĸĳâĸĳâĸĮ": 7365,
      "459045": 7366,
      "718281828459045": 7367,
      "Ġ1000111000111000111": 7368,
      "7182818284590452353": 7369,
      ",--": 7370,
      ";,,": 7371,
      "BO": 7372,
      "Check": 7373,
      "Ins": 7374,
      "Queue": 7375,
      "TC": 7376,
      "tam": 7377,
      "Ġ****": 7378,
      "deep": 7379,
      "Ġ0123456789": 7380,
      "Ġvect": 7381,
      "Ġvull": 7382,
      "Ġforup": 7383,
      "Ġxa": 7384,
      "Ġ200000000": 7385,
      "Ġ,&": 7386,
      "Ġ|_": 7387,
      "ĠPref": 7388,
      "ĠRand": 7389,
      "ĠĠĠĠĠĊ": 7390,
      "ĠCan": 7391,
      "pport": 7392,
      "VAL": 7393,
      "100011": 7394,
      "âĸĢâĸĪâĸĪâĸĪâĸĪâĸĪ": 7395,
      ")*((": 7396,
      "Ġasd": 7397,
      "ccess": 7398,
      "âĸĪâĸĪâĸĪâĸĪâĸĮ": 7399,
      "factors": 7400,
      "ĊĉĠĉĉ": 7401,
      "âĸĢâĸĢâĸĳâĸĳâĸĮ": 7402,
      "marked": 7403,
      "âĸĦâĸĦâĸĳâĸĳâĸĮ": 7404,
      ",\"%": 7405,
      "Ġsdk": 7406,
      "Ġ200100": 7407,
      "âĸĪâĸĪâĸĪâĸĮ": 7408,
      "itting": 7409,
      "ticulation": 7410,
      "âĸĢâĸĢâĸĢâĸĢâĸĢâĸĦ": 7411,
      "Ġcorner": 7412,
      "âķĲâķ¦âķĲâķ©âķĲâķ¦âķĲâķ©âķĲâķ¦âķĲâķ©âķĲâķ¦âķĲâķ©": 7413,
      "jdflg": 7414,
      "577215": 7415,
      "âĸĲâĸĳâĸĳâĸĳâĸĦâĸĦâĸĳâĸĳâĸĮ": 7416,
      "ÐĶÐ": 7417,
      "âĸĢâĸĢâĸĢâĸĴâĸĴâĸĴâĸĴâĸĴâĸĴ": 7418,
      "allocator": 7419,
      "Ġ4096": 7420,
      "577215664": 7421,
      "Even": 7422,
      "MY": 7423,
      "bst": 7424,
      "fig": 7425,
      "kt": 7426,
      "pur": 7427,
      "vent": 7428,
      "ĠĠĠĠĊĠ": 7429,
      "Ġ(--": 7430,
      "Ġagain": 7431,
      "Ġfc": 7432,
      "Ġnmax": 7433,
      "ĠFix": 7434,
      "Ġ37": 7435,
      "ĠGen": 7436,
      "Ġsetfill": 7437,
      "Ġmxm": 7438,
      "120": 7439,
      "1000100": 7440,
      "abb": 7441,
      "ĠHopcroftKarp": 7442,
      "Ġvvv": 7443,
      "307": 7444,
      "infuck": 7445,
      "MinVal": 7446,
      "Ġbsr": 7447,
      "box": 7448,
      "Ġ')')": 7449,
      "Ġ(_)": 7450,
      "served": 7451,
      "rdtsc": 7452,
      "ĠĊĠĠĊĠĠĠ": 7453,
      "optimize": 7454,
      "Ġunzip": 7455,
      "==================================+": 7456,
      "Ġbrainfuck": 7457,
      ".,": 7458,
      ">())": 7459,
      "CE": 7460,
      "CP": 7461,
      "[\";": 7462,
      "coun": 7463,
      "kth": 7464,
      "rht": 7465,
      "witch": 7466,
      "åº": 7467,
      "Ĳ¹": 7468,
      "delete": 7469,
      "Ġpred": 7470,
      "//'": 7471,
      "Ġbel": 7472,
      "Ġrai": 7473,
      "til": 7474,
      "<<\"?": 7475,
      "ĠSLL": 7476,
      "Ġmpii": 7477,
      "omin": 7478,
      "')';": 7479,
      "Ġboolalpha": 7480,
      "Ġ\",\";": 7481,
      "ĊĊĊĊĊĠĠĠ": 7482,
      ")<<\",\"<<": 7483,
      "xxxx": 7484,
      "ITY": 7485,
      "Ġpause": 7486,
      "ðŁĲ¹": 7487,
      "<<\"]\\": 7488,
      "Ġutility": 7489,
      "ðŁ¦ĬðŁ¦Ĭ": 7490,
      "æĺ¯": 7491,
      "GN": 7492,
      "Print": 7493,
      "aut": 7494,
      "bp": 7495,
      "cz": 7496,
      "rn": 7497,
      "rim": 7498,
      "Ġao": 7499,
      "Ġforl": 7500,
      "Ġran": 7501,
      "Ġwon": 7502,
      "Ġinstead": 7503,
      "choose": 7504,
      "iiiii": 7505,
      "Ġqe": 7506,
      "Ġseconds": 7507,
      "sums": 7508,
      "Ġinfl": 7509,
      "Ġmnm": 7510,
      "Ġasdf": 7511,
      "229": 7512,
      "11111": 7513,
      "comb": 7514,
      "âĸĪâĸĪâĸĪâĸĪâĸĪâĸĪ": 7515,
      "Ġfollow": 7516,
      "Execution": 7517,
      "strict": 7518,
      "Ġtell": 7519,
      "ABC": 7520,
      "Ġutils": 7521,
      "Ġstree": 7522,
      "ĠSegTree": 7523,
      "131": 7524,
      ":`": 7525,
      "Cout": 7526,
      "Ok": 7527,
      "When": 7528,
      "[!": 7529,
      "]/=": 7530,
      "bes": 7531,
      "cen": 7532,
      "cbegin": 7533,
      "mu": 7534,
      "nYES": 7535,
      "âĺ": 7536,
      "å®": 7537,
      "Ġistr": 7538,
      "Ġids": 7539,
      "reach": 7540,
      "Ġcircle": 7541,
      "ameter": 7542,
      "ĠFr": 7543,
      "ĠNext": 7544,
      "ĠSwitch": 7545,
      "â£ŀ": 7546,
      "Ġary": 7547,
      "Ġ_=": 7548,
      "â£¿â¢Ģ": 7549,
      "minx": 7550,
      "ĠDO": 7551,
      "MAXL": 7552,
      "alla": 7553,
      "Ġsetmax": 7554,
      "Ġmxx": 7555,
      "ocal": 7556,
      "Ġscs": 7557,
      "â¡Ĩ": 7558,
      "349": 7559,
      "Ġà¦ķ": 7560,
      "book": 7561,
      "opeTimer": 7562,
      "â£¯â¢¿": 7563,
      "Ġslope": 7564,
      "â£½â£»": 7565,
      "MMMMMMMMMMMMMMMMMMMMMMMMMMMMMMMMMMMMMMMMMMMMMMMM": 7566,
      "â¢Ģâ¢Ģâ¢Ģâ¢Ģ": 7567,
      "â£¶â£¶": 7568,
      "Ġavail": 7569,
      "Ġsubmitting": 7570,
      "divisors": 7571,
      "ĠPAIR": 7572,
      "â£§âłĺ": 7573,
      "Ġ227420": 7574,
      "ĠScopeTimer": 7575,
      "Ġ227420978": 7576,
      "CR": 7577,
      "GE": 7578,
      "QQ": 7579,
      "cid": 7580,
      "ient": 7581,
      "miss": 7582,
      "nNO": 7583,
      "rot": 7584,
      "ship": 7585,
      "dest": 7586,
      "Ġlw": 7587,
      "Ġfw": 7588,
      "Ġtxt": 7589,
      "types": 7590,
      "ĠTry": 7591,
      "Ġcini": 7592,
      "Ġrect": 7593,
      "])!=": 7594,
      "prob": 7595,
      "),-": 7596,
      "Ġqy": 7597,
      "())*": 7598,
      "ĠCost": 7599,
      "Ġdet": 7600,
      "ĠBuild": 7601,
      ")%=": 7602,
      "fib": 7603,
      "*************************************": 7604,
      "STL": 7605,
      "Ġeni": 7606,
      "1000006": 7607,
      "287": 7608,
      "Ġnega": 7609,
      "ĠMAGIC": 7610,
      "æľĢ": 7611,
      "ethods": 7612,
      "']);": 7613,
      "179": 7614,
      "526": 7615,
      "VL": 7616,
      "circle": 7617,
      "dges": 7618,
      "je": 7619,
      "zeros": 7620,
      "æŀ": 7621,
      "ĊĊĠĠĠĠĠĠĠĠ": 7622,
      "<<=": 7623,
      "ĠFo": 7624,
      "ĠCircle": 7625,
      "ĠID": 7626,
      "ĠIL": 7627,
      "ĠOL": 7628,
      "Ġ[\"": 7629,
      "///--------------------------------": 7630,
      "Ġ^_^": 7631,
      "MaxVal": 7632,
      "ĠKnight": 7633,
      "Ġbef": 7634,
      "Ġrights": 7635,
      "haha": 7636,
      "uffix": 7637,
      "ĠmodularExponentiation": 7638,
      "}}}": 7639,
      "XXXX": 7640,
      "ĠFFT": 7641,
      "Ġlargest": 7642,
      "switch": 7643,
      "497": 7644,
      ":\";": 7645,
      "BB": 7646,
      "XZ": 7647,
      "_=": 7648,
      "date": 7649,
      "how": 7650,
      "pass": 7651,
      "pretty": 7652,
      "reset": 7653,
      "Ġ(),": 7654,
      "Ġmil": 7655,
      "Ġmoney": 7656,
      "Ġpof": 7657,
      "Ġdust": 7658,
      "Ġreserved": 7659,
      "Ġwl": 7660,
      "ĠMem": 7661,
      "chu": 7662,
      "ĊĠĠĠĠĠĉ": 7663,
      "ĠmodAdd": 7664,
      "ico": 7665,
      "Ġ72": 7666,
      "Ġ\\:\\": 7667,
      "à¦ķ": 7668,
      "Ġmultimap": 7669,
      "ATION": 7670,
      "elements": 7671,
      "Ġsuma": 7672,
      "ters": 7673,
      "Ġplus": 7674,
      "Ġ\"{}\";": 7675,
      "ancestor": 7676,
      "ĠNOT": 7677,
      "å°ı": 7678,
      "dividend": 7679,
      "Move": 7680,
      "Main": 7681,
      "lm": 7682,
      "pull": 7683,
      "ron": 7684,
      "rit": 7685,
      "ran": 7686,
      "tms": 7687,
      "yo": 7688,
      "Ġmom": 7689,
      "Ġvir": 7690,
      "acb": 7691,
      "contest": 7692,
      "__)(__": 7693,
      "speed": 7694,
      "ĠMx": 7695,
      "<<\"}\";": 7696,
      "Ġmaxheap": 7697,
      "ĠPDD": 7698,
      "100002": 7699,
      "ready": 7700,
      "ĠWH": 7701,
      "1999": 7702,
      "Ġdoing": 7703,
      "Ġtopolog": 7704,
      "Ġ2005": 7705,
      "âĸĢâĸĦâĸĳâĸĳâĸĳâĸĳ": 7706,
      "ĠBigInt": 7707,
      "ĠDebugger": 7708,
      "Ġbetter": 7709,
      "PROG": 7710,
      "ĠPROGR": 7711,
      "]=='#')": 7712,
      "âĸĳâĸĳâĸĳâĸĳâĸĳâĸĲâĸĳâĸĳâĸĳâĸĳâĸĳâĸĳâĸĳ": 7713,
      "Let": 7714,
      "OI": 7715,
      "Tp": 7716,
      "dn": 7717,
      "mst": 7718,
      "rge": 7719,
      "viz": 7720,
      "Ðł": 7721,
      "ĠĠĠĊ": 7722,
      "--;}": 7723,
      "Ġbte": 7724,
      "ĠTemplate": 7725,
      "ĠFlag": 7726,
      "ĠSh": 7727,
      "Ġoc": 7728,
      "Ġoi": 7729,
      "ĠCase": 7730,
      "ĠCopy": 7731,
      "ĠELE": 7732,
      "Ġnep": 7733,
      "STD": 7734,
      "-='": 7735,
      "ĠmultipleTestMode": 7736,
      "suma": 7737,
      "ATOR": 7738,
      "ECK": 7739,
      "Ġdebarr": 7740,
      "Ġpoz": 7741,
      "ĠRAH": 7742,
      "FFFFFF": 7743,
      "Debugger": 7744,
      "Cont": 7745,
      "WE": 7746,
      "WI": 7747,
      "¦ģ": 7748,
      "Ð´": 7749,
      "æĦ": 7750,
      "Ħï¹": 7751,
      "Ġ={": 7752,
      "star": 7753,
      "Ġisz": 7754,
      "Ġcreated": 7755,
      "//*/": 7756,
      "ating": 7757,
      "Ġinq": 7758,
      "Ġmodinverse": 7759,
      "maxv": 7760,
      "Ġ_______": 7761,
      "Ġhrs": 7762,
      "Ġstt": 7763,
      "ĠGr": 7764,
      "geti": 7765,
      "ĠĠĠĠĠĠĠĠĠĠĠĠĠĠĠĠĠĠĠĠĠĠĠĠĠĠĠĠĠĠĠĠĠĠĠĠĠĠĠ": 7766,
      "Ġ555": 7767,
      "Ġ--){": 7768,
      "ĊĠĠĠĠĠĠĠĠĠĠĠĠĠĠĠĠĠĠĠĠĠĠĠĠĠĠĠĠĠĠĠĠĠĠĠĠ": 7769,
      "Ġadjlist": 7770,
      "Ġ61": 7771,
      "ĠcheckMod": 7772,
      "Ġonline": 7773,
      "Ġcanh": 7774,
      "2907": 7775,
      "ordin": 7776,
      "Ġcoords": 7777,
      "1010101": 7778,
      "lso": 7779,
      "Ġdebpr": 7780,
      "Ġgenerator": 7781,
      "ĠDirections": 7782,
      "8888888888888888888888888": 7783,
      "cuoi": 7784,
      "â£¤â£¤": 7785,
      "Ġstress": 7786,
      "{{{": 7787,
      "Ġfilename": 7788,
      "ï¹Ħï¹": 7789,
      "Ġcube": 7790,
      "YnB": 7791,
      "Inside": 7792,
      "æĦı": 7793,
      "ï¹Ħï¹ĥ": 7794,
      "*>": 7795,
      "230": 7796,
      "400000": 7797,
      "Watch": 7798,
      "_((": 7799,
      "fx": 7800,
      "phi": 7801,
      "rate": 7802,
      "|!": 7803,
      "Ã¨": 7804,
      "Ġol": 7805,
      "Ġmex": 7806,
      "Ġninf": 7807,
      "Ġpfs": 7808,
      "//_": 7809,
      "Ġforward": 7810,
      "ops": 7811,
      "Ġem": 7812,
      "oly": 7813,
      "Ġren": 7814,
      "stread": 7815,
      "ĠFIO": 7816,
      "ncr": 7817,
      "Ġ|.": 7818,
      "Ġstable": 7819,
      "âĸĳâĸĪ": 7820,
      "Ġdenom": 7821,
      "Ġ798": 7822,
      "Ġsetbase": 7823,
      "Ġprecompute": 7824,
      "nown": 7825,
      "Ġoptimiz": 7826,
      "ĠXOR": 7827,
      "Ġbucket": 7828,
      "10001": 7829,
      "sider": 7830,
      "ĠKMP": 7831,
      "LEN": 7832,
      "Ġheart": 7833,
      "mula": 7834,
      "Ġ\"]\"": 7835,
      "Ġà¦ı": 7836,
      "200002": 7837,
      "anced": 7838,
      "intercept": 7839,
      "RIX": 7840,
      "/***************************": 7841,
      "ĠisLeap": 7842,
      "Base": 7843,
      "Cor": 7844,
      "Del": 7845,
      "Wall": 7846,
      "euclid": 7847,
      "rahman": 7848,
      "sink": 7849,
      "uary": 7850,
      "xcross": 7851,
      "Ġ{},": 7852,
      "Ġmish": 7853,
      "Ġfpi": 7854,
      "Ġnpq": 7855,
      "stdint": 7856,
      "stdata": 7857,
      "Ġbip": 7858,
      "Ġform": 7859,
      "Ġfordo": 7860,
      "ized": 7861,
      "Ġrm": 7862,
      "ĠTO": 7863,
      "();*": 7864,
      "\";}}": 7865,
      "ĠFunction": 7866,
      "isspace": 7867,
      "ĠmodDiv": 7868,
      "10198": 7869,
      "ĠPDE": 7870,
      "putnb": 7871,
      "Ġ360": 7872,
      "ĠLazy": 7873,
      "ĠDfs": 7874,
      "]==')": 7875,
      "ĠIR": 7876,
      "Ġ???": 7877,
      "Ġ1000000005": 7878,
      "Ġ1000000000000": 7879,
      "Ġ1011111111": 7880,
      "Ġreadin": 7881,
      "azfast": 7882,
      "atron": 7883,
      "Ġvvld": 7884,
      "Ġbiton": 7885,
      "Ġbitoff": 7886,
      "Ġempb": 7887,
      "grade": 7888,
      "Ġsfd": 7889,
      "testdata": 7890,
      "lnb": 7891,
      "Stream": 7892,
      "à§ģ": 7893,
      "Ġ~/": 7894,
      ")((((*": 7895,
      "cslnb": 7896,
      "delrahman": 7897,
      "Ġobject": 7898,
      "Ġquit": 7899,
      "ĠxyLine": 7900,
      "SSI": 7901,
      "oved": 7902,
      "actice": 7903,
      "ĠContainer": 7904,
      "normfac": 7905,
      "lzy": 7906,
      "ĠSHOWVECTOR": 7907,
      "SOLUTION": 7908,
      "ssertsCounter": 7909,
      "Ġaugment": 7910,
      "14159265358979323846264338327950288419716939937510582097494459": 7911,
      "Ġoptimiza": 7912,
      "Ġmishatron": 7913,
      "250": 7914,
      "?'\\": 7915,
      "Adj": 7916,
      "HI": 7917,
      "HERE": 7918,
      "XY": 7919,
      "little": 7920,
      "ral": 7921,
      "width": 7922,
      "Ġix": 7923,
      "Ġcst": 7924,
      "Ġcop": 7925,
      "Ġnth": 7926,
      "Ġinto": 7927,
      "Ġ\"[]": 7928,
      "Ġdw": 7929,
      "ĠTh": 7930,
      "nton": 7931,
      ">>,": 7932,
      "Ġkth": 7933,
      "ĠFenwick": 7934,
      "iswhitespace": 7935,
      "ĠmodSub": 7936,
      "00000000000": 7937,
      "ĠLIM": 7938,
      "Ġtostr": 7939,
      "frac": 7940,
      "MMMMMMM": 7941,
      "Ġlena": 7942,
      "'.';": 7943,
      "431": 7944,
      "STAN": 7945,
      "els": 7946,
      "Ġgraf": 7947,
      "1000000000000000000": 7948,
      "show": 7949,
      "Ġfinp": 7950,
      "Ġsure": 7951,
      "888888888888888888": 7952,
      "Ġ`.": 7953,
      "Ġtopr": 7954,
      "ĠÐ·": 7955,
      "Ġ505": 7956,
      "Ġallocator": 7957,
      "vari": 7958,
      "çļĦå": 7959,
      "Trie": 7960,
      "Ġgeti": 7961,
      "dblcmp": 7962,
      "!!!\"": 7963,
      "ĠSpeedForce": 7964,
      "ðŁĲ¹ðŁĲ¹": 7965,
      "Ġaryanc": 7966,
      "\"\\": 7967,
      "+--": 7968,
      "+\",": 7969,
      ">((": 7970,
      "Area": 7971,
      "Red": 7972,
      "SQ": 7973,
      "Targs": 7974,
      "cent": 7975,
      "dv": 7976,
      "ĠÂ": 7977,
      "ĠĠĊĠĠĠĠĠĠĠ": 7978,
      "Ġlas": 7979,
      "itor": 7980,
      "Ġtre": 7981,
      "Ġbakh": 7982,
      "::_": 7983,
      "Ġef": 7984,
      "))][": 7985,
      "Ġwidth": 7986,
      "setbase": 7987,
      "])]": 7988,
      "cant": 7989,
      "Ġ//////": 7990,
      "Ġ///////////": 7991,
      "etree": 7992,
      "Ġqi": 7993,
      "Ġov": 7994,
      "ĠPRE": 7995,
      "Ġarticulation": 7996,
      "agetree": 7997,
      "ĠCo": 7998,
      "ĠCnt": 7999,
      "Ġ500000": 8000,
      "ĠinfLL": 8001,
      "mxm": 8002,
      "Ġstra": 8003,
      "Ġ!!": 8004,
      "Ġthree": 8005,
      "Ġvvd": 8006,
      "player": 8007,
      "ONE": 8008,
      "belong": 8009,
      "ĠtimeStamp": 8010,
      "/**************************************": 8011,
      "Ġrdtsc": 8012,
      "irect": 8013,
      "Ġpdqueue": 8014,
      "Ġcell": 8015,
      "access": 8016,
      "ĠIteratorType": 8017,
      "CONSTAN": 8018,
      "Ġcanhazfast": 8019,
      "512": 8020,
      "Crt": 8021,
      "Dbg": 8022,
      "Knight": 8023,
      "Year": 8024,
      "dl": 8025,
      "fprintf": 8026,
      "iy": 8027,
      "qwerty": 8028,
      "rm": 8029,
      "ä¼": 8030,
      "deq": 8031,
      "Ġia": 8032,
      "Ġcare": 8033,
      "Ġauthor": 8034,
      "Ġfopen": 8035,
      "Ġpas": 8036,
      "ency": 8037,
      "():": 8038,
      "Ġrloop": 8039,
      "ĠThis": 8040,
      "ĠTIE": 8041,
      "ano": 8042,
      "spot": 8043,
      "Ġgu": 8044,
      "ĠMASK": 8045,
      "ĠSW": 8046,
      "ĠPair": 8047,
      "ĠLog": 8048,
      "*********************": 8049,
      "Ġseed": 8050,
      "Ġ78": 8051,
      "skip": 8052,
      "ĊĠĠĠĠĠĠĠĠĉ": 8053,
      "8888888888": 8054,
      "Ġpows": 8055,
      "III": 8056,
      "Ġ'.');": 8057,
      "printLine": 8058,
      "Ġ------------------------------------------------": 8059,
      "11111111111": 8060,
      "runtime": 8061,
      "Ġprecision": 8062,
      "Ġgeomet": 8063,
      "Ġ'||*": 8064,
      "Black": 8065,
      "CrtDbg": 8066,
      "CrtDbgBreak": 8067,
      "+((": 8068,
      "709": 8069,
      "IK": 8070,
      "NMAX": 8071,
      "Ptr": 8072,
      "Ra": 8073,
      "SPC": 8074,
      "UONG": 8075,
      "euclidean": 8076,
      "fnd": 8077,
      "qt": 8078,
      "sat": 8079,
      "unt": 8080,
      "{'": 8081,
      "ÙĨ": 8082,
      "ĊĉĊĠĠĠ": 8083,
      "Ġcat": 8084,
      "Ġcoun": 8085,
      "Ġ114": 8086,
      "Ġsn": 8087,
      "Ġsmain": 8088,
      "arithmetic": 8089,
      "typecast": 8090,
      "spar": 8091,
      "Ġ3000": 8092,
      "ĠRANDOM": 8093,
      "ems": 8094,
      "ĠINFF": 8095,
      "ĠVS": 8096,
      "Ġ--++--": 8097,
      "1002": 8098,
      "Ġtmpv": 8099,
      "Ġaccepted": 8100,
      "Ġshuffle": 8101,
      "ĠtestCase": 8102,
      "ĠJew": 8103,
      "monostate": 8104,
      "******************************************": 8105,
      "000000000000000000000000000": 8106,
      "111111111111111111111111111": 8107,
      "ĠØ§ÙĦØ±": 8108,
      "ĠSOLUONG": 8109,
      "ĠCopyright": 8110,
      "ĠJewel": 8111,
      "Jun": 8112,
      "Lf": 8113,
      "SYNC": 8114,
      "Task": 8115,
      "}]=": 8116,
      "};}": 8117,
      "Ñĭ": 8118,
      "ÙĬ": 8119,
      "Ġ######": 8120,
      "Ġ---------": 8121,
      "Ġ\"\");": 8122,
      "__);}": 8123,
      "ĠTp": 8124,
      "Ġreunique": 8125,
      "special": 8126,
      "Ġ239": 8127,
      "ĠFX": 8128,
      "881": 8129,
      "ĠNAME": 8130,
      "ĠPPII": 8131,
      "Ġtrail": 8132,
      "Ġ320": 8133,
      ";;)": 8134,
      "orth": 8135,
      "ĠDate": 8136,
      "ĠCF": 8137,
      "ĠCMP": 8138,
      "ĠreadLine": 8139,
      "Ġpie": 8140,
      "Ġulli": 8141,
      "ĠHASH": 8142,
      "temporaryNode": 8143,
      "à¦¤": 8144,
      "à¦Ľ": 8145,
      "limN": 8146,
      "ĠModInverse": 8147,
      "ĠALLAH": 8148,
      "Ġ',')": 8149,
      "ĠPRS": 8150,
      "ĠPrintV": 8151,
      "ĠÐ½": 8152,
      "Ġsplay": 8153,
      "________________________________________________": 8154,
      "/__/": 8155,
      "<<\")\";}": 8156,
      "Ġ*****************************************************************************************************": 8157,
      "fcse": 8158,
      "radius": 8159,
      "Ġ'[';": 8160,
      "æĹ¶": 8161,
      "ĠPROGRAM": 8162,
      "137": 8163,
      "9223372036854775807": 8164,
      ":......:": 8165,
      ";:.": 8166,
      "Dan": 8167,
      "From": 8168,
      "bel": 8169,
      "ä½": 8170,
      "Ġ])": 8171,
      "ĳÐŀ": 8172,
      "ĊĠĠĠĠĊ": 8173,
      "Ġident": 8174,
      "rel": 8175,
      "Ġcans": 8176,
      "Ġcsum": 8177,
      "Ġnok": 8178,
      "Ġplease": 8179,
      "Ġ1123456": 8180,
      "Ġbid": 8181,
      "algo": 8182,
      "Ġ228": 8183,
      "Ġ)%": 8184,
      "ĠFOUT": 8185,
      "ĠNE": 8186,
      "ĠSync": 8187,
      "â£´": 8188,
      "Ġcnts": 8189,
      "Ġgetv": 8190,
      "third": 8191,
      "Ġ777": 8192,
      "ĠFORIT": 8193,
      "Ġstri": 8194,
      "100009": 8195,
      "::::.": 8196,
      "âł¸": 8197,
      "('<<": 8198,
      "à§Ł": 8199,
      "********************************************************************************************************************************": 8200,
      "bbbbbbbb": 8201,
      "bbbbbbb": 8202,
      "cstdint": 8203,
      "Ġ|_|\\__,_|": 8204,
      "blogspot": 8205,
      "SPCPPL": 8206,
      "#';": 8207,
      "400005": 8208,
      "Euclid": 8209,
      "LS": 8210,
      "TION": 8211,
      "We": 8212,
      "qwe": 8213,
      "ĠOR": 8214,
      "reg": 8215,
      "Ġatr": 8216,
      "Ġmit": 8217,
      "Ġndp": 8218,
      "Ġ>&": 8219,
      "ypow": 8220,
      "Ġxi": 8221,
      "ĠxLast": 8222,
      "Ġwar": 8223,
      "ĠMB": 8224,
      "owed": 8225,
      "Ġmaxv": 8226,
      "ĠSe": 8227,
      "agic": 8228,
      "=(*": 8229,
      "ĠgetMin": 8230,
      "ĠsetBit": 8231,
      "Ġ---": 8232,
      "ĠreadTable": 8233,
      "ĠUS": 8234,
      "Ġneigh": 8235,
      "<<'('<<": 8236,
      "////////////////////////////": 8237,
      "ALT": 8238,
      "parity": 8239,
      "anged": 8240,
      "âĸĵâĸĪ": 8241,
      "ĠComput": 8242,
      "ãĢĤ": 8243,
      "Ġsmaller": 8244,
      "Ġngy": 8245,
      "Ġdefault": 8246,
      "Ġraand": 8247,
      "Ġbottom": 8248,
      "âĸĮâĸĮâĸĳâĸĳâĸĳâĸĳâĸĳ": 8249,
      "Ġatoi": 8250,
      "intersected": 8251,
      "ĠLeft": 8252,
      "'};": 8253,
      "*)&": 8254,
      "06": 8255,
      "Free": 8256,
      "HOME": 8257,
      "Il": 8258,
      "]<<(": 8259,
      "fy": 8260,
      "lis": 8261,
      "Ñı": 8262,
      "Ġ=================================": 8263,
      "default": 8264,
      "Ġ{//": 8265,
      "Ġmv": 8266,
      "Ġfull": 8267,
      "Ġfuck": 8268,
      "clk": 8269,
      "Ġdout": 8270,
      "ected": 8271,
      "ĠMO": 8272,
      "ĠFill": 8273,
      "ota": 8274,
      "ĠLet": 8275,
      "_________": 8276,
      "Ġ.'.": 8277,
      "Ġputnum": 8278,
      "Intersect": 8279,
      "Ġmnx": 8280,
      "]={-": 8281,
      "readth": 8282,
      "Ġprimelist": 8283,
      "ĠbufAt": 8284,
      "\\\\\\\\": 8285,
      "ĠComplex": 8286,
      "ÐµÑĤ": 8287,
      "DEFINE": 8288,
      "Distance": 8289,
      "VERS": 8290,
      "balance": 8291,
      "ÑĢÐ¾": 8292,
      "Algo": 8293,
      "tarun": 8294,
      "ðŁĴ©ðŁĴ©ðŁĴ©ðŁĴ©ðŁĴ©ðŁĴ©ðŁĴ©ðŁĴ©": 8295,
      "ĠDijkstra": 8296,
      "Order": 8297,
      "Union": 8298,
      "Ġimplementation": 8299,
      "654321": 8300,
      "Ġfetcher": 8301,
      "#$": 8302,
      "'],": 8303,
      "(';": 8304,
      ")[(": 8305,
      "9000": 8306,
      "Block": 8307,
      "bk": 8308,
      "floor": 8309,
      "hf": 8310,
      "hour": 8311,
      "Ø§": 8312,
      ");;": 8313,
      "Ġles": 8314,
      "Ġant": 8315,
      "../": 8316,
      "ities": 8317,
      "usk": 8318,
      "strchr": 8319,
      "ĠTA": 8320,
      "uess": 8321,
      "Ġesp": 8322,
      "Ġrecalc": 8323,
      "Ġwind": 8324,
      "Ġ:)": 8325,
      "Ġoperation": 8326,
      "Ġminx": 8327,
      "modinv": 8328,
      "Ġsze": 8329,
      "ĠDX": 8330,
      "Ġallrev": 8331,
      "extended": 8332,
      "Ġsegs": 8333,
      "frq": 8334,
      "ocol": 8335,
      "8888888888888": 8336,
      "compress": 8337,
      "parse": 8338,
      "âĸĦâĸĴâĸĴâĸĴâĸĴ": 8339,
      "Ġdisp": 8340,
      "fastio": 8341,
      "Ġkeep": 8342,
      "Ġ\")\\": 8343,
      "Ġsuch": 8344,
      "Ġextr": 8345,
      "Ġorderset": 8346,
      "âĢĶ": 8347,
      "DIA": 8348,
      "aaaaaaaa": 8349,
      "ĠextendedEuclid": 8350,
      "Ġ1000000000000000007": 8351,
      "ĠUNIVERS": 8352,
      "Ġbelieve": 8353,
      "SSIBLE": 8354,
      "Ġaugmenting": 8355,
      "ĠUNIVERSITY": 8356,
      "2000000000": 8357,
      "DC": 8358,
      "Fargs": 8359,
      "Odd": 8360,
      "TOC": 8361,
      "]<<'\\": 8362,
      "flip": 8363,
      "sion": 8364,
      "sfl": 8365,
      "tout": 8366,
      "~!": 8367,
      "ÐĹ": 8368,
      "ĠĊĠĠĠĠĠĠĠĠĠ": 8369,
      "ļÐĲÐ": 8370,
      "Ġaut": 8371,
      "sep": 8372,
      "++/": 8373,
      "Ġ\"<": 8374,
      "::...": 8375,
      "foru": 8376,
      "Ġwy": 8377,
      "ĠMint": 8378,
      "price": 8379,
      "vecin": 8380,
      "ĠFlow": 8381,
      "ĠPH": 8382,
      "â£Į": 8383,
      "unsetf": 8384,
      "ĠBi": 8385,
      "MAXM": 8386,
      "Ġ1024": 8387,
      "Ġexgcd": 8388,
      "MMMMMMMMMM": 8389,
      "avg": 8390,
      "â¡Į": 8391,
      "segtree": 8392,
      "Ġ(*__": 8393,
      "cover": 8394,
      "â£¿â£§": 8395,
      "â£¿â£¾": 8396,
      "â£¿â£Ł": 8397,
      "â£¯â£Ł": 8398,
      "â£Łâ£¾": 8399,
      "â£¿â¡½": 8400,
      "SUCC": 8401,
      "EMPL": 8402,
      "/************************************************/": 8403,
      ">>>>>>": 8404,
      "222222": 8405,
      "!='-'": 8406,
      "Ġconnected": 8407,
      "â¡ĩâ¢¸": 8408,
      "Ġputii": 8409,
      "ĠPROTOC": 8410,
      "ofileIdx": 8411,
      "ĠRESET": 8412,
      "ï¹Ħï¹ĥï¹Ħï¹ĥ": 8413,
      "SUCCESS": 8414,
      "ĠPROTOCOL": 8415,
      "BASE": 8416,
      "CN": 8417,
      "OSSIBLE": 8418,
      "PQ": 8419,
      "lans": 8420,
      "ning": 8421,
      "ook": 8422,
      "Ð²": 8423,
      "éĩ": 8424,
      "Ġiq": 8425,
      "Ġ(::": 8426,
      "Ġae": 8427,
      "Ġpm": 8428,
      "Ġpls": 8429,
      "Ġpuu": 8430,
      "();)": 8431,
      "Ġ250": 8432,
      "Ġkmp": 8433,
      "Ġprf": 8434,
      "chool": 8435,
      "887": 8436,
      "())!=": 8437,
      "agonal": 8438,
      "Ġhope": 8439,
      "ĠLi": 8440,
      "ĠDinic": 8441,
      "try": 8442,
      "\");}": 8443,
      "ORY": 8444,
      "ĠĠĠĠĠĠĠĠĠĠĠĠĠĠĠĠĠĠĠĠĠĠĠĠĠĠĠĠĠĠĠĠĠĠĠĠ": 8445,
      "sss": 8446,
      "Ġprevious": 8447,
      "ĠUL": 8448,
      "'.')": 8449,
      "336": 8450,
      "Ġthey": 8451,
      "Ġlove": 8452,
      "Ġdistances": 8453,
      "()))))": 8454,
      "ĠDIS": 8455,
      "Ġabdelrahman": 8456,
      "Ġdecimal": 8457,
      "slam": 8458,
      "ctzll": 8459,
      "osen": 8460,
      "cccccccc": 8461,
      "Ġinitialize": 8462,
      "ĠARG": 8463,
      "Ġ2019": 8464,
      "ķÐľ": 8465,
      "Ġtokens": 8466,
      "filename": 8467,
      "Ġstrict": 8468,
      "401": 8469,
      "AMP": 8470,
      "Emr": 8471,
      "NQ": 8472,
      "most": 8473,
      "å¯": 8474,
      "ŁÐ£Ð¡Ð": 8475,
      "inct": 8476,
      "Ġnpair": 8477,
      "Ġnom": 8478,
      "()].": 8479,
      "lll": 8480,
      "<<_": 8481,
      "Ġdm": 8482,
      "ific": 8483,
      "idges": 8484,
      "__<<": 8485,
      "spec": 8486,
      "Ġuc": 8487,
      "backs": 8488,
      "Ġgod": 8489,
      "ĠFile": 8490,
      "Ġoset": 8491,
      "ĠDefines": 8492,
      "ĠBL": 8493,
      "Ġ50000": 8494,
      "/*#": 8495,
      "ĠOn": 8496,
      "151": 8497,
      "Ġleaves": 8498,
      "iel": 8499,
      "ĠcheckBit": 8500,
      "simple": 8501,
      "ĠWe": 8502,
      "Ġgroups": 8503,
      "791": 8504,
      "Ġgcdex": 8505,
      "myCout": 8506,
      "Ð¾Ðµ": 8507,
      "ĠresetBit": 8508,
      "ĠReset": 8509,
      "EGIN": 8510,
      "ĠConstants": 8511,
      "/__\\": 8512,
      "reatest": 8513,
      "ÐĲÐŁÐ£Ð¡Ð": 8514,
      "ĠUnionFind": 8515,
      "Projects": 8516,
      "shared": 8517,
      "Ġworld": 8518,
      "Ġbecause": 8519,
      "ļÐĲÐķÐľ": 8520,
      "Emrul": 8521,
      "ÐĲÐŁÐ£Ð¡ÐļÐĲÐķÐľ": 8522,
      "\"(": 8523,
      "\"));": 8524,
      "Engine": 8525,
      "Off": 8526,
      "Template": 8527,
      "UI": 8528,
      "VEN": 8529,
      "Wr": 8530,
      "csc": 8531,
      "cache": 8532,
      "eof": 8533,
      "gy": 8534,
      "money": 8535,
      "tps": 8536,
      "vol": 8537,
      "{\\": 8538,
      "Ġ99": 8539,
      "Ġ}}": 8540,
      "Ġ\">": 8541,
      "Ġreally": 8542,
      "Ġupp": 8543,
      "Ġuax": 8544,
      "ega": 8545,
      "))*(": 8546,
      "Ġ//__": 8547,
      "INIT": 8548,
      "Ġchunk": 8549,
      "............": 8550,
      "emz": 8551,
      "ĉĉĠ": 8552,
      "ionProjects": 8553,
      "')+": 8554,
      "ĠDR": 8555,
      "lobal": 8556,
      "ĠBINF": 8557,
      "ĠBIG": 8558,
      "Ġoutdist": 8559,
      "327": 8560,
      "https": 8561,
      "187": 8562,
      "âķĹ": 8563,
      "Ġlogn": 8564,
      "Ġcomps": 8565,
      "ava": 8566,
      "Ġwritep": 8567,
      "Ġ1000006": 8568,
      "horse": 8569,
      "ALLOC": 8570,
      "8888888888888888888": 8571,
      "=\"\",": 8572,
      "Ġà¦¸": 8573,
      "Ġ1900": 8574,
      "smaller": 8575,
      "]=='.'){": 8576,
      "âĸĪâĸĪâĸĪâĸĢ": 8577,
      "IMPOSSIBLE": 8578,
      "Ġ'-'){": 8579,
      "ĠĠĠĠĠĠĠĠĠĠĠĠĠĠĠĠĠĠĠĠĠĠĠĠĠĠĠĠĠĠĠĠĠĠĠĠĠĠĠĠĠĠĠĠĠĠĠĠĠĠĠĠĠĠĠĠĠĠĠĠĠĠĠĠĠĠĠĠĠĠĠĠĠĠĠĠĠĠĠĠĠĠĠĠĠĠĠĠĠĠĠĠĠĠĠĠĠĠĠĠĠĠĠĠĠĠĠĠĠĠĠĠĠĠĠĠĠĠĠĠĠĠĠĠĠĠĠĠĠĠĠĠĠĠĠĠĠĠĠĠĠĠĠĠĠĠĠĠĠĠĠĠĠĠĠĠĠĠĠĠĠĠĠĠĠĠĠĠĠĠĠĠĠĠĠĠĠĠĠĠĠĠĠĠĠĠĠĠĠĠĠĠĠĠĠĠĠĠĠĠĠĠĠĠĠĠĠĠĠĠĠĠĠĠĠĠĠĠĠĠĠĠĠĠĠĠĠĠĠĠĠĠĠĠĠĠĠĠĠĠĠĠĠĠĠĠĠĠĠĠĠĠĠĠĠĠĠĠĠĠĠĠĠĠĠĠĠĠĠĠĠĠĠĠĠĠĠĠĠĠĠĠĠĠĠĠĠĠĠĠĠĠĠĠĠĠĠĠĠĠĠĠĠĠĠĠĠĠĠĠĠĠĠĠĠĠĠĠĠĠĠĠĠĠĠĠĠĠĠĠĠĠĠĠĠĠĠĠĠĠĠĠĠĠĠĠĠĠĠĠĠĠĠĠĠĠĠĠĠĠĠĠĠĠĠĠĠĠĠĠĠĠĠĠĠĠĠĠĠĠĠĠĠĠĠĠĠĠĠĠĠĠĠĠĠĠĠĠĠĠĠĠĠĠĠĠĠĠĠĠĠĠĠĠĠĠĠĠĠĠĠĠĠĠĠĠĠĠĠĠĠĠĠĠĠĠĠĠĠĠĠĠĠĠĠĠĠĠĠĠĠĠĠĠĠĠĠĠĠĠĠĠĠĠĠĠĠĠĠĠĠĠĠĠĠĠĠĠĠĠĠĠĠĠĠĠĠĠĠĠĠĠĠĠĠĠĠĠĠĠĠĠĠĠĠĠĠĠĠĠĠĠĠĠĠĠĠĠĠĠĠĠĠĠĠĠĠĠĠĠĠĠĠĠĠĠĠĠĠĠĠĠĠĠĠĠĠĠĠĠĠĠĠĠĠĠĠĠĠĠĠĠĠĠĠĠĠĠĠĠĠĠĠĠĠĠĠĠĠĠĠĠĠĠĠĠĠĠĠĠĠĠĠĠĠĠĠĠĠĠĠĠĠĠĠĠĠĠĠĠĠĠĠĠĠĠĠĠĠĠĠĠĠĠĠĠĠĠĠĠĠĠĠĠĠĠĠĠĠĠĠĠĠĠĠĠĠĠĠĠĠĠĠĠĠĠĠĠĠĠĠĠĠĠĠĠĠĠĠĠĠĠĠĠĠĠĠĠĠĠĠĠĠĠĠĠĠĠĠĠĠĠĠĠĠĠĠĠĠĠĠĠĠĠĠĠĠĠĠĠĠĠĠĠĠĠĠĠĠĠĠĠĠĠĠĠĠĠĠĠĠĠĠĠĠĠĠĠĠĠĠĠĠĠĠĠĠĠĠĠĠĠĠĠĠĠĠĠĠĠĠĠĠĠĠĠĠĠĠĠĠĠĠĠĠĠĠĠĠĠĠĠĠĠĠĠĠĠĠĠĠĠĠĠĠĠĠĠĠĠĠĠĠĠĠĠĠĠĠĠĠĠĠĠĠĠĠĠĠĠĠĠĠĠĠĠĠĠĠĠĠĠĠĠĠĠĠĠĠĠĠĠĠĠĠĠĠĠĠĠĠĠĠĠĠĠĠĠĠĠĠĠĠĠĠĠĠĠĠĠĠĠĠĠĠĠĠĠĠĠĠĠĠĠĠĠĠĠĠĠĠĠĠĠĠĠĠĠĠĠĠĠĠĠĠĠĠĠĠĠĠĠĠĠĠĠĠĠĠĠĠĠĠĠĠĠĠĠĠĠĠĠĠĠĠĠĠĠĠĠĠĠĠĠĠĠĠĠĠĠĠĠĠĠĠĠĠĠĠĠĠĠĠĠĠĠĠĠĠĠĠĠĠĠĠĠĠĠĠĠĠĠĠĠĠĠĠĠĠĠĠĠĠĠĠĠĠĠĠĠĠĠĠĠĠĠĠĠĠĠĠĠĠĠĠĠĠĠĠĠĠĠĠĠ": 8580,
      "ĠRahim": 8581,
      "Ġbelow": 8582,
      "ÐĹÐĲÐŁÐ£Ð¡ÐļÐĲÐķÐľ": 8583,
      ")});": 8584,
      "04": 8585,
      "443": 8586,
      "CEP": 8587,
      "cse": 8588,
      "fas": 8589,
      "ght": 8590,
      "hp": 8591,
      "decl": 8592,
      "ster": 8593,
      "sel": 8594,
      "Ġfvalc": 8595,
      "ĠpDD": 8596,
      "Ġtext": 8597,
      "Ġbk": 8598,
      "Ġbsh": 8599,
      "ifi": 8600,
      "(\"!": 8601,
      "ala": 8602,
      "ĠTemp": 8603,
      "Ġepr": 8604,
      "],(": 8605,
      "anss": 8606,
      "Ġhv": 8607,
      "otal": 8608,
      "ĠLINE": 8609,
      "ĠChi": 8610,
      "NOT": 8611,
      "ĠisArr": 8612,
      "ĠisInside": 8613,
      "149": 8614,
      "ĠEACH": 8615,
      "227": 8616,
      "Ġvvs": 8617,
      "Ġprinta": 8618,
      "othing": 8619,
      "ĠDIC": 8620,
      "]=='.'": 8621,
      "ĠMAJK": 8622,
      "2000005": 8623,
      "Length": 8624,
      "plicative": 8625,
      "appy": 8626,
      "1331": 8627,
      "ĠExit": 8628,
      "ĠIFD": 8629,
      "General": 8630,
      "ĠgetFaster": 8631,
      ")<<'\\": 8632,
      "05": 8633,
      "211": 8634,
      "MAST": 8635,
      "[%": 8636,
      "bW": 8637,
      "both": 8638,
      "dc": 8639,
      "face": 8640,
      "kan": 8641,
      "mf": 8642,
      "ores": 8643,
      "ris": 8644,
      "ting": 8645,
      "watch": 8646,
      "yi": 8647,
      "ĉĠĠĠ": 8648,
      "ĊĊĉĊ": 8649,
      "Ġoup": 8650,
      "Ġcent": 8651,
      "Ġlis": 8652,
      "()%(": 8653,
      "--;}}": 8654,
      "ĠtMod": 8655,
      "attern": 8656,
      "ingh": 8657,
      "ĠMy": 8658,
      "asi": 8659,
      "Ġmaxa": 8660,
      "ĠSol": 8661,
      "Ġoper": 8662,
      "Ġ350": 8663,
      "ĠRight": 8664,
      "ĠRIGHT": 8665,
      "Ġdecl": 8666,
      "ĠBEGIN": 8667,
      "Ġ1000000000000000": 8668,
      "Ġretif": 8669,
      "exist": 8670,
      "537": 8671,
      "Ġfive": 8672,
      "189": 8673,
      "Ġnumerator": 8674,
      "ĊĠĠĠĠĠĠĠĠĠĠĠĠĠĠĠĠĠĠĠĠĠĠĠĠĠĠĠĠĠĠĠĠĠĠĠĠĠĠĠĠĠĠĠĠĠĠĠĠĠĠĠ": 8675,
      "Ġflg": 8676,
      "Ġvvc": 8677,
      "ngy": 8678,
      "ĠWor": 8679,
      "ROLS": 8680,
      "Ġpci": 8681,
      "ĠFora": 8682,
      "673": 8683,
      "month": 8684,
      "Ġevent": 8685,
      "<<\"[\"<<": 8686,
      "Ġoverload": 8687,
      "offset": 8688,
      "Ġdefinite": 8689,
      "Ġproduct": 8690,
      "Ġpeople": 8691,
      "ĠCONTROLS": 8692,
      "ĠâĢĵ": 8693,
      "/*********************************************************/": 8694,
      "cWEj": 8695,
      "ĠÂ©": 8696,
      "ĠPHASE": 8697,
      "MASTER": 8698,
      "Ġdefinitely": 8699,
      "*()": 8700,
      ">-": 8701,
      "BE": 8702,
      "US": 8703,
      "]|=": 8704,
      "aw": 8705,
      "bd": 8706,
      "gjdflg": 8707,
      "jo": 8708,
      "lapsed": 8709,
      "pu": 8710,
      "ted": 8711,
      "vo": 8712,
      "ãĥ": 8713,
      "æī": 8714,
      "integ": 8715,
      "Ġmpr": 8716,
      "Ġface": 8717,
      "Ġfld": 8718,
      "ĠfMin": 8719,
      "Ġ179": 8720,
      "Ġsarth": 8721,
      "Ġtem": 8722,
      "Ġragetree": 8723,
      "Ġgs": 8724,
      "ĠMr": 8725,
      "Ġprs": 8726,
      "Ġprice": 8727,
      "imit": 8728,
      "addedge": 8729,
      "Ġsti": 8730,
      "ĠCPP": 8731,
      "Ġgetsum": 8732,
      "Ġseparator": 8733,
      "Ġisn": 8734,
      "omposition": 8735,
      "181": 8736,
      "abbr": 8737,
      "Ġcheckmax": 8738,
      "Ġgoing": 8739,
      "âĸĳâĸĳâĸĳâĸĳâĸĳâĸĳ": 8740,
      "ccw": 8741,
      "ĠlessThan": 8742,
      "Ġmyland": 8743,
      "1000000009": 8744,
      "bef": 8745,
      "***************/": 8746,
      "Ġgenrate": 8747,
      "671": 8748,
      "âĸĳâĸĳâĸĳâĸĳâĸĳâĸĳâĸĳâĸĳâĸĳâĸĳâĸĳ": 8749,
      "Ġaccess": 8750,
      "Ġcycles": 8751,
      "CAKE": 8752,
      "ĠTrie": 8753,
      "ĠUNIQUE": 8754,
      "âĺģ": 8755,
      "ĠMemory": 8756,
      "ĠComputer": 8757,
      "EMPLATE": 8758,
      "Ġsarthak": 8759,
      "&!": 8760,
      "234": 8761,
      "4000": 8762,
      "?\"\"": 8763,
      "HEL": 8764,
      "Ind": 8765,
      "ale": 8766,
      "eu": 8767,
      "nC": 8768,
      "qy": 8769,
      "è¯": 8770,
      "éĹ": 8771,
      "ĊĠĠĠĠĊĠ": 8772,
      "Ġimax": 8773,
      "Ġfan": 8774,
      "ĠpLL": 8775,
      "Ġtodo": 8776,
      "amb": 8777,
      "ues": 8778,
      "Ġyr": 8779,
      "Ġyalla": 8780,
      "Ġ2000000000000000000": 8781,
      "Ġuin": 8782,
      "Ġwords": 8783,
      "ĠALI": 8784,
      "ĠAdj": 8785,
      "ĠmaxL": 8786,
      "Ġoor": 8787,
      "((__": 8788,
      "EST": 8789,
      "-------------------": 8790,
      "Ġdebuga": 8791,
      "upgrade": 8792,
      "Ġbases": 8793,
      "Ġprintln": 8794,
      "3482": 8795,
      "Ġ:::": 8796,
      "Modular": 8797,
      "139": 8798,
      "Ġtakes": 8799,
      "```": 8800,
      "triangle": 8801,
      "Ġwait": 8802,
      "-------------------------------": 8803,
      "divisor": 8804,
      "CONSTANTS": 8805,
      "\"^": 8806,
      "(%": 8807,
      ")^(": 8808,
      "300001": 8809,
      "411": 8810,
      "?),": 8811,
      "Big": 8812,
      "GW": 8813,
      "IF": 8814,
      "IAB": 8815,
      "Mid": 8816,
      "WN": 8817,
      "hfj": 8818,
      "label": 8819,
      "ĉĊĠĠĠ": 8820,
      "seive": 8821,
      "Ġppp": 8822,
      "Ġforab": 8823,
      "<<')';": 8824,
      "arc": 8825,
      "Ġrez": 8826,
      "Ġ++]": 8827,
      "Ġprsp": 8828,
      "<<\"!": 8829,
      "ĠFS": 8830,
      "ĠFac": 8831,
      "rth": 8832,
      ";;..": 8833,
      "ĠMODULO": 8834,
      "ĠBB": 8835,
      "numerator": 8836,
      "Ġ500005": 8837,
      "ĠisVowel": 8838,
      "ĠVII": 8839,
      "157": 8840,
      "121": 8841,
      "973": 8842,
      "status": 8843,
      "Ġpowerk": 8844,
      "ĠWIN": 8845,
      "scn": 8846,
      "Ġverdict": 8847,
      ";;;;;;;;;;": 8848,
      ";;;;;;;;;;;": 8849,
      "()),((": 8850,
      "events": 8851,
      "ĠCLown": 8852,
      "Ġblocks": 8853,
      "ĠEXCEP": 8854,
      "DIRE": 8855,
      "Ġprepare": 8856,
      "Color": 8857,
      "ICPC": 8858,
      "ĊĠĠĠĠĠĠĠĠĠĠĠĠĠĠĠĠĠĠĠĠĠĠĠĠĠĠĠĠĠĠĠĠĠĠĠĠĠĠĠĠĠĠĠĠĉĉĊĠĠĠĠĠĠĠĠĠĠĠĠĠĠĠĠĠĠĠĠĠĠĠĠĠĠĠĠĠĠĠĠĠĠĠĠĠĠĠĠĠĠĠĠĊĠĠĠĠĠĠĠĠĠĠĠĠĠĠĠĠĠĠĠĠĠĠĠĠĠĠĠĠĠĠĠĠĠĠĠĠĠĠĠĠĠĠĠ": 8859,
      "Ġradius": 8860,
      "ĠFREIN": 8861,
      "IABLES": 8862,
      "ĠEXCEPTION": 8863,
      "*\";": 8864,
      "-()": 8865,
      "697": 8866,
      ":\"<<": 8867,
      "DIM": 8868,
      "Edges": 8869,
      "Me": 8870,
      "NG": 8871,
      "Pi": 8872,
      "border": 8873,
      "dad": 8874,
      "æĪ": 8875,
      "Ġcz": 8876,
      "Ġmypow": 8877,
      "Ġntt": 8878,
      "Ġppl": 8879,
      "++(": 8880,
      "Ġball": 8881,
      "Ġforget": 8882,
      "Ġru": 8883,
      "==///": 8884,
      "ĠPattern": 8885,
      "Ġdpp": 8886,
      "Ġ35": 8887,
      "ĉĉĉĉĉ": 8888,
      "dsh": 8889,
      "three": 8890,
      "Ġ52": 8891,
      "ĠEps": 8892,
      "///================================": 8893,
      "Ġfastpow": 8894,
      "ĠHere": 8895,
      "component": 8896,
      "Infin": 8897,
      "ĠfindSet": 8898,
      "ĠKAZ": 8899,
      "infinity": 8900,
      "------------------------------------------": 8901,
      "RTIME": 8902,
      "017": 8903,
      "ITNO": 8904,
      "_____________________": 8905,
      "OWN": 8906,
      "ĠCompress": 8907,
      "ĠINPUT": 8908,
      "Ġscln": 8909,
      "ĠNoisy": 8910,
      "âĸĪâĸĪâķĶâķĲâķĲ": 8911,
      "ĠLEFT": 8912,
      "//------------------------------------------------": 8913,
      "ĠCURTIME": 8914,
      "ĠFixPoint": 8915,
      "ĠFunctions": 8916,
      "ĠCodeforces": 8917,
      "sparse": 8918,
      "HELPER": 8919,
      "DIRECTION": 8920,
      "424": 8921,
      "CAT": 8922,
      "Centroid": 8923,
      "Mon": 8924,
      "Solution": 8925,
      "ever": 8926,
      "gk": 8927,
      "judge": 8928,
      "lad": 8929,
      "lps": 8930,
      "want": 8931,
      "ĠÑģ": 8932,
      "Ġimap": 8933,
      "Ġ(%": 8934,
      "Ġchi": 8935,
      "Ġnon": 8936,
      "Ġ128": 8937,
      "Ġtos": 8938,
      "Ġbag": 8939,
      "Ġdraw": 8940,
      "__\\": 8941,
      "ĠTTT": 8942,
      "Ġerep": 8943,
      "any": 8944,
      "hik": 8945,
      "))^": 8946,
      "ĠAre": 8947,
      "ĠSE": 8948,
      "ĠPb": 8949,
      "Ġchocol": 8950,
      "Ġstod": 8951,
      "ĠBY": 8952,
      "âĸĪâĸĢ": 8953,
      "thread": 8954,
      "ĠisLeft": 8955,
      "###########": 8956,
      "Ġ41": 8957,
      "cev": 8958,
      "Ġpary": 8959,
      "Ġdijkstra": 8960,
      "ACM": 8961,
      "9983": 8962,
      "Ġheavy": 8963,
      "ĠinvGeneral": 8964,
      "ĠÐ´": 8965,
      "**************************": 8966,
      "ÐµÑĢ": 8967,
      "irectional": 8968,
      "Ġyourself": 8969,
      "version": 8970,
      "Ġcapacity": 8971,
      "Ġroad": 8972,
      "xyLine": 8973,
      "ĠResult": 8974,
      "ä»£": 8975,
      "Ġitems": 8976,
      "ĠPERF": 8977,
      "ĠNote": 8978,
      "FFFFFFFFFFFFFF": 8979,
      "irling": 8980,
      "ĠContest": 8981,
      "Ġchocolate": 8982,
      ".);": 8983,
      "253": 8984,
      ":(": 8985,
      "=\"<<": 8986,
      "LOOP": 8987,
      "NTS": 8988,
      "Pre": 8989,
      "UP": 8990,
      "Walk": 8991,
      "]|": 8992,
      "bid": 8993,
      "otient": 8994,
      "pm": 8995,
      "pOut": 8996,
      "Ġ***": 8997,
      "intt": 8998,
      "Ġlaz": 8999,
      "Ġaft": 9000,
      "Ġsong": 9001,
      "Ġshe": 9002,
      "Ġvowel": 9003,
      "Ġtst": 9004,
      "(\"\")": 9005,
      "Ġ;.": 9006,
      "Ġops": 9007,
      "Ġhai": 9008,
      "indrom": 9009,
      "Ġpiiii": 9010,
      "ĠĠĠĠĠĠĠĠĠĠĠĠĠĠĠĠĠĠĠĠĠĠĠĠĠĠĠĠĠĠĠĠĠĠĠĠĠĠĠĠĠĠĠĠĠĠĠĠĠĠĠĠĠĠĠ": 9011,
      "Ġisspace": 9012,
      "ĠisEof": 9013,
      "Ġ]++;": 9014,
      "ĠEB": 9015,
      "epic": 9016,
      "ĠHH": 9017,
      "colors": 9018,
      "777": 9019,
      "ĠtestNum": 9020,
      "Ġindexing": 9021,
      "101010": 9022,
      "pwr": 9023,
      "Ġlogf": 9024,
      "Const": 9025,
      "tual": 9026,
      "Ġsince": 9027,
      "binpow": 9028,
      "---\\": 9029,
      "cuts": 9030,
      "modulus": 9031,
      "ï¼ģï¼ģï¼ģï¼ģ": 9032,
      "åĪĨ": 9033,
      "Ġ'}';": 9034,
      "ĠisLeapYear": 9035,
      ",++": 9036,
      "358": 9037,
      "92": 9038,
      "]++": 9039,
      "Ã¡": 9040,
      "è¾": 9041,
      "ĊĠĠĠĉĉĉ": 9042,
      "Ġiota": 9043,
      "orn": 9044,
      "Ġmix": 9045,
      "Ġsingle": 9046,
      "()][": 9047,
      "Ġvcd": 9048,
      "iti": 9049,
      "strcmp": 9050,
      "uel": 9051,
      "Ġ'!": 9052,
      "edy": 9053,
      "ĠFrom": 9054,
      "Ġ|___/": 9055,
      "ĠSub": 9056,
      "...){": 9057,
      "omial": 9058,
      "âĸĳâĸĦ": 9059,
      "ĠDo": 9060,
      "]==...": 9061,
      "indr": 9062,
      "ĠreadVector": 9063,
      "stdinDataEnd": 9064,
      "GGGGGG": 9065,
      "à¦¶": 9066,
      "cols": 9067,
      "ĠInv": 9068,
      "ĠIndex": 9069,
      "Ġstarting": 9070,
      "Ġparents": 9071,
      "Ġsolv": 9072,
      "193": 9073,
      "Ġccw": 9074,
      "]='#';": 9075,
      "findp": 9076,
      "Answer": 9077,
      "MINGW": 9078,
      "ĠTimeStart": 9079,
      "ĠTimeEnd": 9080,
      "ĠControlIO": 9081,
      "ĠUpdateMax": 9082,
      "22222": 9083,
      "Ġleading": 9084,
      "Ġmodexpo": 9085,
      "cstddef": 9086,
      "ANSI": 9087,
      "TimerStop": 9088,
      "ĠVARIABLES": 9089,
      "Ġalive": 9090,
      "Ġ===========================": 9091,
      "besme": 9092,
      "STDIO": 9093,
      "Ġidentity": 9094,
      "lapsedTime": 9095,
      "ä»£è¡¨": 9096,
      "'?": 9097,
      ",%": 9098,
      "<!": 9099,
      "HASH": 9100,
      "bet": 9101,
      "oSet": 9102,
      "pil": 9103,
      "sit": 9104,
      "ÑĪ": 9105,
      "âĬ": 9106,
      "è¦ģ": 9107,
      "ĉĊĊ": 9108,
      "desh": 9109,
      "Ġ=(": 9110,
      "ĊĉĊĊ": 9111,
      "Ġ{'": 9112,
      "Ġpin": 9113,
      "Ġscin": 9114,
      "Ġifac": 9115,
      "){//": 9116,
      "Ġrat": 9117,
      "ande": 9118,
      "anized": 9119,
      "till": 9120,
      "ĠMerge": 9121,
      "Ġ:;": 9122,
      "Ġ|\";": 9123,
      "Ġqx": 9124,
      "maxm": 9125,
      "keep": 9126,
      "Ġ_##": 9127,
      "ĠDe": 9128,
      "ĠDEG": 9129,
      "ĠIslam": 9130,
      "]]].": 9131,
      "ESH": 9132,
      "ĠOne": 9133,
      "__________,": 9134,
      "azakh": 9135,
      "Interactive": 9136,
      "mnm": 9137,
      "à¦ĩ": 9138,
      "ĠpowerWith": 9139,
      "2767": 9140,
      "607": 9141,
      "âķĲâķĲâķĿ": 9142,
      "Ġdebmat": 9143,
      "Ġelm": 9144,
      "ĠSTR": 9145,
      "Ġ'*';": 9146,
      "GGGGGGGGGGGGGGGGGGGG": 9147,
      "ladesh": 9148,
      "ĠUpdateMin": 9149,
      "34567891": 9150,
      "ĠFREOUT": 9151,
      "ĠBangladesh": 9152,
      "Ġorganized": 9153,
      "57721566490": 9154,
      "âĬĻ": 9155,
      "ĠpowerWithMod": 9156,
      "'}": 9157,
      ",..": 9158,
      "2147483647": 9159,
      ":................": 9160,
      ";........................": 9161,
      "?\",": 9162,
      "DW": 9163,
      "DGG": 9164,
      "DGGGG": 9165,
      "DEEK": 9166,
      "Eti": 9167,
      "Eii": 9168,
      "Eiii": 9169,
      "EDDD": 9170,
      "EKKKKKWWKKKKK": 9171,
      "GEEE": 9172,
      "GEEEEEEEEEEEEEEEE": 9173,
      "Kii": 9174,
      "KWWWWWWWW": 9175,
      "KWKK": 9176,
      "KWWKK": 9177,
      "KEEEK": 9178,
      "Lj": 9179,
      "Link": 9180,
      "Liii": 9181,
      "LGGG": 9182,
      "PH": 9183,
      "Rotate": 9184,
      "Slow": 9185,
      "WEEEEEEEEEEEEEEEE": 9186,
      "WKKKKKKKKKK": 9187,
      "WEEEEEEEEEEE": 9188,
      "WEEEEE": 9189,
      "WEEEED": 9190,
      "bm": 9191,
      "don": 9192,
      "fK": 9193,
      "fEEE": 9194,
      "fWK": 9195,
      "fLGGDDDDDDDDDDDD": 9196,
      "iD": 9197,
      "iDEEEE": 9198,
      "iWWWWWK": 9199,
      "iKDEEE": 9200,
      "jD": 9201,
      "jLGGGDDDDDDDDDDDD": 9202,
      "tWK": 9203,
      "tEL": 9204,
      "vw": 9205,
      "van": 9206,
      "Ø¹": 9207,
      "ĉĊĉĉĉ": 9208,
      "ĠĊĉĠĠĠ": 9209,
      "Ġcv": 9210,
      "Ġlucky": 9211,
      "Ġ{(": 9212,
      "ĠfDEEEKKKKKKKK": 9213,
      "Ġsat": 9214,
      "llf": 9215,
      "Ġtic": 9216,
      "Ġdid": 9217,
      "KKEEEEEEEE": 9218,
      "KKWWWWWWW": 9219,
      "KKEEEEEEE": 9220,
      "::,,": 9221,
      "::,,,,": 9222,
      "::;:": 9223,
      "::..........................": 9224,
      "ĠTest": 9225,
      "WWD": 9226,
      "WWEEE": 9227,
      "WWEEEEEEEEEEEE": 9228,
      "WWEEEEEEEEEEEEEEEE": 9229,
      "WWKW": 9230,
      "WWKKKKW": 9231,
      "EEDD": 9232,
      "EEKKKK": 9233,
      "EEKKKKKKKKKKKKKKKK": 9234,
      "EEGEEEEEEEEEEEEEEEE": 9235,
      "ego": 9236,
      "LLGGGG": 9237,
      "LLGGG": 9238,
      "Ġ,::,,,,,,,;;;;": 9239,
      "DDGG": 9240,
      "DDDE": 9241,
      "DDEEEWEEEEEEEEEEEE": 9242,
      "Ġconvex": 9243,
      "KKKKWWWWWWWW": 9244,
      "KKKKEEE": 9245,
      "Ġ:,": 9246,
      "Ġ:,:.": 9247,
      "ĠFact": 9248,
      "ets": 9249,
      "EEEEDDDD": 9250,
      "EEEEEK": 9251,
      "EEEEWEEEEEEEEEEEE": 9252,
      "WWWWKK": 9253,
      "WWWWEEEEE": 9254,
      "WWWWKKW": 9255,
      "Ġstoi": 9256,
      "ĠLDEEEE": 9257,
      ",,,:": 9258,
      "ĠDig": 9259,
      "ĠGDEE": 9260,
      "ĠGDEEEKKKKKKKK": 9261,
      "Ġtypes": 9262,
      "cmf": 9263,
      "KKKKKKKKKKKKK": 9264,
      "view": 9265,
      "269": 9266,
      "ĠreadWord": 9267,
      "....................:": 9268,
      ";;;;,": 9269,
      "Ġ.::::::::": 9270,
      "Ġ.:::::::": 9271,
      "Ġ.::;:": 9272,
      ",,,,;": 9273,
      ",,,,,:.": 9274,
      "WWWWWWWWKKKK": 9275,
      "WWWWWWWWWWWWWWW": 9276,
      "DDDDDDDDEEE": 9277,
      "DDDDDDDDDDDDDDDDDDDD": 9278,
      "DDDDDDDDDEEEE": 9279,
      "DDDDDDDDEEEEEE": 9280,
      "WWWKKKKKKKK": 9281,
      "WWWEEEEEEEEEEEE": 9282,
      "]={{": 9283,
      "Ġadjacent": 9284,
      "abab": 9285,
      "EEEWW": 9286,
      "EEEKE": 9287,
      "EEEKKWWWW": 9288,
      "EEEKKWWW": 9289,
      "EEEKKKWWW": 9290,
      "KKKEK": 9291,
      "KKKWWWWW": 9292,
[...]
